#version: 0.2
Ã Ń
Ã ¡
Ġ p
Ġ s
Ä Ľ
Ġ n
Ġ v
Ġ ,
Ġ .
Å Ļ
Ã ©
s t
Å ¾
n ÃŃ
o v
Ġ z
Ä į
c h
Ã ½
Ġ t
Ġ d
Å ¡
Ġ j
Ġ a
r o
Ġ k
l e
Ġ m
r a
o u
l a
Ġ o
l i
e n
Ġp o
h o
Ġn a
t e
Å ¯
Ġ b
ÅĻ e
Ġs e
Ġn e
c e
i n
s k
Ġj e
e m
Ġd o
a k
n ÄĽ
a l
a n
r Ã¡
a t
Å¾ e
Ġp ro
ÅĻ ÃŃ
Ġ u
l o
n i
o r
d e
Ġ Ċ
ÅĻ i
c i
o n
Ġz a
Ġs t
k u
t i
n o
j ÃŃ
k a
Ġt o
Ġv y
t o
j e
Ġ Äį
k y
r e
Ġ h
Ã½ ch
Ġb y
i t
Å¡ ÃŃ
v a
o d
Ġp ÅĻe
Ġ "
e r
n Ã©
Ġ ro
i l
Ġv e
n a
a r
c ÃŃ
Ġ P
d y
p o
Ġk te
Ġ Å¾e
v ÄĽ
t ÄĽ
r u
c k
m e
Ġo b
m i
l u
Ġ S
a d
a v
l Ã¡
Ġo d
Ã© ho
k o
Ġ M
Ġj s
Ġz Ã¡
ov Ã¡
Ġ 1
n Ã¡
Å¡ e
m ÄĽ
Ġ i
Ġ K
â Ģ
z e
Ġ f
Ġn Ã¡
m u
st i
d ÄĽ
Ã º
o b
n e
Ġp ÅĻi
Ġpo d
Ġ -
Ġt ak
Ġ B
Ġ Ãº
Ġv Ã½
k Ã¡
s e
t u
d i
Äį e
Ġ V
Ġkte r
v o
t a
b y
v ÃŃ
Ġ ho
Ġs i
Ġm ÄĽ
Ġ J
v Ã¡
j i
t ÃŃ
ov Ã©
l ÃŃ
sk Ã©
Ġ le
Ġp ÅĻÃŃ
Ġn ÄĽ
Ġm o
Ã½ m
l y
Ġp r
d u
d a
Ġj ak
Ġk o
Ġa le
a s
Ġ c
Ä Į
Ġ âĢ
Ġ 2
z i
Ġb u
v e
l Ã©
ĠpÅĻe d
m o
nÃŃ m
Ġ ch
ov a
Ġ :
Ġ )
Ġ Å¡
ra v
Ġ (
Ġ N
Ã¡ l
r i
Ġje d
n u
t y
Ġ re
Ġ H
Ġ T
Ġro z
Ġ D
n ou
Å¾ i
Äį ÃŃ
Ġs v
s ÃŃ
Ġ li
Ġne j
p e
m a
b o
d Ã¡
b u
Å Ī
Äį nÃŃ
Ġ L
Ġt e
Ġ A
Ġs ou
n y
Ġm u
n Ã½
k on
d ÃŃ
la v
i st
Å¡ tÄĽ
d nÃŃ
Ã¡ t
Ġk on
d o
r ov
te l
Ġ R
Ġ ÄĮ
u je
k la
st a
l ov
st u
m ÃŃ
en t
0 0
Ġm ÃŃ
Ġ e
r y
no st
v nÃŃ
Ġv ÄĽ
ÃŃ m
ov at
Ġs po
Ġ O
Ġk a
l ou
Ġ C
p i
b a
m Ã¡
Ġ in
Å¾ ÃŃ
s le
or u
v i
Ġn i
p ad
k Å¯
Ġjs em
st av
Ġ ?
Ġm i
Ġ ce
Ġj i
e z
st o
ĠâĢ ľ
Ġm Ã¡
Ġjak o
ho d
Ġ ÅĻe
Ġ Å
ck Ã©
p ÄĽ
Ġu Å¾
Ġk dy
Ġ Z
Ġd e
k ov
Ġkter Ã©
Ġm a
s i
Ġkter Ã½
p rav
k ou
b ÄĽ
Ġv ÃŃ
ra n
P o
d ou
j Å¡ÃŃ
Ġs p
Äį i
a m
sk Ã½
ov al
Ġbu de
nÃŃ ch
p u
Ġjs ou
t Ã¡
Ġ F
Ġz e
vÄĽ t
in u
v r
e l
Ġv z
Ġj en
m y
v y
jÃŃ cÃŃ
Ġ Å¾
Ġc o
r Å¯
ĠÄį e
Ã¡ d
a li
âĢ ŀ
Ġd ÄĽ
Ġjs me
h u
Ġm e
b ÃŃ
Ġho d
Ġne bo
sk Ã©ho
m en
N a
no sti
Ġv Å¡
st e
ovÃ¡ nÃŃ
Å ¥
en Ã©
n Ã½ch
Ġp rÃ¡
j em
Ġ E
Ġo s
Ġ 3
v od
nÃŃ ho
Ġv o
al Å¡ÃŃ
Ġ g
Ġp ra
z ÃŃ
b e
Ġje ho
J e
Ġd i
Ã ³
rÃ¡ t
z a
Ġve l
ov ÄĽ
Ġt u
Ġt ÄĽ
Ġby l
te r
Ġtak Ã©
s u
Ã© m
s a
st ÃŃ
Ġ I
Ġb Ã½
Ġt r
ru h
N e
ch o
stu p
g i
sk Ã¡
Ġpo li
ĠÅ ł
v al
p a
ĠÄĮ e
k em
Ġa by
h a
sk u
st vÃŃ
Ġd alÅ¡ÃŃ
Ġa Å¾
d en
le m
Ġ ÅĻÃŃ
ov i
Å¯ m
Ġpo t
in a
Ġ1 9
sk Ã½ch
k t
Ġv Å¡e
o t
ro u
Ġ ra
h ra
ov Ã½
e t
Ġmo h
nÃ© ho
ov an
cÃŃ ch
h le
ch Ã¡
ov o
Ġkte rÃ¡
le Äį
z na
in y
Å¡ i
al o
Ġp Å¯
Ġt i
Ġ G
ko li
Ġt ÅĻe
in Ã¡
ĠvÅ¡ ak
Ġne p
Ġ Å¾i
Ġne Å¾
kla d
Å¯ Å¾e
ÅĻe j
Ġle t
te k
st ÄĽ
Ġb ez
Ġv Ã¡
ÅĻ ad
h y
Ġkdy Å¾
en a
Ġa u
Ġpro to
h Ã¡
Ġna p
Å¾ it
c t
Ġt Ã©
Ä ı
la t
Ġp ou
Ã¡l nÃŃ
Ġk oru
Ġp a
Ġst Ã¡
Ġpod le
Ġje Å¡tÄĽ
Ġ 4
Ġd ruh
ra z
Ġ U
an i
Ġjed no
at i
Ġj in
b i
Ġby lo
nÄĽ jÅ¡ÃŃ
sk o
Ġdo b
e c
Ġt a
ĠP o
Ġz p
s ob
k l
ck Ã½
Ġpr vnÃŃ
t nÃŃ
Ġst ÅĻe
ni ce
i r
Ġ 5
ch od
g ra
Ġk u
Ġa ni
st ÅĻe
Ġa k
Ġb o
u jÃŃ
Ġst a
s pÄĽ
Ġd ne
ji ch
it u
ĠbÃ½ t
b or
Ġby la
st at
ve d
h rÃ¡
Ġv la
P ro
Ġpo z
Ġd Å¯
Ġspo leÄį
Ġna d
Ġmi li
Ġkoru n
Ġm inu
ov Ã½ch
Äį as
Ġsv Ã©
Ġbu dou
Ġz d
Ġst ra
Ġto m
ĠvÅ¡e ch
ĠnÄĽ k
Ġt Ã½
Äį nÄĽ
o m
ĠpÅĻe s
d em
f i
Ġmo Å¾
ze nÃŃ
le n
t ra
Ġza Äį
d Ã©
Ġt en
Ġs a
z en
s o
ĠâĢ ĵ
ĠnÄĽ j
Ġp ak
ĠÅ¡ ko
ĠÄį i
Ġz em
f or
m Ã©
Ġh lav
st Ã©
ĠM i
Ġd ÃŃ
Å¡ tÃŃ
v at
Ġk de
Ġ2 00
Ġje jich
s p
Ġk ra
st ou
Ġne nÃŃ
Ġp ÄĽ
Ġ lo
k Ã©
an a
s la
st Ã¡
l nÃŃ
Ġ lÃ©
Ġto ho
Ġ rÃ¡
le t
ku d
to m
Ġm Å¯Å¾e
st nÃŃ
b li
ar t
Äį it
Ġd va
Ġme zi
k ra
ni t
sk a
Ġroz hod
P od
ĠP ra
Ġs ku
or i
ĠÄį Ã¡
te j
v u
Ġh rÃ¡
e nÃŃ
Ġro ku
Ġs k
Ġkte ÅĻÃŃ
en Ã¡
Å¡ÃŃ m
c Å¯
ov ou
Ġv i
Ġt ÅĻi
Ġst o
Ġe x
z u
Ġo p
ov Ã©ho
Ġt ÃŃm
Ġt y
e j
te m
sle d
c o
s y
T o
Ġne z
Ġm in
Ġh ra
v Ã©
Ġd Ã¡
p l
ch u
Ġs vÄĽ
D o
nou t
Ġro ce
t r
ova li
v Ã½
v ro
Ġce l
Äį ka
Ġ 6
ĠÅ¾i vo
Ġji Å¾
ĠJ i
Ġpr Å¯
Ġpro ti
Ġ !
in ÄĽ
Ġj ÃŃ
Ġp Ã¡
Ġ Å¡e
n Ã½m
ch a
s Ã¡
u n
s lav
v ou
ch y
ck Ã©ho
Ġs y
z d
ĠnÃ¡ s
ĠvÄĽ t
u m
h la
Ġka Å¾
e d
sle dnÃŃ
Ġv Äįe
Ġm no
en o
k ovÃ¡
Ġ ru
p ÃŃ
Ġst av
ĠnÄĽ koli
Äįe k
d r
at ÃŃm
ĠpÅĻÃŃ pad
ck Ã½ch
skÃ© m
va li
Ġti sÃŃ
Ġp la
er i
ĠÄį er
h em
ĠÄį ty
ova la
ÅĻ Ã¡
Ġne mo
Ġp at
la d
P ÅĻe
Ġt am
r g
Ġpra c
Ġz ÃŃ
Ġje jÃŃ
ĠÅĻe kl
le p
Ġ ry
c ky
p r
Ġp rav
ĠK o
Ã ģ
c en
Ġ2 0
ĠvÃŃ ce
v an
Ġs na
Ã ļ
ĠÄį t
Ġmu sÃŃ
u d
i m
Ġma jÃŃ
ĠpÅĻed stav
te ch
Ġt ra
ĠmÄĽ l
p as
Ġle to
al y
Ġf ir
Z a
Äį a
ÅĻe nÃŃ
Å¾e nÃŃ
Ġm y
en e
Ã į
Ġn ÃŃ
ti Å¾
Å ł
sk y
sk ou
s ou
en y
ov nÃŃ
Ġko m
Äį il
ĠL i
Ġto tiÅ¾
t kÃ¡
Ġpro je
Å¡e nÃŃ
Ġs lu
Äį ky
r nÄĽ
Ġ 7
m Å¯
Ġpro b
ro b
le nÃŃ
Ġ W
ÅĻÃŃ klad
em i
ĠM o
z y
Ġk ou
Ġs o
nÃ© m
Ġto mu
Ġb ÄĽ
J ak
Ġpo slednÃŃ
vro p
Ġp re
ck Ã¡
Ġst Ã¡t
p ra
Ġdo st
an e
Ġs tej
Ġu ved
Äįe nÃŃ
l ze
v Å¯
Ġdo mÃ¡
Ġhod in
Ġproto Å¾e
Ġ 8
Ġch y
va jÃŃ
Ġkon ce
la n
Ã¡ m
Ġv lÃ¡
u b
en Ã½
u t
ĠÄį as
Ġn o
Ġs il
Ġpoli ci
ĠS t
Ġna bÃŃ
Ġspo lu
z em
ch ni
h lÃ¡
nÄĽ nÃŃ
Ġk e
ni l
ĠzÃ¡ pas
ĠmÃŃ sto
ÅĻ Ã¡d
b ra
a la
or y
dÄĽ l
v er
Ġv Å¯
n ov
on u
Ġin for
ÄĽ k
ĠnÃ¡ m
Ġos ob
Ġd vÄĽ
e s
st y
Ġk lu
o l
Ġni ch
lu v
Ġu r
Ġ 9
Ġa si
dÄĽ li
Ġz na
V e
an Ã©
Ġp ov
Ġv od
Ġob je
Ġpoli ti
Ġsou tÄĽ
Ã¡ n
ĠM a
k ovÃ©
Ġa n
Ġs ob
in g
s po
ĠtisÃŃ c
Pod le
ĠN e
ĠT o
ar i
r nÃŃ
Ġ ov
Å¡ Å¥
Ġp ar
Ġprob lÃ©
Ġte dy
Ġd lou
ti v
ĠJ a
e k
Ġvel mi
te le
il y
or t
c ent
Ġne do
Ġne by
d al
Å¯ sob
Ġli dÃŃ
Ġmu se
u r
Ġb od
de l
ĠtÅĻe ba
mÄĽ st
ne k
nu tÃŃ
ĠJ e
Ġz mÄĽ
d Ã½
Ġf in
te Äį
ĠK a
Ġdne s
nost ÃŃ
Ġs ÃŃ
kÃ¡ z
tkÃ¡ nÃŃ
Ġte le
ĠnÄĽj ak
nÃ¡ m
Ã½ mi
b al
Ġd en
o p
Ġmin ist
Ġnap ÅĻÃŃklad
a le
ka z
Ġs m
mÄĽ ÅĻ
j de
s il
r em
nÃ¡ nÃŃ
ĠP et
Ġ ci
ro dnÃŃ
n em
K dy
ĠÅ¾ Ã¡d
st ra
tÄĽ z
ĠâĢ ŀ
k e
ĠÄįt vr
Å¾e l
m eri
v en
i li
A le
Ġm al
Ġko le
h l
Å¡ em
Ġf ot
ÅĻej mÄĽ
Ġ /
pi s
Ġsa mo
d ne
p la
Ġpo mo
ĠB o
en ÄĽ
Å¡e l
m an
Ġ 0
r Ã©
Ġpot ÅĻe
P ÅĻi
Ġd vou
Å¾ dy
ĠC h
y nÃŃ
i lo
Ġji m
s l
nÃŃ k
Ġmu Å¾
ni ka
Äįe t
g a
Ġni c
Ġne u
Ġst u
ĠÅĻÃŃ kÃ¡
Ġse d
k rÃ¡t
Ġpod ob
Ġz atÃŃm
k od
T ak
Ġt ÅĻÃŃ
Ġ1 0
Ġpro stÅĻe
u s
z or
pu bli
Ġ cÃŃ
Ġsku p
ĠpÅĻi prav
Å ĺ
Ġb a
r t
ĠmÄĽ sÃŃ
ĠmÃŃ t
li v
en i
b ou
Ġza hra
t or
s lu
te lÃ©
lo gi
Ġj a
m ou
Ġpou ze
Ġse z
V y
Ġf il
Ġ rÅ¯
ĠN a
Ġmoh ou
pÄĽ t
ni ci
d la
Ne j
s lÃŃ
Å¯ j
Ġvo l
Ġs vÄĽt
Ġch tÄĽ
de nÃŃ
mÃŃ n
Ġ1 5
ĠdomÃ¡ cÃŃ
Ġne ch
Ġk an
Ġk rÃ¡
Ġdo kon
Ġo te
Ġzd ra
Å¡e t
in ou
de k
t ro
ĠÄį a
Ġby ly
b nÃŃ
Ġsou Äįas
Ġpro gra
Ġt re
Ġry ch
Ġod p
Ġst ar
Ġp lÃ¡
Ġvy s
ĠÅ ½
ĠÅĻe di
Ġni k
ĠJ an
Ġjed en
Ġro d
v lÃ¡
Ġo rg
ro j
ti l
Ġp e
lo Å¾
p ro
Ġk li
Ġzp Å¯sob
R A
ĠÄįty ÅĻi
ck ou
Ġde se
Ġre publi
be c
Ġdo bÄĽ
itu a
ĠmÄĽ sta
Ġro k
jem e
t Ã©
Ġli dÃ©
vÅ¯ li
Äį er
ĠvÄįe ra
s em
Å ½
Ġkra j
ti t
rÃ¡ n
ĠpÅĻe de
s Ã¡t
Ġfin an
Ġvy u
O d
Ġb ran
Äį an
r Ã½
k Ã½
u l
ĠnÃ¡ v
Ġm luv
Ġne po
Ġf un
Ġn ovÃ©
d il
Ġ ÅĻad
Ġt Ã½m
Ġc en
kov i
Ġt vr
Ġve ÅĻej
li ci
Ġj ste
k ro
k tu
r ch
Ġkte rou
Ġg Ã³
ĠtÄĽ ch
Ġne vy
Ġinfor ma
ce t
ÅĻi t
h e
s ad
Äį ku
Ġvla st
ĠP ro
Ã¡l nÄĽ
at o
ĠnÄĽkoli k
kÃ¡ ch
ra t
ĠprÃ¡ vÄĽ
Äį Å¯
Ġo de
rÃ¡ v
ĠnÄĽ co
Ġtr enÃ©
dÄĽ ji
ce ti
Ġo prav
ĠzÃ¡ kla
ĠzÃ¡ vod
Ġmili on
b er
g y
Ġs itua
p er
Ġuved l
ĠstÃ¡ le
ĠD o
Ġn ov
vÃ¡ nÃŃ
Ġ1 8
ĠtÃ© to
Ġby ch
k ce
p it
Ġ19 9
Z Ã¡
ĠprÃ¡ ce
Ġne bu
Ġob chod
Ġch ce
chÃ¡ ze
Ġc ent
ĠmÄĽ li
g u
ĠH o
Ġten to
Ġp ÃŃ
ÄįnÃŃ ch
ĠzÃ¡ kon
Ġu tkÃ¡nÃŃ
st ru
Ġv a
vÃŃ c
ĠnÄĽk ter
ĠvÄĽt Å¡
Ġp ÅĻ
ĠV Ã¡
l Ã½
ĠJ o
Ġnemo c
Ġz Å¯
v Å¡ÃŃm
Ġco Å¾
Ġo k
t Å¯
p re
t ÅĻe
ĠA n
Ġ1 2
o z
ĠpÄĽ t
li Å¡
u de
li k
li ce
Ġ1 7
Å¡ Å¡ÃŃ
Kdy Å¾
ct vÃŃ
Ġn ynÃŃ
ĠÄįÃ¡ st
Ġle tech
d it
ĠmÄĽ la
n an
Ġz ak
Ġsta ro
Ġs kon
me t
Ġu z
Ġz de
z ku
en Ã½ch
Ġu ni
pe Äį
Ġdruh Ã©
Ġvy so
dÄĽ la
sk Ã½m
h ro
Å¡ nÃŃ
n Å¯
b av
g en
Äį Ã¡
Ġk vali
ti vnÃŃ
ĠÃº spÄĽ
b Ã½
b Ã¡
Å¡e k
Ġm ist
an ou
p Ã¡
li t
ĠdÄĽ ti
r na
Ġby li
at a
m in
Ġk vÅ¯li
ist ori
Ġ lÃ¡
t nÄĽ
ĠL u
ĠJi ÅĻÃŃ
Ġk ri
Ġ Ġ
ĠvÃŃ tÄĽz
st li
Ġu mÄĽ
Ġzem ÄĽ
h lÃŃ
ĠÅ¾ Ã¡
Ġpr ovo
Ġt ro
o to
ĠÃº to
Ġko mu
V Ã½
c ti
d at
Ġ Ãļ
ĠvÅ¡ech ny
ro mÄĽ
em e
ĠvÃ½ kon
p rÃ¡
h ou
Ġo ko
st Å¯
n at
p at
Å¡ lo
Ġs lov
Ġd u
Ġne s
Ġorg ani
ĠÄĮe skÃ©
g e
Ġf or
ĠÄį in
T en
O V
Ġh la
d le
ĠpÅ¯ l
ĠpÅĻede vÅ¡ÃŃm
k lÃ¡
Ġb an
Ġdob ÅĻe
ĠmÄĽ st
ĠzÃŃ sk
Ġur Äįit
ĠF ran
vÄĽt Å¡ÃŃ
Ġko lem
n er
h ov
ovÃ© m
Ġsv Ã©ho
Ġv Å¾dy
ĠP av
Ġvla stnÃŃ
Ġza mÄĽst
de ch
z ni
Ġh ro
Äį in
ĠspoleÄį nosti
Ġpo Å¾
de sÃ¡t
em o
Ġza se
rÃ¡ Å¾
ar d
Ġpro cent
ce la
rÃ¡ l
ne d
dÄĽ t
ovan Ã©
vo j
Ġm Ã©
ĠpÅĻÃŃpad ÄĽ
lo sti
Ġs u
ÅĻi l
k li
Po kud
Ġm an
hle d
f e
ĠK Äį
Å¾ il
Ġmluv ÄįÃŃ
Ġp l
r en
re s
Ġd a
ÅĻi lo
le kt
st va
Ġvy t
ĠtÄĽ Å¾
Ġhod no
Ġleto s
cho m
Ġk ni
ov ÃŃ
Ġte Äı
Ġz da
li l
ĠE vrop
Ġsv ou
Ġdo prav
Ġmo c
lep Å¡ÃŃ
T e
Ġote v
te ri
chÃ¡ zÃŃ
Ġob la
B y
ĠtÅĻe tÃŃ
Ġd Ã¡l
kon o
Ġne mÃ¡
Å¡ it
Ġob y
Ġso ci
Ġau to
ĠÄį lov
le tÃŃ
i la
ĠvÅ¯ bec
Ġ1 1
dÃ¡ nÃŃ
ĠT e
Ġpo stup
d ob
t ky
Ġh istori
. .
Ġh le
Ġsi ce
Ġ1 6
jÃŃ m
vÄĽ d
S T
ĠÅĻedi tel
Ġ lÃŃ
ĠÅ¾ivo t
Ġvz ni
Ġs pe
h ru
Ġ la
Ġz ku
ĠB u
ĠN ÄĽ
Ġvys vÄĽt
Ġpre zi
jÃŃ t
i s
ĠnÄĽ m
Ã¡t ku
Ġpo ÄįÃŃ
Ġpo stav
m ent
le Å¾it
kra Äį
o tu
Ġpod ÃŃ
Ġse be
Ġnej en
p y
ro d
Ġza ÄįÃŃ
ĠÃº ÅĻad
kÅ¯ m
r it
Ġ1 4
ĠnÃ¡v Å¡tÄĽ
ĠmÃŃ st
Ġku l
Ġk do
ĠpÅĻi po
p s
enÃŃ ze
d ce
Ġhod nÄĽ
zna m
Ġne za
dem e
Ġli d
u jÃŃcÃŃ
za ce
z Ã¡
de r
ĠB a
ĠÄį ÃŃ
od a
Ġod bor
3 0
d ky
ĠÄį len
ĠbÃ½ val
Ġpro st
ĠdalÅ¡ÃŃ ch
Ġdo sta
z nÃŃ
nÃ½ mi
op ak
je d
Ġch od
Ġmi mo
d ent
le k
Ġs mÄĽ
ĠÅ¡e st
Ġj Ã¡
ĠV y
Ġdi va
Ġo pÄĽt
Ġdo m
Ġce lÃ©
Ġna vÃŃc
Ġz ra
Å¾ nÄĽ
ĠH ra
Ġ rov
Ġsv Ã½ch
Å¡ ti
ĠK ar
av ÃŃ
Ġe lekt
Ġs r
Ġpo ÅĻÃ¡d
Ġra d
Ġdo p
Je d
ĠI n
Ġzdra vo
ĠP a
Ġne mÄĽ
Å¡ ka
Ġin ter
Ġin ve
ĠtÃ© mÄĽÅĻ
ĠR o
ÅĻ Å¯
Ġ w
ĠV e
d lo
Ġz vlÃ¡
Ġo tÃ¡
l Å¯
Ġst an
ra ce
Ġpo ku
Ġp u
dÄĽ j
Ġpo kud
k al
ĠzÃ¡ jem
Ã© r
n al
M o
p li
Ġsp ort
ĠrÅ¯ z
st vo
Ġv rÃ¡
Ġa l
Ġsou pe
ĠÅ¡ an
Ġs ch
Ġsv Å¯j
cho p
ĠÃº Äįa
rov e
Ġstej nÄĽ
Ġu p
Ġpat ÅĻÃŃ
e b
Ġzahra ni
ĠsvÄĽ ta
ĠM art
Ġj ist
Ġfot bal
ĠÄįÃ¡ sti
Ġmilion Å¯
Ġslu Å¾
Ã© f
Ġpr v
ĠvÃ¡ s
ĠvÃ½ ro
mÃ© na
va tel
Ġpod ni
Ġro ÄįnÃŃ
Ġs nÃŃ
Ġna Å¡e
ĠvÃŃ c
Ġkul tu
C o
PÅĻe d
Ġos m
ba li
ĠkaÅ¾ dÃ½
Ä ļ
Ġa meri
Ġtele vi
Ġp enÃŃze
h at
Ġpro de
ro slav
Ġd ra
Ġj de
Ġdokon ce
Ġpo Äį
S t
ĠvÃ½ sled
as i
ĠpÅĻÃŃ Å¡tÃŃ
Ġz vÃ½
Ã¡ lu
Ġch vÃŃ
ckÃ© m
Ġp i
Ġov Å¡em
Ġjin Ã©
ĠvÃ¡ m
ĠPet r
Ġhlav nÄĽ
ni ctvÃŃ
Ġsed m
po le
ce nÃŃ
00 0
Ġbo j
Ġnej vÄĽtÅ¡ÃŃ
Ġne m
N Ã¡
Ġtak Å¾e
ÅĪ uje
ĠR u
Ġjedno t
Å¾i to
d l
ĠzÃ¡ vÄĽ
Ġnej lepÅ¡ÃŃ
Ġle d
Ġ ;
D S
sa h
on y
Å¾ en
Ġd r
ov y
Ġsob otu
Ġsna d
Ġsp ÃŃ
Ġo stat
Ġprav i
Ġ1 3
rove ÅĪ
ĠvÄĽt Å¡ÃŃ
a g
Ġob ÄĽ
ÄįnÃŃ ho
ĠbÄĽ hem
ĠlÃ© ka
Ġak ci
re k
it y
ĠÅ¡ko ly
Ġj as
Ġpo kraÄį
ad i
ÅĻ a
ĠvÃ½ stav
te ÄįnÄĽ
k ci
K a
ĠpÅĻed se
k at
ĠzÃ¡kla dnÃŃ
Ġpolici e
Ġte chni
lÃŃ n
ob il
Å¾ Å¡ÃŃ
Ġka m
ĠÅ ĺ
Ġpot vr
ce m
ĠL e
su d
ĠZ Ã¡
ov Ã½m
Ġna kon
Ġk la
Ã© n
Ġstra ny
Ġnakon ec
Ġ20 1
ĠV la
Ġv r
nov u
le Å¾ito
Ġve denÃŃ
Ġpra Å¾
ne s
b oru
z ÅĻejmÄĽ
p ar
ĠÄįtvr t
ĠdÅ¯ vod
pe nÃŃ
Ġz nÃ¡
ĠPra ze
Ġpo lov
Ġmoh l
ĠÅ¡ko l
Ġfir my
Ġjed in
pl nÄĽ
dÄĽ lÃ¡
ĠpÅ¯ sob
Å¡ t
Ġob Äįan
lze ÅĪ
zna men
Ġ ÅĻi
ch ra
h lÃ©
Å¡ la
Äį nÃ©
ĠÄĮ R
j en
Ġpo lo
ÄĮ e
ni la
Ġta dy
ĠM ar
ni c
Ġs le
ĠmÃŃ stÄĽ
i e
st al
Ġz lo
J en
Ġf oto
Ġtoho to
ĠtrenÃ© r
kono mi
Ġ lze
S A
k ti
ĠR e
ĠnÃ¡ mÄĽ
Ã¡ r
ĠÅĻi di
Äįi la
te li
cÃŃ m
Ġspe ci
d Å¯
Ġza ji
ĠP ÅĻe
Ġ Â
Ġ3 0
Ġpod p
ĠM ÄĽ
ĠmoÅ¾ nÃ©
Ġpo ra
Ġbu d
ĠK u
po Äį
s nÄĽ
Ġ en
ĠL a
mÄĽ r
let Ã½
O b
p il
ck Ã½m
j te
inÃ¡ le
Ġtra di
Å¾ nÃŃ
Ġb ÅĻe
lov en
vi s
Ġu mÃŃ
Ġst ro
Ġnebu de
Ġpr Ã½
ste ch
h li
Ġle p
Ġs lav
Ġpo sla
j nÃŃ
pr ve
Ġm lad
v ky
ĠproblÃ© m
ĠprÃ¡ ci
Ġho sp
hru ba
Ġna Å¡i
ĠÅ¡ Ã©f
Ġre pre
ĠÄįa sto
Ġsm lou
ĠvÃ½ rob
Ġau tom
h dy
ÅĻÃŃ zenÃŃ
Ġprac ovnÃŃ
p od
by t
Ġpo ji
nÃ¡ ct
Ġb i
stu pi
Å¯ Å¾
l Ã½ch
Ġpo p
L i
Ġsv Ã½m
lo mou
Ġpro du
Ġf e
je nÃŃ
slÃŃ m
da la
k en
st Ã©m
Ġa t
ĠtÄĽch to
c lav
ĠpÅ¯ vod
Ġz ji
ĠZ a
ÅĻ skÃ©
b ez
f er
Ġf ak
ĠnÄĽkoli ka
Ġz i
stu pu
S K
ĠÅ¾ en
Å¡tÄĽ nÃŃ
Ġ2 5
d ra
jÃŃcÃŃ ch
p lo
al u
Ġ %
Ġme t
ĠtÃ½ mu
ĠvÃ½ raz
P ra
z o
Ġh ned
ĠÄįe skÃ©
se k
ĠvÅ¡ech no
lo st
Ġd ru
se f
Ġzku Å¡
tel Å¯
hrÃ¡ l
ĠpÅĻÃŃ liÅ¡
Å¡ li
oval y
Ġje j
Ġvel kÃ©
gra fi
Ġob dob
z nÃ¡
P r
Ġdese t
le s
Ġtom to
mÃŃ r
Äį em
Ġe konomi
M ÄĽ
e ch
s mu
ka m
ko ho
m ci
k va
Ġve Äįer
ĠpÅĻi tom
ĠdÄĽ t
ĠsoutÄĽ Å¾e
Ġg ene
Ġk vÄĽt
spo ÅĪ
Ġlo ÅĪ
ĠdÃŃ ky
Ġho r
bÄĽ h
Ġre Å¾i
vo ji
Ġro ky
dÃ¡ vÃ¡
Ġak ce
S ou
Ġm la
du bi
Ġtre st
Ġdo dal
Ġdi vÃ¡
ĠmoÅ¾ nost
oval o
Ġp an
Ġpo de
P ÅĻÃŃ
ĠnÃ¡ z
Ġvel k
ro n
ĠnÃ¡ vr
Äį en
Ġb lÃŃ
Ġpr emi
je t
Ġjed na
pr vÃ©
Å¾ uje
ĠgÃ³ l
ta ce
Ġp lo
s Å¯
Ġdo ma
Ġpod a
ri e
z ra
Ġs Ã¡m
ĠprostÅĻe dÃŃ
Ġz hruba
sta va
ĠpÃ¡ r
Ġz novu
ĠtÃ½ den
Äįe kÃ¡
Ġvyu Å¾ÃŃ
c a
Ġe vrop
Ã ī
v em
my sl
ĠÄįer v
Ġminist er
te g
ro st
ĠÅ¡ kod
Ġle ty
ÅĻ en
T a
Ġpou Å¾ÃŃ
ovi ce
z uje
ĠmÄĽ sto
dou cÃŃ
ÅĻÃŃ ve
ĠpÄĽ ti
ĠzÃ¡ stup
ĠS o
S S
Ġodp ovÄĽ
E N
Ġvz ta
le z
ĠO DS
Ġz vÃŃ
ĠÄįe kÃ¡
Ġpo zi
ĠÄįty ÅĻ
d li
Ġt er
Å¡ ky
Ġkon tro
Ġpr i
ko j
Ġst ÅĻÃŃ
Ġa b
Äį nÃŃm
R oz
h er
Ġu lici
Ġoprav du
Ġpo ÅĻad
ĠpÅĻÃŃ mo
d nÄĽ
ĠdÅ¯ leÅ¾it
Ġp ova
ez inÃ¡
ĠV ÃŃ
Ġhlav nÃŃ
mÃŃ t
Ġtro chu
z er
Ġpo hy
ĠJ ak
Ġvy pad
Ġo n
ĠÅ¡ pat
Ġklu bu
ĠnÃ¡ ro
be re
st ro
Ġh e
v il
Ġcel Ã½
Ġp enÄĽ
dÃŃ l
Ġlep Å¡ÃŃ
ĠR a
pad u
Ġzna men
Ġjed nou
Ġz cela
E R
jÃŃm av
nÃŃ ci
ad a
ka mi
Ġfil m
H A
ĠN Ã¡
ru m
ĠchvÃŃ li
Ġa d
on Ã¡
Ġs chop
li n
Ġzem ÃŃ
ĠmÃ¡ me
dÄĽ nÃŃ
Ġt itu
K o
ĠB e
Ġ l
ĠTo mÃ¡
ĠvÅ¡ i
ĠV a
Ġ2 1
Ġsy stÃ©m
c ou
Ġnik dy
Ġvo le
Pro to
ĠvÃŃ ken
Ġpoz dÄĽji
ĠJo sef
av i
ĠPra ha
g o
Ġ *
Ġb ra
V ÄĽ
ĠvÅ¡i chni
Ġd ovo
ĠP ar
z nÄĽ
ĠmÃ¡ m
Ġprogra m
M u
da jÃŃ
Ġvyt vo
Ġz ÅĻejmÄĽ
Ġdlou ho
in e
sky t
ĠmoÅ¾ nÃ¡
ÅĻe l
Ġze j
da li
ĠNÄĽ me
Ġne dÃ¡
Ġpro hlÃ¡
Ġmo de
Ġdo bu
ova cÃŃ
Ġvy j
Ġk r
Ġzej mÃ©na
va la
Ġma ji
h nout
pra c
C h
koli v
Å¾i li
Ġna v
ovan Ã½
Ġn ovÃ½
st it
Ġd emo
Ġro di
Ġstu di
Ġza stupi
Ġpo k
Ã¡l nÃŃch
n d
s pe
Ġk ilo
ĠnÄĽ me
mÃ© nÄĽ
Ġmoh li
i k
Ġk ro
ho du
zem ÃŃ
Ġminu t
Ġh rÃ¡t
ch al
Ġz t
ĠvÃŃtÄĽz stvÃŃ
lÃ¡ n
Ġo f
Å¡ il
Ġs ko
Ġn ut
e zi
Ġre gi
k ej
Ġbez peÄį
ĠP od
Ġo pe
ĠzÃ¡ ÅĻÃŃ
at u
Ġob ra
Ġv Ã¡l
ĠÃº da
ĠA l
Ġby chom
Ã Ŀ
L A
Ġprv nÃŃm
Ġtu rna
kla dy
nÃŃ kÅ¯
jÃŃ Å¾
ĠdÄĽ tÃŃ
ĠzamÄĽst nan
ĠA le
Ġtvr dÃŃ
v it
ob od
ĠMart in
Ġv ra
ovÃ¡ n
ĠD u
st il
Ġmist rov
Ã¡t or
Ġnej sou
ĠpÅĻi j
Ġsv Ã©m
s on
di la
Ġh ÅĻi
Ġdost al
ĠspoleÄį nost
ĠvÄĽ ci
Äįi li
Ġsku teÄį
Ġrepubli ky
nÄĽ Å¾
Ġk ar
ov ky
ĠposlednÃŃ ch
Je ho
ĠÄįlov ÄĽk
Ġpo s
Ġje stli
Ġnik do
lÃ¡ nÃŃ
hle dem
ci t
ho r
ĠnÃ¡ sled
Ġo st
I N
ĠS e
Ġuz av
Ġn ÃŃm
Ġvy rov
x i
Ġko mi
Ġpo n
z ky
dÄĽ lÃŃ
Ġjed nÃ¡nÃŃ
Ġob ec
nÃ© mu
ĠPav el
Ġza po
nÄĽ l
Ġtele f
Ġsto jÃŃ
d ru
po zi
Ġen er
Ġs va
sti val
Ġb e
D alÅ¡ÃŃ
po zor
c ku
ĠnÄĽk do
Ġpod mÃŃn
Ġp er
ĠmÄĽ lo
Ġ r
Ġobla sti
Ġsitua ce
Ġs c
Ġse bou
ĠrÃ¡ mci
ku p
Ġzp rÃ¡
Ġvy stou
Ġs nÄĽ
p ovÄĽ
Ġst ÄĽ
Ġkdy by
Ġpo Äįet
R O
Ġinter ne
t en
Ġza hÃ¡
Ġtu to
ĠP e
Ġsp rÃ¡v
ĠkaÅ¾ d
Ġdese ti
Ġpot Ã©
Ġm en
Å¡ ko
Ġspo j
h Å¯
Ġdo pl
Ġv Ã½ch
ad va
ezinÃ¡ rodnÃŃ
ĠD i
ka jÃŃ
Ġjin ak
Ġlo ni
Ġp ÅĻÃ¡
Ġz vy
ĠproblÃ© my
Ġdo by
kov ÄĽ
Ġinforma ce
Ġne v
an t
i c
Ġsamo zÅĻejmÄĽ
Ġprovo z
Ġpro cen
Ġz nÃ¡m
Ġsto letÃŃ
ĠurÄįit ÄĽ
L e
M y
Ġklu b
Ġjedno ho
Ġdemo kra
ĠM u
Ġmno ho
te ÄįnÃŃ
rÃ¡ nÃŃ
Ġob raz
s in
ĠtÃ½ d
Ġpo prvÃ©
nÃŃ ku
ĠÄĮ er
ci e
Ġnep ÅĻe
Ġpro Äį
r no
ĠÄįer ven
Å¡et ÅĻ
k or
Ġpo m
dnÃŃ ch
ĠÅĻÃŃ zenÃŃ
pole dne
ar y
teg ori
Ġprezi dent
Ġna opak
ly m
Ġv stup
Ġobdob ÃŃ
ĠnÃ¡mÄĽ stÃŃ
ĠvÃ½ znam
Ġrych le
ov e
Ġvlast nÄĽ
v or
g li
Ġ2 2
lu je
N Ãį
Ġje Å¾
an y
ĠpÅĻe sto
p le
ĠS a
Ġz kou
m ov
U Å¾
l ovÃ¡
h Ã©
Ġvy z
k lo
Ġz by
Ġpoz or
ova tel
Ġne mu
Ġk rÃ¡t
ĠpÅĻe kva
y m
ĠÅĻe kla
t al
te ÅĻ
Ġjeho Å¾
Ġsou d
ĠvÄįe tnÄĽ
z ka
Ġleto Å¡
g ist
Ġkon e
bu je
ĠÃº plnÄĽ
od Ã¡
Ġu sku
Ġne dÄĽli
ĠH a
Ġv er
b it
V ÃŃ
h r
Ġo ÄįekÃ¡
ovan Ã½ch
ka li
stÃ¡ vÃ¡
Ġni mi
ĠpoÅ¾ ad
ĠB y
vy Å¡Å¡ÃŃ
lav i
Ġde sÃŃ
Ġka tegori
Ġs lo
ĠjÃŃ z
ĠmÃ© nÄĽ
ĠvÃ½ bÄĽ
Ġrozhod nutÃŃ
ni li
Ġau tor
Ġproje kt
m ati
Ġc y
ck o
Ġak tiv
kov Ã½ch
L O
tÃŃ m
Ġst ud
en ci
Ġza pla
Ġm at
Ġst rÃ¡n
Ġminu tÄĽ
Ġstra nÄĽ
dr Å¾
nÃ¡ cti
dr Å¾e
ĠV o
Ġko lo
Ġjed nÃ©
kon stru
dÃ¡ le
Ġ ri
I C
Ġza jÃŃmav
Ġst y
ĠpÅĻÃŃ prav
Ġ5 0
ĠstÃ¡t nÃŃ
SS D
ĠmÅ¯Å¾e te
tu je
Ġman Å¾el
ĠzaÄį Ã¡tku
Ã¡ k
ĠdÃŃ tÄĽ
Ġh asi
Å¾i la
bu l
ĠmÃŃ sta
Ġt la
m Ã½
Ġa r
Ġb ar
H o
Ġu s
Ġkomu ni
Ġu kÃ¡z
ĠzkuÅ¡ eno
se l
je z
Ġneby l
Ġkon ku
Ġza ÅĻÃŃzenÃŃ
Ġtak ovÃ©
rÃ¡ lnÃŃ
Ġv en
ĠnÃ¡vÅ¡tÄĽ vnÃŃ
Ġpo hÃ¡
ch no
J i
Ġod h
ĠU SA
Ġa re
Å¾ nÃ©
Ġa rch
ĠÃºspÄĽ Å¡
Ġskup iny
Ġmili Ã³
ĠnÄĽkter Ã©
je zd
Ġkra je
Ġu pozor
ĠpotÅĻe b
van Ã¡
va jÃŃcÃŃ
hrÃ¡ li
Ġnep ÅĻi
v no
va r
Ġzdravo t
Ġex ist
ĠrÃ¡ d
ĠzÃ¡ pa
Ġo me
Ġprogra mu
f in
N ÄĽk
N E
ti la
Ġo kam
Ġn ovÃ©ho
Ġz at
b lÃŃ
ĠK ra
lÃ© m
p on
Ġh er
ĠzÃ¡ kaz
Ġvy Å¡Å¡ÃŃ
v nÄĽ
ro z
Ġo zna
met rÅ¯
Ġty to
Ġsitua ci
Ġc eny
Ġve doucÃŃ
ni ckÃ©
Z atÃŃm
M Ã¡
Ġnemoc nice
ĠpoÄįÃŃ ta
ve k
ĠpÅĻi je
lÃŃ Äį
Ġh y
Ã© ra
ĠJ ana
de sÃ¡
Ġs la
kov ou
Ġp sy
ĠmÄĽ ly
Ġm Å¯Å¾
ti ckÃ©
Ġa gen
ou f
Ġd ub
raz il
ĠvlÃ¡ dy
Ġji ch
nit ÅĻ
Ġsob ÄĽ
desÃ¡ ti
Ġt rÃ¡
ĠV i
it a
Ġfe stival
Ġu mo
Ġdo mÅ¯
Ġbu deme
ĠnabÃŃ d
ĠV el
Ġp lat
t ou
dÄĽ lenÃŃ
l Ã©ho
Ġp art
Ġs lou
Ġpoli ce
lym pi
Ġf on
Ġse t
Ġtr hu
Ġdo mu
Ġ2 4
Ġjak Ã©
K on
me k
Ġpod stat
za ci
ĠnÃŃ Å¾
ĠzÃ¡ roveÅĪ
t ak
Ġmili ar
Ġop at
vÃŃ ce
ĠB ar
Ġm il
Ġpo h
ĠPra hy
Ġve li
le ch
Ġza ch
Ġmet rÅ¯
Å¾it ÃŃ
ĠA meri
Pr vnÃŃ
Ġh ude
P rÃ¡
Ġre ali
ĠsvÄĽ tÄĽ
b il
ti li
al ÃŃ
ĠÄĮ SSD
p ÅĻe
Ġna Å¡ÃŃ
Ġli sto
ĠÅ¾ivo ta
Ġsy stÃ©
re ch
Ġbod Å¯
re l
p ou
Ġj mÃ©
ru Å¡
Ġpoda ÅĻilo
or e
I n
ĠpÃ¡ tek
Ġoko lÃŃ
ĠVÃ¡ clav
Ġt vo
ĠC o
Ġpov in
Ġspolu prÃ¡
Ġna ro
sp ÃŃ
ĠsluÅ¾ by
Ġprode j
Ġt Ã¡
ĠsouÄįas nÃ©
bo j
Ġko la
Ġn or
Ġp am
Ġdo sud
Ġnep ÅĻÃŃ
Ġpro stÄĽ
Ġte hdy
RA HA
vÄĽ do
Ġce stu
en ce
Ġsc Ã©
Ġjed nu
ĠhrÃ¡ Äįi
ĠzÃ¡pa se
ĠJ u
Ġmistrov stvÃŃ
Å¾ stvÃŃ
Ġdob rÃ©
ĠÄįe skÃ½ch
ent Å¯
ĠnÄĽkter Ã½ch
Ġuved la
Ġpo mÄĽ
i g
Ġt ri
Ġstaro sta
ÅĻi li
Äį tÃŃ
Ġkan di
ĠÄĮe ch
ĠpÅĻes vÄĽd
5 0
ĠstÅĻe du
Ġp ly
R e
Ġpod zi
Ġbudou c
Ġli di
ĠH av
sla va
Ġpo skyt
Ġcel kem
ĠzÃ¡kon a
Ġob ou
Ġh ud
s li
Ġb r
st ÅĻÃŃ
k rÃ¡
ÅĻi la
T y
Ġne vÃŃ
Ġp ovo
Ġneby lo
z ovat
Ġvz po
ĠdÃ¡ le
A L
Äį nÃ½
Ġvy h
Ġtr Ã©n
Ġoby vatel
ĠO lomou
Ġpra kti
Ġpravi del
ĠVla di
Ġvy hlÃ¡
Ġjen om
Ġp Ã¡t
ĠÅ¾Ã¡d nÃ©
po j
Ġpon dÄĽlÃŃ
Ġ 000
Ġinve sti
an Ã¡
Ġtu ri
Ġka pe
a ra
kov Ã½
Ġma teri
ĠmÃ¡ lo
Ġvel kÃ½
P ak
ĠspÃŃ Å¡e
ĠÅĻÃŃ j
Ġjedno du
Ġm ana
ni e
b lo
Ġte x
a st
Ġjen Å¾
or Å¯
Ġfinan ÄįnÃŃ
x u
an d
Ġdruh Ã½
t on
Ġbod y
Ġzem i
Ġm as
ko l
gi e
k rÃ©
Ġhla s
Ġsr p
Ġ. ..
Ġve de
Ġale spoÅĪ
ĠprostÅĻe d
tel nÃ©
ĠmÃŃ stnÃŃ
ra c
ĠzaÄį al
inÃ¡ ch
Ġne bez
Ġdo ta
ĠÃºda j
k ova
kÃ¡ m
te lem
c Å¯m
Ġob ce
te ÅĻÃŃ
ĠS u
Ãº Äįa
ĠR ad
Ġsp rÃ¡
J Ã¡
Ġce lou
r d
Ġvod y
an Ã½
T O
Ġz vo
Ġroz dÃŃl
Ġce st
Ġza stav
Ġm lÃ¡
Ġrov nÄĽÅ¾
Ġkri ti
Ġkon ci
Ġt ou
ĠMo rav
Ġk romÄĽ
le nÃ©
ĠvÃ½ bor
ĠH e
vÄĽ z
pod ob
Ġs vÃ¡
M a
Ġostat nÃŃ
Ġotev ÅĻ
ĠK rÃ¡l
ze k
ĠTomÃ¡ Å¡
Ġpa ci
do st
Ġ1 00
u jeme
Ġfoto grafi
Ġza s
Ġst al
Ġab so
nÃ¡ ch
kÃ¡ ÅĻ
Ġzt rÃ¡
Ã© ru
Å¾e b
v ak
Ġstar Å¡ÃŃ
Ġho kej
Ġh ry
Ġo hro
ĠÃºto ÄįnÃŃ
Ġpod nika
v ka
Ġsku teÄįnÄĽ
Ġpro ce
Ġmoh la
Ġpod po
Ġn ena
PÅĻe sto
t Ã½
vÃ¡ m
n skÃ©
ĠÃº ter
Ġcen u
Ġfun g
Ġdo ku
ĠpÅĻed po
Ġdo la
b r
Ġsoci Ã¡lnÃŃ
fi ka
Ġo t
Ġn ovÃ¡
ĠzaÄįÃŃ nÃ¡
Ġn ovÃ½ch
cou z
ma jÃŃ
ĠÃºÅĻad u
Ġli gy
Ġvz Ã¡
Ġh ru
Ġst ani
ĠE vro
C H
ÅĻÃŃ m
Ġpro sin
ĠpÅĻi z
Ġmu ze
vo la
ĠdvÄĽ ma
Ġs Ã¡
ra ci
Äį ce
Ġst ÃŃ
Ġf a
Ġu ve
ĠM e
Ġz alo
ce lÃ¡
ĠN i
ĠpÅĻÃŃ leÅ¾ito
hle du
Ġvo zi
Ġch la
ra l
A R
Ġta bul
ĠblÃŃ z
Ġob a
Ġ2 3
ver z
Ġ19 8
ĠpenÄĽ z
ĠnÄĽk dy
Ġfot bali
dÄĽ podob
re j
Ġ ly
Ã¡ nÃŃ
ĠN ej
Ġs rov
Ġdo sÃ¡
Ġnem Å¯Å¾e
Ġkter Ã½m
Ġ Y
vo je
Ġj men
Ġfir ma
ĠS par
Ġvy p
Ġstav u
Å¡ ku
Ġsm r
ĠplÃ¡ n
ĠchtÄĽ jÃŃ
ĠvÄĽtÅ¡ inou
Å¾ nÃ¡
ĠÅĻe Å¡enÃŃ
Ġj u
Ġvy bra
Ġprocen ta
L E
ved l
ĠP ÅĻÃŃ
Å¯ vod
zÃŃ ch
ĠmÄĽ stÄĽ
Ġsou du
Ġro li
ĠM ari
ĠchtÄĽ l
ĠPar dubi
Ġdru Å¾
Ġro ze
ĠpÅĻe ce
ĠÅ¡ i
2 0
ĠÅ¡ tÄĽ
Ġrepre zen
ĠvÄĽ n
p or
re su
vi dÃŃ
Ġne o
g ovÃ©
c ka
mu t
la ce
ĠnÄĽjak Ã©
Ġdne ch
Ġp Ã©
Ġlisto padu
hu Å¾el
ÄįÃ¡ stÃŃ
l nÄĽ
ĠÃº stav
Ġf anou
A N
ĠzemÄĽ dÄĽl
Ġmuse l
Ġsp ou
le c
ĠdÄĽ lat
hlÃ© d
p ort
Ġp ad
ĠL o
j Ã¡
Ġd lu
ob y
ĠprÅ¯ bÄĽ
Ġagen tu
s lo
di li
ĠFran ti
Å¾ ovat
Ġrod in
ĠzpÅ¯sob em
Ġve dle
e st
sk em
j ak
Ġo z
Ġpo tom
Ġnej vyÅ¡Å¡ÃŃ
B o
Ġb ÃŃ
j u
ovÃ¡ nÃŃm
Ġautom obil
sti ckÃ©
Ġsou kro
ĠÅ¾ eny
Å¾ enÃ©
v in
Ġm ezinÃ¡rodnÃŃ
Ġrad nice
s s
ĠK dy
ĠtÅĻe t
ĠP l
sti li
ĠÄįas u
Å¡ en
Ġve s
nÄĽjÅ¡ÃŃ ch
ĠÅ¡an ci
fi ci
Ġse m
ĠpÅĻi Å¡el
sle dek
skÃ½ mi
Ġnich Å¾
Ġd ny
te ra
Ġre konstru
ĠN A
ĠK la
Ġpoz em
le r
i ch
Ġu dÄĽla
Ġ lu
nu je
ĠE U
Ġhod iny
Ġjednot liv
Ka Å¾
l ova
s f
o st
V Å¡e
Ġroz poÄį
Ġs dÄĽli
Ġdo kÃ¡z
o logi
ĠA u
Ġho ke
Ġmno Å¾stvÃŃ
Ġpla tÃŃ
ĠÄį ist
Ġ '
Ġd ÅĻÃŃve
Ġprost or
S po
an Ã½ch
ĠV Ã½
kÃ¡ Å¾e
Ġd ÅĻe
sta u
Ġkter Ã©ho
ĠvlÃ¡ da
P RAHA
ovÃ¡ na
Ġsk vÄĽ
ĠnÃ¡ rodnÃŃ
vi li
Ġdruh ou
avÃŃ c
Jak o
Ġtak y
chod u
Ġpo sti
Ġ4 0
ĠÃºÄįa stnÃŃ
Ġpomo c
sa hu
Ġz ve
Ġt ato
g er
z ent
ste k
n ce
Ġs nÃŃm
Ġmo ci
Ġvi dÄĽt
Ġkra ji
Ġmiliar dy
Ġt he
dru Å¾enÃŃ
ĠnabÃŃ zÃŃ
Ġna vr
Ġz pÄĽ
K romÄĽ
ĠR om
ÅĻÃŃ Å¾
nÃŃ ky
Äį kou
Ġsv obod
Ġg ra
Ġzahrani ÄįÃŃ
on a
ovan Ã¡
Ġsle d
Ġkla si
ĠT ÅĻe
Ġk y
pra va
Ġod mÃŃt
D ÄĽ
Ġmno hem
Ġprezi den
O U
Ġarch i
M i
Ġse r
ĠÃº zemÃŃ
Ġznamen Ã¡
ĠJa roslav
Ġnech tÄĽ
hla s
Ġb rÃ¡
ĠÃº vod
ni lo
ĠÅ¾ ena
ĠvÄĽ c
Ġf inÃ¡le
ĠS loven
Pra ha
ĠpÃŃ s
Ġpro fe
Ġto to
ĠzÃ¡ j
ĠÅ¡ am
ĠÄįlov ÄĽ
ho dy
Ġu dÄĽ
Ġu Äįi
al Ã¡
Ġle h
1 0
kt or
k le
v ku
an u
Ġd ve
ĠJ Ã¡
ÅĻa dy
Ã¡l nÃŃm
Ġsna Å¾ÃŃ
ra zi
Ġnep ro
ĠS tra
Ġsy m
Ġvy bav
tiv nÄĽ
p en
Ġo lympi
Ġpr ovÃ¡
Ġhra je
Ã¡l nÃŃho
m at
Ġ6 0
ĠvÃ½ch od
Ġinfor m
ĠP lzeÅĪ
bÃ½ vÃ¡
bi li
l d
Ġne vÄĽ
ĠB er
ĠvÃ½ ji
Ġob rÃ¡
Ġspo tÅĻe
ĠR ak
Ġje z
klÃ¡ dÃ¡
ch ov
n ak
ĠprÃ¡ zd
Ġka pit
k ty
Ġkter Ã½ch
Ġpodzi m
Ġpo ÅĻÃ¡
ĠT a
ĠJa ro
Ġsoupe ÅĻe
Ġzastupi tel
m ar
Ġo chra
ĠsystÃ© mu
Ġhosp odÃ¡
Ten to
Ġrepubli ce
d ci
Ġproje ktu
Ġpomo ci
ĠzÃŃsk at
Ġdi sku
Ġ2 8
Ġex tra
n alo
ĠD avi
Ġauto bu
ĠpÅĻes nÄĽ
b em
Ġc ena
Ġ2 6
Ġchy bÄĽ
ps al
ve z
ĠpÅĻÃŃ stup
ĠzÃŃ skÃ¡
bu r
Ġu Å¾i
T i
S a
Ġd ale
ĠÅ¡e sti
ĠpÅĻedse da
Ġve lice
d ka
Ġk ÅĻe
men tu
Ġleto Å¡nÃŃ
S e
in o
st itu
Äį uje
f a
Ġf ran
Ġm od
Ġnap ro
Ġvel kou
Ġskon Äįil
de jÅ¡ÃŃ
Ġkon krÃ©
Ġpo pu
Ġ |
ĠBu dÄĽj
Ġroz Å¡ÃŃ
Ġled na
tel nÄĽ
Ġz ne
Ġslu Å¾eb
ÄįÃŃ n
ĠEvrop y
ĠO stra
Ġkomu nika
in ist
K A
Ġsa mi
ĠH or
ĠvÅ¡ em
Ã¡ z
Ġv hod
Ġm ar
li e
Ġst adi
Ġpu bli
Ġna stou
Ġti sk
ĠpÅĻÃŃ jem
Ġn ovou
ĠD e
ĠstÃ¡ tu
Ġdo Å¡lo
Ã© ri
ĠÅĻad u
Ġhe re
v ce
Ġjin Ã½ch
ma rÃ¡
s me
Ġu dÃ¡
ĠZ em
ov u
Ġh lu
Ġre stau
Ġmu Å¾e
Ã ¼
Ġpo ho
ĠzÃ¡pas u
ÅĻe dnÃŃ
Ġd al
Ġpro bÃŃ
N avÃŃc
Ġmla dÃŃ
s al
Ġvy Å¡etÅĻ
Ġmana Å¾e
ĠKrÃ¡l ovÃ©
vak rÃ¡t
Ġmo tor
Ġtak ovÃ½
ĠprÃ¡ vnÃŃ
Ġsch vÃ¡
m it
ĠD ÄĽ
ĠÃº Äįin
Ġte chno
ar u
ĠP ÅĻi
Ġpolici stÃ©
ĠrÅ¯z nÃ½ch
Ġob rov
ĠhrÃ¡ ÄįÅ¯
Ġto lik
ĠKar lov
ĠhrÃ¡ Äį
ĠnaÅ¡i ch
lÃŃ b
Ġ2 7
Ġja zy
ĠprohlÃ¡ sil
hod ob
Ġvyj Ã¡d
Ġd ce
ky nÄĽ
Ġz bo
ch ran
Ġs li
mÃŃ nÃ¡
nu l
t at
ĠdÄĽ la
Ġinforma cÃŃ
re v
k Ã½ch
ĠÃºter Ã½
Ġpart ner
ÅĻ ka
Å¾e k
ĠÄĮe sko
ri g
O R
Ġu vÃ¡
hod no
ĠrÃ¡ di
Ġprav dÄĽpodob
nost nÃŃ
T ÅĻe
ĠpÅĻe v
si on
Ġnebo Å¥
bÃ¡ ch
Ġn u
o ni
ĠÃºspÄĽ ch
ĠK on
M ezi
sle du
Ġkandi dÃ¡
Å¡ le
Ġdo spÄĽ
Ġtelef on
ati vnÃŃ
ĠB rnÄĽ
Ġdo pad
ĠvÃ½sled ky
ov ce
m em
Ġpolice jnÃŃ
Ã ¶
Äįi lo
ĠkrÃ¡ s
ĠpÅĻÃŃ slu
ch i
Ġp en
Ġb Ã¡
Ġt vÃ¡
Ġdva cet
ĠnÄĽ ho
to ra
ĠzÅ¯ st
u k
Ġkonce r
in ci
Ġka b
Ġa s
Ġte plo
Ġmoh lo
ĠÄįtvr tek
ĠrÃ¡ no
Ġt ran
y zi
Ġinterne t
ÃºÄįa st
Jen Å¾e
Ġz tra
ĠO d
ÄĽ jÅ¡ÃŃ
Ġumo Å¾
ĠzaÄį ne
Ġelekt ro
an ce
Ġdop oru
Ġsp or
Ġmen Å¡ÃŃ
Ġz dÃ¡
Ġst ran
Ġvi dÃŃ
de c
Ġkan celÃ¡
ĠÄįe skÃ½
ĠsoutÄĽ Å¾
Ġmal Ã©
ry ch
Ġminist r
va Å¾
Äįas ÃŃ
Ã¡ ch
Ġop ak
av y
Ġbu du
m r
ne c
Ġmno ha
m il
D nes
u ro
spo zi
C el
im Ã¡lnÄĽ
ĠP rÃ¡
Ġfir em
ĠÄįe skÃ©ho
r ny
Ġz lep
my slu
Ġpar la
Ġzra nÄĽnÃŃ
Ġs bÃŃ
sta vÄĽ
d lÃŃ
Ġku r
j a
Ġkonce m
Ġpro d
Ġjin Ã©ho
li la
ĠEvrop skÃ©
ĠV ÄĽ
nÄĽ nÃ©
ĠvÃ½raz nÄĽ
Ġodp ovÃŃ
Ġd vanÃ¡
Ġprac ov
ĠvÃ½ Å¡i
V A
Ġpodp oru
Ġzdravo tnÃŃ
ĠÅ¡am pi
je l
u ji
ĠÄįerv na
Ġka marÃ¡
ĠmÅ¯Å¾ eme
k ne
le j
ĠnÃ¡ zor
Ġnemu sÃŃ
Ġodh ad
Ġc z
ĠkvÄĽt na
Ġuni e
ĠzÃ¡ pad
Ġnej vÃŃce
f ek
h i
Ġkonku ren
Ġtechno logi
den ÄĽk
Ġdola rÅ¯
ĠvÃŃken du
Ġdi spozi
Ġspo koj
ĠKa rel
ĠB ra
k et
Ġnez Ã¡
Ġdo stat
Ġdale ko
Ġu kon
Ġinve st
Ġna z
Ġno ci
Po lici
Ġod poledne
d ar
Ã¡t ky
ceti letÃ½
ĠpÅ¯ j
Ġs en
Ġzp rac
Ġkomi se
Ġdo z
Ġmuse li
ĠzaÄį ala
ĠMi roslav
Ġdlou hodob
pi li
ĠspoleÄį nÄĽ
lÃŃ k
ÅĪ ujÃŃ
Ġpo su
Ġz pÄĽt
pi su
dnÃŃ ho
ĠkaÅ¾ dÃ©
Ġi de
Ġmili onu
Ġne da
Ġsou se
Ġsamo t
Ġal koho
Ġh Ã¡
d ak
Ġpo sÃŃ
Ġrozhod nÄĽ
ĠzÃ¡ sad
Ġmuse t
Ġpo mÃ¡
lu vÃŃ
s it
Ġre kor
Ġextra li
sta la
Ġ lou
Ġh vÄĽz
ce mi
di e
Ġhoke ji
Ġp ovÄĽ
V el
ĠI I
ĠÅ¾Ã¡d nÃ½
Ġli dem
PrÃ¡ vÄĽ
Ġte prve
ĠÂ «
ĠT i
E L
ĠlÃ© pe
ĠÄį ÃŃm
ĠO b
ĠS ch
r b
Ġstu p
Ġdo dÃ¡vÃ¡
ĠÄĮe sku
M ÃŃ
vis losti
ĠÄĮ T
Ġpova Å¾
Äįe ra
Ġkou Äį
dÄĽ le
ĠpÅĻÃŃ pa
val o
Ġdruh Ã©m
Ġne od
Ġma jet
den ti
Ġa Å¥
h ne
Ġv liv
ĠtrÃ©n in
Ġdo sa
Ġd Ã©
Ġuni verz
A ni
Ġpostup nÄĽ
mo t
jÃŃcÃŃ m
ĠT ak
Ġv l
bu d
ĠdÄĽ lÃ¡
ĠÃº rov
ĠpÅĻi jde
Ġfran couz
Ġb rnÄĽ
Ġjed nÃ¡
Ġpo hled
Ġt z
Ġme da
Ġd vakrÃ¡t
pi la
q u
Ġje zd
ĠpÅĻÃŃ ro
ĠS v
ĠPet ra
Ġos mi
ov ed
Ġur Äį
vÃ¡ me
Ġk ÅĻi
Ġslov en
Ġse ver
ĠÅ½ i
ĠzÃŃsk al
ĠumÄĽ nÃŃ
Ġ Å¡ÃŃ
ĠzÃ¡pas y
Å¾ enÃ½
h lav
ta ci
Ġsez ony
me nÃŃ
st em
Ġvz dÄĽlÃ¡
Ġare Ã¡lu
Ġkonce rt
Ġne majÃŃ
Ġz mÃŃ
Ġdispozi ci
Ġvo jen
za la
Ne nÃŃ
Ġpomo cÃŃ
ĠkterÃ© m
Ġz mi
at y
le slav
Ġd Å¯m
ĠM y
D ruh
R o
Ġk ari
k er
skÃ© mu
ĠnÄĽm Å¾
ĠA r
Ġneby la
Ġz im
Ġpo le
Ġpo ÄįasÃŃ
ĠpodmÃŃn ky
kov Ã©ho
Ġmu Å¾i
Ġod dÄĽlenÃŃ
Tak Ã©
ĠÅĻÃŃj na
Ġ3 1
p al
D ÃŃ
Å¾e t
vÄĽ jÅ¡ÃŃ
Ġna to
D i
ĠvÄĽtÅ¡ ina
f t
Ġau ta
Ġz ru
K O
ĠvÄĽ ku
ĠpÅĻÃŃ j
ĠvÃ½ t
Ġorgani zace
p ce
Ġs am
Ġf yzi
Ġmili ard
Ġtento krÃ¡t
ĠspoluprÃ¡ ci
Ġpa ra
v inÄĽ
ĠÃº no
Ġjin Ã½
p ÅĻÃŃklad
Ġdub na
ĠumÃŃ stÄĽ
ĠzÃ¡kla dÄĽ
Ġtitu l
ĠMi cha
ĠroÄįnÃŃ ku
Ġpo ro
ta li
Te Äı
ovÃ¡ ny
Ġfil mu
Ġpa pÃŃ
Å¯ v
roj Å¯
ĠbÄĽ Å¾
ĠEvro pÄĽ
ĠÅ¡ pi
Ġ2 9
ĠbÅĻe zna
ĠPo l
k ovat
ĠN o
ĠMi chal
Ġpa desÃ¡t
ĠVy so
Ġar mÃ¡
Ġsport ov
ĠT u
ĠmÄĽsÃŃ cÅ¯
Ã© ry
Ġch u
ĠudÄĽ lat
Ġo Äįi
ĠjejÃŃ m
Ġ200 7
By l
ĠÃº Äįe
Ġsou ÄįÃ¡stÃŃ
c ar
Ġst r
ĠprvnÃŃ ho
Ġre kla
Ġu spo
Ġroz hov
rov i
ĠB rno
ĠdalÅ¡ÃŃ m
ĠroÄįnÃŃ k
to ÅĻi
Ġcent ra
Ġkilo metrÅ¯
H lav
ĠpÅĻ in
ĠMi lo
ĠprÅ¯bÄĽ hu
Ġo pu
ovi cÃŃch
k tivnÃŃ
Ġnov in
ckÃ½ mi
Ġskup ina
1 5
Ġosob nÃŃ
N em
Å¡Å¥ ov
t Å¡
Ġri zi
ĠR y
k re
pa nÄĽl
Ġob sah
Ġobje v
f il
Ġs druÅ¾enÃŃ
mi la
Ġvole b
ĠnemÄĽ l
ĠC ho
ni cÃŃch
ĠÅĻad a
Ġsport ovnÃŃ
ĠM Ã¡
Ġnov inÃ¡
Ġan gli
Ġkon tak
Ġmu zi
ĠS ou
Ġv ar
Ġdoprav nÃŃ
ĠmÄĽsÃŃ ce
na mi
Ġbo hat
Ġpo ch
er u
ĠtisÃŃ ce
Ġok res
t ka
Ġcent ru
Ġd voj
ĠU ni
pozi ce
ĠzÃ¡ klad
Ġtz v
ĠnÄĽjak Ã½
Ġmy slÃŃm
Ġprovo zu
Ġregi on
Ġb rit
Ġhro zÃŃ
chy b
kÃ¡ nÃŃ
sÃŃ m
Ġin s
ĠzÃ¡vÄĽ ru
Ġstra nu
Ġh lad
ĠpÅĻi bli
Ġne ob
ĠpÅĻed cho
ĠÃºÄįa st
Ġdosta li
Ġhude bnÃŃ
s lov
Ġh lÃŃ
Ġb lo
ĠvÃ½ sledek
Ġpot rav
pad Ã¡
nÄĽjÅ¡ÃŃ m
di ska
in d
ĠÅł tÄĽ
r ky
ĠÄįt enÃ¡
ĠnÃ¡vr h
z enÃ©
ĠjmÃ© no
Ġin di
S ta
k an
av or
Ġkon stat
Ġk le
Ġabso l
ovÃ½ mi
Ġsv Ã½mi
li li
Ġd nÃŃ
ĠD ob
ko mu
ĠlÃ© ta
di a
B u
Ġjas nÃ©
Äį ko
z kou
V z
Ġpo cho
N ÄĽ
ĠletoÅ¡ nÃŃho
ĠhrÃ¡ Äįe
Ġs ly
Le to
chÃ¡ze jÃŃ
f inÃ¡le
B ÄĽ
ĠstÅĻe l
Å¡ nÄĽ
Ġjist ÄĽ
Ġne chÃ¡
n ci
ĠtÃ½ dne
Äį nÃ¡
ĠZ denÄĽk
Ġ ÅĻÃ¡d
ĠN ovÃ¡
h al
van Ã©
Ġna hra
ĠvÄĽ cÃŃ
1 9
S tej
Ġko ali
Ġmy Å¡
Ġvy lou
Ġsko ro
Ġoby va
Ġst art
Ġpode z
ĠÄĮ ÃŃ
ĠspÃŃ Å¡
jÃŃcÃŃ ho
Å¡i la
Äį kovÃ¡
ĠpÅ¯sob ÃŃ
Ġban ky
ĠreÅ¾i s
Ġfun kci
ro zen
ĠnÃ¡ sledu
Ġvr cho
Ġse ri
t vr
Ġu li
Ġst rÃ¡Å¾
ĠdÅ¯ chod
ĠÅ¡ko le
Ġda ÅĪ
ĠnaÅ¡e ho
ĠspoleÄį en
o nÄĽ
Ġne d
Ġs mÃŃ
Ġby t
ĠÅĻad ÄĽ
ĠpÅĻÃŃ spÄĽ
ĠS ta
Ġk m
Li dÃ©
Ġnut nÃ©
w a
Ġmy slÃŃ
Ġpo znamen
Ġu Å¾ÃŃ
ĠB ÃŃ
Ġa m
Ġov lÃ¡
ĠÄį em
ĠmÃ¡ te
ovi c
ĠÅĻidi Äį
nÃŃ ka
Ġza p
Ġm obil
Ġz bra
Ġvy sÃŃ
Ġna po
n ovÃ©
Ġob vy
l ovÃ©
Ġminu losti
ĠstÅĻe dnÃŃ
Ġd Ã¡t
rov na
e bnÃŃ
ĠB ro
Ġsrp na
ka la
Ġsv at
be k
Ġz ÃºÄįast
ÄįÃŃ m
Ġh ovo
ĠG a
ĠKdy Å¾
ĠM at
ĠmiliÃ³ nÅ¯
Ġst ati
Ġkom b
ĠmusÃŃ me
Je Å¡tÄĽ
ĠM ÃŃ
Ġnap ÅĻ
ra li
N A
ĠdÅ¯leÅ¾it Ã©
ovan Ã©ho
Ġt em
Ġvy Å¾
Ġjednotliv Ã½ch
n ka
Ġstan ov
Ġpolov inÄĽ
Å¡tÄĽ stÃŃ
K do
li vÃ©
Ġfanou Å¡
il ÃŃ
Ġrozhod l
pli ka
Ġov liv
Å¡ ov
ĠpoÅ¾ad av
Ġva Å¡e
Ġ8 0
Ġminister stva
Ġpreziden ta
Ġzve ÅĻej
stÅĻe d
de lnÃŃ
ĠnÃ¡ Å¡
Ġsmlou vy
an ta
Ġv ari
na jÃŃ
P a
ĠpomÄĽ rnÄĽ
ze l
a jÃŃ
Ġpo st
n ky
ĠmlÃ¡ de
Ã½ vÃ¡
Ġak tu
k Ã©ho
ĠO st
Ġs voji
f f
Ġusku teÄįnÃŃ
Ġnes mÃŃ
Ġos lav
Ġstav eb
ĠjÃŃ t
Z e
Ġpo cit
Ġd rÃ¡
ĠB rit
ĠvysvÄĽt lil
pe l
p t
tÃ¡ ch
ĠÅĻÃŃ ct
ra jÃŃ
ĠnÃ¡ jem
ĠH u
ĠMi lan
Ġrodi Äįe
ty ÅĻi
j ov
Ġaby chom
mo sf
Na pÅĻÃŃklad
Ġvz du
ĠÄįlovÄĽ ka
ÃŃ ch
k cÃŃ
ĠzÃ¡ leÅ¾ito
Roz hod
ĠpÅĻÃŃ zni
b rÃ¡
let Ã©
T u
T ÄĽ
Ġvo z
ĠpÅĻed mÄĽ
Ġrepre zent
ĠpoÅ¾ Ã¡
ĠS T
ÅĻÃŃ v
ĠzÃ¡ m
h ÅĻe
Ġzra nÄĽ
Äį anÃ©
Ġas ist
Ġjed nÃŃm
Ġbran ky
le na
ĠvysvÄĽt luje
Ġaby ch
s en
t ku
Ġru ce
kla dnÃŃ
Ġzdra vÃŃ
Ġma x
pra vÄĽ
Ġza v
ho da
ly nu
Ġtelevi ze
ĠÃº vÄĽ
J a
Ġspolu prac
kra j
ĠnÃ¡ klady
Ġch rÃ¡
ĠÃļ stÃŃ
Ġvy rÃ¡
cÃŃ ho
kÃ¡ Å¾
ĠvÅ¾dy cky
Ġzbo Å¾ÃŃ
Ġ200 6
E T
Ġsa ma
Â »
Ġre dak
h Ã½
kaz uje
hÃ¡ nÃŃ
rÃ¡t or
Ġob rÃ¡n
ZatÃŃm co
Ġru kou
k lu
te rÃ¡
Ġo fici
Ġ200 8
ĠpÅĻedstav i
ĠsoutÄĽ Å¾i
ĠNe w
ĠF i
Ġh lÃ¡
Ġt vor
Å¡ tnÃŃ
li vÄĽ
Ġ19 6
hrÃ¡ la
Ġregi onu
Ġvel kÃ¡
Ġprosin ce
Ġst alo
Ġh a
ĠpraÅ¾ skÃ©
ĠpoÄį tu
Ġne lze
Ġsez onÄĽ
ĠzmÄĽ ny
na d
ĠÅ¡an ce
sled nÃŃm
Ġm ne
P O
ÅĻe m
ĠmuÅ¾ Å¯
ĠmÄĽst skÃ©
ou t
Å¾ a
ĠhÅĻi Å¡tÄĽ
ĠpÅĻi hlÃ¡
le tÃ¡
Ġdne Å¡nÃŃ
ĠnÃ¡ hra
ĠumÄĽ le
Ġod vo
ÅĻi ch
Ġsta la
ĠÄįerven ce
Pro Äį
Ġn ovÄĽ
lo g
Ġ200 0
Ġnech ce
pÅĻe d
ĠpÄĽ k
rÃ¡ ch
Ġjedno m
Ġ3 5
Ġcel Ã©ho
Ġko lik
Ġobchod nÃŃ
Å¡ nÃ©
Ġza znamen
ĠÄįÃŃ slo
ĠzÃ¡ chra
ĠchtÄĽ li
Ġjejich Å¾
Ġpro dÃ¡
ĠrozpoÄį tu
Ġpoji Å¡Å¥ov
Ġk Ã¡
kt Å¯
Ġci z
Ġfestival u
ĠP r
Ġt an
Ġh ÅĻe
Ġtr h
ĠrÅ¯z nÃ©
ĠvÃ½ zku
c y
U D
Ġ +
Ġpo pis
Ġvyso kÃ©
s loven
Ġau t
Ġvo jÃ¡
D e
Ġnav Å¡tÃŃ
Ġpa nÃŃ
Je jich
lov at
Ġpro mÄĽ
Ġsed mi
Ġ19 4
ĠO r
or d
Ġden nÄĽ
Ġos la
By lo
ta jÃŃ
si la
Ġro kem
Ġvzni k
ovÃ¡ no
Ġbr zy
ĠtÃ© ma
d ku
Ġa g
my sle
Ġo znÃ¡
ĠzaÄį ali
Ġrod iny
Ġjed enÃ¡
Ġmo del
J sou
ra cÃŃ
Ġdost ane
ko sti
h lo
l t
Ġstej nÃ©
Ġho stÃ©
Ġde vÄĽt
Ġpo l
Ġse stav
Ġu lice
ko logi
k vi
z ujÃŃ
Ġkom ple
Ġce lo
ĠzÃŃ tra
Ġs lova
ĠÅ¡ Å¥
Ġin stitu
Ġtvo ÅĻÃŃ
Ġsou bor
sti la
n ovÄĽ
Ġopat ÅĻenÃŃ
Ġo cen
Ġ it
Ġmlad Å¡ÃŃ
Ġdiva dla
ĠprvnÃŃ ch
nictvÃŃ m
Ġ7 0
stÄĽ ji
Ġde fin
Ġkni hov
Tak Å¾e
ĠÄįin nosti
klad Å¯
Ġm on
ĠtÅĻÃŃ dy
ĠpÅĻedstav ÃŃ
Ġni Å¾Å¡ÃŃ
ĠzÃ¡ va
Ġra dost
Ġdo dÃ¡
Ġpotvr dil
Ġna dÃ¡le
Ġpohy b
vi la
Ġse tkÃ¡nÃŃ
Å¾it ÄĽ
ĠP i
Å¯ l
ĠÅĺ e
ĠDavi d
ĠS lavi
ĠzvÃŃ ÅĻ
Ġz po
bo ra
D ob
m ad
ĠmoÅ¾ nosti
Ġpla y
st Å¯m
Ġdob rÃ½
ĠÅ¾ivo tnÃŃ
Ġfor mu
Ġkone ÄįnÄĽ
al Ã½
Ġst ou
E M
ĠzÃŃ ska
vo l
s mÄĽ
ĠdÃŃ l
ĠB ÄĽ
ĠvÃ¡ no
Ġnebez peÄį
d nÃ¡
x ist
smu s
ĠÅ¡tÄĽ stÃŃ
Ġfak t
Ġvy hrÃ¡l
Ġko st
Å¾ al
Ġby ste
Ġod stra
Ġin f
ĠÃº ÅĻednÃŃ
C e
val y
1 1
E K
ĠhospodÃ¡ ÅĻ
Åĺ e
ĠvÅ¯ Äįi
p lat
Ġkom ent
Ġob Äįas
ĠdÄĽ j
Ġpodob nÄĽ
ar ma
h an
Ġna pad
ÅĻ enÃ©
Ġ19 7
ĠvÃ½ voj
ĠlÃ©ka ÅĻ
H L
Ġod pad
Ġkvali tnÃŃ
ĠhÅĻi Å¡ti
ĠLi bere
Ġmaji tel
ĠVladi mÃŃr
a ce
i ce
Ġdruh Ã©ho
Ġpo ru
Ġpo Å¡ko
Ġne sta
ĠD vo
vÅ¯ r
Äį nou
Ġat mosf
Ġvy stav
ÄįÃŃ ch
ĠÃºno ra
Ġg a
ĠÄĮe skÃ¡
ĠB ene
ĠtÄĽÅ¾ kÃ©
Ġjednodu ch
Ġjak Ã½
ĠvÄĽ zenÃŃ
mÃ¡ cÃŃ
Ġo cho
Ġnebu dou
ĠJ ed
Ġpr ove
ĠZ e
ch Å¯
il u
Ġna jde
Ġd rob
ĠzÃ¡stup ce
Ġze le
c Ã¡t
ĠFranti Å¡ek
ĠpÅĻi Å¡la
E Z
Ġvo li
pi sy
ĠÅ¡ko la
ĠÄįin nost
Ġsou stÅĻe
Ġz prav
Ġch ara
Ġi m
Ġp le
le g
H ra
ĠdesÃŃ tky
ĠvÃ¡l ky
Ġre ag
de ÅĪ
Ġpa mÄĽ
bu jÃŃ
ve nÃŃ
Ġh ou
ĠzatÃŃm co
ĠC a
Ġchara k
Ġch o
Ġob vinÄĽ
ĠsoutÄĽ Å¾ÃŃ
Ġt ÅĻ
Ġdoprav y
Å¡ kod
Ġre for
ĠmÄĽsÃŃ c
Ġd nÅ¯
av Ã¡
ovan ou
ĠvÃ½bÄĽ r
m ana
da tel
Ġmimo ÅĻÃ¡d
Ġabsol v
s Å¥
N O
Ġhistori i
pÄĽ tÃŃ
v nÃ©
k ovÃ¡nÃŃ
s nÃŃ
ĠdÅ¯ sled
A Å¾
N ynÃŃ
er t
mÄĽst nan
ĠnÃ¡z vem
Ġvy bÃŃ
Ġu prav
ĠsvÄĽt ovÃ©
ĠpÅĻi spÄĽ
Ġpod ot
ĠpÅĻedstav enÃŃ
Ġprofe sion
Ġdo hod
ter n
Ġst ru
Ġ9 0
Ġp y
Ġtak z
ĠÃºtoÄįnÃŃ k
A D
VÄĽ tÅ¡
Ġpro te
st vu
gra f
u j
Ġd ro
Ġuve den
ÅĻÃŃ t
Ġdo mÄĽ
ĠÅł kod
me ch
Ġvy prÃ¡
ĠmÃŃ stech
ĠLi ber
r ka
g n
Ġsou vislosti
ĠnÄĽ mu
ĠB ÅĻe
Ġde l
Ã¡t kem
Ġpo ko
Å¾ÃŃ t
lÃŃ na
Ġpo tÃŃ
Ġvystou penÃŃ
jez du
Ġpro hlÃŃ
Ġjedin Ã½
ĠzkuÅ¡eno sti
e la
Å¡ uje
Ġkon fer
L I
ĠM as
Ġnemoc nici
kla du
Ġm nÄĽ
ĠÅ¾ al
Ġv stou
z it
Ġdob r
al ou
Ġj ar
c la
Ġ200 5
ĠbÃ½val Ã½
Ġprakti cky
Å¡ ly
nÃ¡ sob
ĠK r
Ġre ak
ÅĪ ovat
Ġnapro sto
IC E
Ġra dy
st in
T r
Äį eno
Ġ X
m Ã¡lnÃŃ
vÃ© d
ĠÅĻedi tele
Ġh u
Ġoko l
ĠB ru
O D
ĠO nd
Ġpro spÄĽ
Ġob lÃŃb
Ġokam Å¾i
m nÄĽ
ĠzÅ¯ stÃ¡vÃ¡
nem e
se da
Ġpodob ÄĽ
st er
ĠS vÄĽt
ĠpotÅĻe ba
do mÃŃ
ĠÄį tr
Ġbo huÅ¾el
Ġop ti
ĠtÅĻe ch
f ri
Ġpop lat
Ġob cÃŃ
Ġdva ceti
Ġmoh ly
ĠnÄĽk teÅĻÃŃ
Å¾ ÃŃm
prav y
Ġstav ebnÃŃ
ĠveÅĻej nosti
Ġdosta la
Ġcy kli
Å¾ ovÃ¡nÃŃ
Ġfinan cÃŃ
ÄįÃŃ tÃ¡
ĠÅ¡ lo
ĠplÃ¡ nu
ĠnÃŃ z
Ġsy n
z al
Ġme to
ĠgÃ³ ly
ĠT y
o c
ĠPra Å¾
c vi
Ġs ho
ĠnÃ¡ d
Ġ200 4
ĠB la
Ġsoupe ÅĻ
Ġjak ou
s ch
Ġce sty
tel nÃ½
Ġfun kce
st ar
ĠsmÄĽ rem
o sti
ing u
u p
Ġko ste
ĠÄįe le
ti va
Ġjez dÃŃ
st ky
Ġne Ãº
l ku
let Ã©ho
Ġa ne
Ġzas lou
di lo
jÅ¡ÃŃ m
Ġsp l
jÃŃ mÃ¡
lÃŃ nÄĽ
at ÅĻi
ĠR ob
j dou
Ġve Å¡
Äį enÃ©
Ġf i
Ġre zer
ne ch
l ka
R Ãģ
ĠR oz
ha j
Ġpo slednÃŃm
Ġsamo stat
ĠPo kud
h n
av ou
ĠdÅ¯ vÄĽ
Ġho t
st ka
ĠÅ¡i ro
ĠpÅĻe stÃ¡
Ġb ou
ĠSt ar
ĠprÅ¯ mÄĽr
s ci
za cÃŃ
Ġu vÄĽdo
Je jÃŃ
Ġpo r
Ġm rt
ĠnedÃ¡ vno
ĠpokraÄį ovat
OV Ãģ
ĠdomÃ¡cÃŃ m
ĠprÃ¡ vo
ĠcÃŃ lem
Kdy by
n ku
ha jÃŃ
Ġprac ovat
ĠK lad
sad il
d ov
ĠâĢ ¦
Ġpoliti ckÃ©
Ã¡t nÃŃ
E C
Ġdo cela
V Ã¡
ĠprostÅĻed nictvÃŃm
te lu
ĠNÃ¡ rodnÃŃ
Ġkultu ry
mÃŃ tÃ¡
ĠvÃ½ mÄĽ
Ġsu per
lÃ¡ Å¡
ĠÃºdaj nÄĽ
Ġta jem
n skÃ½
jed nou
Ġroz hodu
Ġspeci ali
Ġs te
Ġvyt vÃ¡
Ġce lÃ¡
ve ro
ze nÃŃm
Ġna jÃŃt
lo stÃŃ
ĠT he
Ġk re
ob o
1 2
Ġsil nice
Ġkategori i
Ġminist ra
Ġtradi ÄįnÃŃ
- -
O P
V Å¾dy
Ġvy bud
Ġvi de
J de
k Ã½m
st r
ci i
Ġprost oru
ĠvÃŃken d
ĠÅ¾i je
v ati
Ġpat nÃ¡ct
Å¡e nÃŃm
Å¯ raz
Ġminu ty
ĠprÃ¡ v
9 0
Å¡i li
ĠsdÄĽli l
ej t
Ġv nitÅĻ
Ġdob rov
n ovÃ¡
Ġpoliti ky
ĠdomÃ¡ cÃŃch
J sem
hle dÃ¡
Å ®
Ġsmr ti
na li
Ġvy dÃ¡
ĠÅ¾ivo tÄĽ
Ġvypad Ã¡
Ġpla tit
Ġpodp or
h el
Ġzahrani ÄįnÃŃ
T am
ni ly
Ġm Å¯j
ĠzaÄįÃŃ t
hod ou
Ġolympi j
ĠÅ¾e le
Ġorgani z
Ġmo der
Ġnej mÃ©nÄĽ
h ly
ĠÅĻÃŃ ci
ĠvyuÅ¾ÃŃ t
ĠtÄĽ m
Ġroz voj
Å¡ enÃ©
T A
ĠvzÃ¡ jem
Ġka men
ĠhrÃ¡ l
lu b
Ġne sp
rov at
Ġna u
E D
Ġpa cha
ĠBo leslav
rov od
Ġre spe
en ou
Ġsk lÃ¡
Ġd em
im Ã¡lnÃŃ
Ġvz dÃ¡le
Ġvzta h
Ġb ru
Ġpro f
Ġvy ÅĻe
My slÃŃm
KaÅ¾ dÃ½
ko lov
ĠloÅĪ skÃ©ho
Pod ob
ĠvÃ½ stava
ĠKla us
h ar
Ġci t
Ġju ni
Ġprod lou
k tiv
Ġkultu r
Ġd ouf
ĠprÃ¡ va
r nÃ©
ĠpÅĻibli Å¾nÄĽ
Ġsmlou vu
Ġkon ÄįÃŃ
NE S
Ġbo le
o s
in ce
Ġpam Ã¡t
ÅĻi ce
Äį t
Ġpsy chi
sto j
Ġstani ce
Ġkni hy
vÃ½ car
ze ÅĪ
le Å¾ÃŃ
R ad
an g
ou r
Ġnedo sta
Ġk lÃŃÄį
Ġna Å¡em
ĠtÄĽÅ¾ ko
rov ÄĽ
Ġro ÄįnÄĽ
o k
ale rie
ĠvrÃ¡ til
ĠnÄĽjak ou
ov ku
ĠsÃŃ tÄĽ
ra zÃŃ
Ã© ÅĻe
D Ã¡
Ġra dÄĽji
ĠvÃ½ Å¡e
Ġz rovna
Ġod sou
mÄĽ ru
ĠmÃŃ Äį
Do mÃ¡cÃŃ
Ġturna j
Ġnej d
Ġnez nÃ¡m
Ġza bÃ½
ho Äįe
ĠpohÃ¡ ru
ĠvÄĽ ÅĻÃŃ
ÅĻe la
sle ch
lÃ¡ nek
B ez
Ġsch Å¯
Ġz o
Ġv ni
Ġchy stÃ¡
Ġbran kÃ¡
ĠzÃ¡pas Å¯
N ak
lÃ© pe
ĠBo hu
ĠI van
ĠpÅĻÃŃ tom
Äįe j
Ġpri mÃ¡
Ġsym bo
nÃŃ n
Ġm l
Ġs ub
Ġsez Ã³
ĠJiÅĻÃŃ ho
re t
ro ti
ĠcÃŃ r
ov ka
C E
Ġle ti
Ġku p
Ġp as
ĠtrenÃ© ra
vi du
Ġma gist
in i
N ez
Ġpozi ci
Ġzd Å¯raz
Ġpo rÃ¡Å¾
ĠmyÅ¡ len
ĠtÄĽ lo
k Ã©m
Äı ar
r Äįit
Ġ201 0
en ta
h Ã½ch
Ġchce me
zi li
ĠpÅ¯vod nÃŃ
ĠpoÅĻad a
Ġne sou
Ġli st
ĠzÃ¡vod u
Ġk ÅĻÃŃ
Ã¡l Å¯
Ġzak Ã¡
Ġtabul ky
Ġsk Ã³
ko la
do l
tu jÃŃ
Ġpra cÃŃ
ra Å¾
Ġan ti
Ġspeci Ã¡lnÃŃ
ĠpÃ© Äįe
Ġna stav
ĠS y
ol f
mo zÅĻejmÄĽ
ĠVÃŃ t
ĠMÄĽ st
Ġd voji
Ġit al
ĠÅĻe Å¡it
Ġm luvÃŃ
ĠS K
jÃŃ ma
ko m
T ÃŃm
od o
ĠLa bem
ĠJa blo
n t
ĠÄĮe skÃ©ho
ĠpÅĻe kon
J in
sa la
Ġty pu
sko k
al Ã©
Ġslo Å¾it
Ã© nu
Ġd at
Ġli t
Ġpod mÃŃ
ĠP ÃŃ
Ġo h
B ude
ĠzÃ¡m ku
ĠdÅ¯vod Å¯
la s
Ġa no
Ġpar ku
ĠMo ra
p Å¯
Ġp lzeÅĪ
D U
Ġni jak
ĠtÃŃm to
ĠpÅĻedstav uje
li g
ĠÄįlen Å¯
Ġza mÄĽÅĻ
ĠpÅĻÃŃpa dech
mi li
ĠpÅĻÃ¡ tel
ĠÄįas o
v Ã½ch
ĠÄį lÃ¡n
ĠpÅĻe vÃ¡
ze v
ĠM la
ĠkaÅ¾d Ã©ho
ĠSt ÅĻe
Ġza stÃ¡
Ġbud ovy
ĠumÄĽ l
kÃ¡ zala
Ġc uk
Ġdi vi
ĠDvo ÅĻÃ¡
Ġob sa
Ġkli d
rÃ¡ tu
Ġz lat
Ġstav by
Ġskon Äįila
ti ce
ĠtÅĻi cet
sk et
Ġc vi
ĠzÃ¡vÄĽ re
ĠN ov
Ġt ane
tÄĽ l
vo lu
Ġp ru
st an
T ato
ĠS i
ra mi
Mo Å¾nÃ¡
pro cent
Ġka p
Å¡i chni
mÅ¯ Å¾
Ġpo j
ĠS te
Ġ3 2
Ġstra na
ĠÃºrov ni
ĠÅ¾ivot nÃŃho
Ġpremi Ã©r
Ġener gie
Ġme di
ĠzÃ¡ bav
inist er
Ġvelk Ã½ch
hro ma
Ġo m
Ġhlav nÃŃm
Ġdo da
BÄĽ hem
Ġchy bÃŃ
Ġnej de
kli d
ĠD a
mi le
Ġc m
Ġameri ckÃ©
Ġminister stvo
Ġ5 00
Ġvol by
Å¡ ak
ĠÅ¡pat nÄĽ
Å½ e
Ġcent rum
vÃ© st
Ġoko lo
ĠproblÃ© mÅ¯
I S
vo st
dÄĽ jÃŃ
Ġchod ÃŃ
Ġmajet ku
Ġdosa va
ĠzÃ¡ chran
Ġs klad
ĠRak ou
ĠprÅ¯ zku
Ġhlav ou
ĠsvÃ© mu
raz it
ad u
ĠPÅĻe d
ob u
Ġli ze
ĠprostÅĻe dky
ĠdvanÃ¡ ct
p Å¯sob
Ġjedno zna
mÄĽ nÃŃ
i le
desÃ¡t Ã½ch
Ġhlav u
Ġpravidel nÄĽ
ĠsouÄįas nosti
Na opak
Ġni m
ĠVÃ¡ cla
ĠprÃ¡zd n
ĠdivÃ¡ kÅ¯
Ġma min
Ġdo dala
dr Å¾ÃŃ
di tel
ste v
ĠpodÃŃ l
ĠsÃŃ ly
Ġstar Ã©
ĠpÅĻÃŃ bÄĽh
ĠS ed
ĠB en
ho dÄĽ
ĠPl zni
ĠnÃ¡ dra
Ġup lynu
ĠOst rav
ÅĪ Å¯
stÄĽ h
Leto s
m on
Ġak cÃŃ
k r
Ġvod a
c ena
Ġst ovky
Ġtak ovÃ¡
Ġst ane
DÃŃ ky
Ġminu lÃ©ho
ĠS po
ĠzÃŃska la
Ġst rÃ¡
ĠzemÃŃ ch
Stej nÄĽ
Ġkon stru
Ġu t
ĠnÃ¡ mi
ĠuvÃ¡ dÃŃ
Ġan d
d nÃŃm
ĠRom an
ĠlÃ© tÄĽ
pe ÄįÃŃ
Ġk ry
chÃ¡ze t
ĠS la
Ġfak ul
ĠpÅĻÃŃpad nÄĽ
ni ÄįnÃŃ
ĠsnÄĽ mov
Ġko p
Ġstud ent
ĠNÄĽme cku
n ova
Ġener ge
Ġz vu
Ġn om
Ġkri min
loÅ¾ il
ni ckÃ½ch
Ġce stÄĽ
Ġmy sle
ka dem
V la
on ec
Å¡ÃŃ ch
Ġm ou
Ġs pis
Ġle Å¾ÃŃ
ĠobrÃ¡n ce
ĠS lav
Ġminu lÃ½
Ġturna je
ĠVÃ¡ no
mo c
it ÄĽ
Ã© st
ch ny
Ġst i
Ġpe Äį
Ġ200 2
Ġ4 5
ĠnabÃŃ ze
an Ã©ho
Ġpod rob
Ġh r
Ġbude te
Ġvol bÃ¡ch
Ġpod Ã¡
Ġnap l
Ġdo stÃ¡
N ic
vÃŃ m
ĠĠ Ġ
dÄĽ je
ĠpÅĻed tÃŃm
b le
ĠpoÄį Ã¡tku
m nÃŃ
Ġprac uje
Ġkultu rnÃŃ
b roj
ina ce
Ġinterne tu
l ky
Ġpodni ku
ĠzÃ¡stup ci
tÃŃ t
Ġbran kÃ¡ÅĻ
ĠS poj
Ġle v
g r
ĠZ lÃŃn
ta h
Ġprav da
ĠtÄĽ snÄĽ
Ġbran ku
A u
ĠzamÄĽstnan cÅ¯
Ġneu stÃ¡
Ġku chy
Ġ3 6
ĠM on
t in
ĠvÃ½ji m
ni cÃŃ
Ġne r
le nou
Ġh um
Ġu tr
ĠvÄįe re
ĠP an
Ġobra ny
Ġbu Äı
ch ovÃ¡
Ġz Ã³
ĠpoÅĻÃ¡d ku
po Äįet
lo ni
Ġhro z
Ġvy pl
ĠLu kÃ¡
Ġzd arma
O ba
ĠmusÃŃ m
Ġmo je
Å¡ ovÃ¡
Ġdiva dlo
adva ceti
Ġv nÃŃm
Ġcel kovÃ©
r ku
te v
ĠSt ani
Ġup lat
Proto Å¾e
Ġs kla
Ã© rie
en u
z ovÃ¡nÃŃ
Ġarchi tek
ĠotÃ¡ zku
ĠveÅĻej nÃ©
Je den
Ġzdravot nictvÃŃ
lov i
se tÃŃ
p oru
en ty
ĠpoÄįÃŃ tÃ¡
kov al
Ġst Ã¡l
jÃŃ ch
ĠL ou
ĠbezpeÄį nost
va cÃŃ
Ġpo hledu
Ġhod inu
kÃ¡z al
Ġro stli
Spo leÄį
ĠrÅ¯ st
ter Ã©
ĠL en
sÃŃ me
ĠS lovÃ¡
Ġsez onu
Ġnej bli
ĠF e
jed no
f u
ĠzvÃ½ Å¡enÃŃ
Ġup ÅĻe
chÃ¡ ch
ĠMart ina
n skÃ©ho
Ġjas nÄĽ
Ġre la
Ġhle diska
M no
Ġsob ot
ĠtÃ½d ny
Ġce sta
ĠK ou
Ġ200 3
Ġpro zra
Ġpodob nÃ©
ĠsnÃŃm ku
Ġzd ro
drÅ¾e t
Ġf Ã¡
s nÃ©
I E
ĠNÄĽ m
ĠnevÃŃ m
Ġk ata
Ġokam Å¾itÄĽ
Ġfinan c
ĠpÅĻ inÃ¡
Ġpsy cho
no j
Ġba rev
Ġz la
Ġne se
Ġ200 9
ĠF in
ĠAn to
Ġpodstat ÄĽ
ĠÅ¡ko lÃ¡
ĠK rÃ¡
Ġk g
ĠM an
jÅ¡ÃŃ ch
tÄĽ Å¾
Ġja ÅĻe
Ġse mi
Ġm lÃ©
ĠÄįa se
ĠvÃŃ tÄĽ
hlÃ©d nout
Ġdu e
ĠnÃ¡ kup
ri i
Ġhra nice
b ran
Ġdop rovod
ĠnÄĽk de
rÄįit ÄĽ
ĠrÃ¡ da
Ġs lÃ¡
Ġsil nici
ĠS tu
Ġstra te
Ġne kon
N ik
le ny
ĠmanaÅ¾e r
Ġmode rnÃŃ
Ġpoh Ã¡d
ĠG e
od nÃŃ
Ġkro k
V o
ĠH an
Ġnech al
ĠvrÃ¡ tit
Je stli
Ġdi sk
gi i
S tÃ¡
sle dy
ĠkterÃ© mu
Ġs pad
vod u
lan d
Ġa tra
ĠK y
er y
Ġre gu
ĠVyso Äį
ĠvÃ½ hra
ĠveÅĻej nost
ĠÄįas em
Ġpo je
Ġpr vo
Ġpodnika tel
Ġre gist
ĠzvlÃ¡ Å¡tnÃŃ
Ġob li
ze ch
Ġneza mÄĽstnan
Ġob nov
Ġman Å¾e
ĠnemÄĽ li
dÃ¡ m
Ġpro pa
ra tu
ina ci
Ġkvali fika
jed nÃ¡
ĠpravdÄĽpodob nÄĽ
Ġg ym
si li
k i
ĠpotÅĻe buje
ĠtÅĻ inÃ¡
O N
k s
Ġby d
teÄį nÃ©
ĠspoleÄį nostÃŃ
ĠnÃ¡ rod
j it
Ġob tÃŃ
re se
nÃ¡ ÅĻ
ĠpÅ¯vod nÄĽ
ĠcelÃ© m
t la
men ty
nem oc
ĠPav la
Ġ3 00
Ġelekt rÃ¡
b ÅĻe
Ġnej prve
Ġhasi Äįi
Ġu byt
Ġre ce
Ġkam pa
Ġh rd
van Ã½
ĠzprÃ¡ vy
x e
ĠL adi
vÃŃ ti
ĠkrÃ¡ lov
ĠpoÄįÃŃta Äį
Ġod mÄĽ
Ġmuse la
ch em
Å¾ Ã¡
Ġle gen
ĠÃºto ku
V i
Ġpo nÄĽ
Ġs Ã©ri
rov al
pÃ¡ nÃŃ
Ġnej lÃ©pe
B a
Ġpoji Å¡tÄĽnÃŃ
ĠDi va
Ġstati sti
Ġdne Å¡
Ġzi sk
Ġvy tÃ¡
Ġkon ec
rÅ¯ z
ĠB rna
ni i
en ti
Ġvy Å¡
zra el
Ġmin i
Ġusku teÄį
du je
Ġu vidÃŃ
Ġba z
Ġne ce
Ġdel Å¡ÃŃ
ĠS lov
Ġtak to
s lÃ¡
Ġw eb
ĠnÄĽkoli krÃ¡t
Ġob ci
z oval
Ġ15 0
ĠpÃŃs ni
Ġvy dÃ¡nÃŃ
ĠvÃ½t var
ĠÅ¡kod a
A by
Ġra di
Ġdlou hÃ©
h rÃ¡t
Ġsr dce
Ġod po
se d
H O
ĠpÅĻi blÃŃ
ro ri
m nÄĽl
Ã¡ ly
Ġkon Ã¡
ĠtÃ½m y
c ovÃ¡
p lÃ¡
ÅĻi tel
Ġdruh Ã¡
Ġelekt ri
Ġsou hla
Ġdi sci
ĠL ÃŃ
ĠPro stÄĽ
ĠdÄĽt mi
Ġt roj
Ġza ve
ati on
Ġob jem
ist a
ĠpÅĻÃŃ Äį
pa ci
Ġz ni
ĠMari e
ĠÅ¡e l
Ġto hle
for ma
dÃ¡ me
Ġ ÅĻÃ¡
k ÄįnÃŃ
Ġmilion y
h dejÅ¡ÃŃ
ovi to
st ane
ĠB r
Ġd er
ĠU Å¾
c enÃ©
ĠOstra vÄĽ
Ġproce s
ĠpÅĻi Å¡li
k ry
Ġskup in
Ġh lou
v Å¡ak
ad ÃŃ
Ġtak ovou
Ġne mÅ¯Å¾
Ġpov ÃŃ
ĠmoÅ¾ nostÃŃ
Ġby tÅ¯
lÃ¡ rnÃŃ
Ġmin imÃ¡lnÄĽ
v ov
Ġe ur
ĠÅ½ e
Ġ ÅĻady
Ġobvy kle
Ġvyz kou
ĠVÃ¡cla va
ĠmÃ© di
k nout
ĠdÄĽ tem
ro sta
Ġkon zu
z ce
ĠT ur
Ġnej vÃŃc
By la
Ġstan ovi
ĠpÅĻin es
ĠP la
ĠI tÃ¡
nÃ¡ zi
N o
ĠletoÅ¡ nÃŃm
Ġz ÅĻÃŃ
ba mi
ĠJ ind
ut or
Ġne vi
Ġsk le
Ġevrop skÃ½ch
ĠK am
ĠobÄįan Å¯
ĠvÃ½kon u
4 0
ĠodpovÄĽ d
ĠÃº ro
ĠlÃ©ka ÅĻi
Ġo nemoc
Ġpom alu
ĠÅ¡e t
Ġna ho
Ġtelevi zi
ĠpÅ¯ jde
Ġdoku ment
ĠstÃ¡t Å¯
Ġsi g
zen Ã½
ĠdomÃ¡ c
Ġho telu
ved li
Ġope ra
Ġ 00
ĠÄįe skÃ¡
rÅ¯ st
P et
chu t
ĠbÃ½val Ã©ho
mÃŃ ra
Ġta j
od povÄĽ
p ÅĻÃŃ
ĠnÃ¡dra Å¾ÃŃ
ĠvÃ½ro ÄįÃŃ
Ġvz hledem
ro m
Ġ3 3
Äįem Å¾
Ġmal ÃŃ
pis Å¯
Ġdo kÃ¡Å¾e
ĠÅ¾Ã¡d nou
Ġm r
Ġpoznamen al
gra m
Äįe nÃŃm
Ġpl nÃ©
ĠT Ã¡
ĠzmÄĽ nu
bali stÃ©
Å¾ enÃ½ch
ĠÄįe sko
mÃ½ Å¡
nÄĽ k
ĠN HL
ĠotÃ¡ zka
Ġmo ment
ĠzÃ¡ sob
Ġk Å¯
Ġe ta
ĠÄĮe skÃ½ch
Ġslov o
ĠÃº va
Po slednÃŃ
Ġlo kali
Ġo ri
Ġsoci Ã¡lnÃŃch
Ġtu zem
ĠsvÄĽ d
Ġsva zu
Ġdefin i
Ġvz or
ĠZem an
ob oda
mo rav
Ġsp on
I T
ĠL on
pu stil
ĠpÅĻe hlÃŃ
ÅĻ in
Äį ov
Ġob le
Åĺ Ãį
Ġe kologi
ĠpoÅĻad ÃŃ
ĠvÃ½stav y
Ġde b
ĠY or
Ġle te
ĠjedenÃ¡ ct
ĠkaÅ¾d Ã©m
ĠpÅĻ eno
Ġkri ze
ĠH am
ĠÅ¾Ã¡d nÃ¡
ÅĪ ovÃ¡nÃŃ
Ġs eni
nÃ¡m il
vo lÃ¡
ĠdalÅ¡ÃŃ ho
Å¡et ÅĻenÃŃ
w w
v nitÅĻ
Ġt Ã©m
Ġostat nÃŃch
Ġna tÃ¡
ĠkrÃ¡t ce
Ġdr Å¾ÃŃ
Ġfotografi e
m al
ĠÅĺ ÃŃ
ku je
ĠT r
U M
Ġsou vi
Ġde va
ni ckÃ½
ri bu
Nak onec
Ġa rg
Ġna jednou
b an
Ġze p
Ġo ni
f o
Ġjed nat
Ġ &
Ġpo stupu
Ġ201 1
Ġnep oda
Ġdra mati
ĠstrÃ¡n kÃ¡ch
Ġnemo hl
Ġagentu ry
lem ati
Ġza mÄĽ
ĠjejÃŃ Å¾
ĠpÅĻÃŃÅ¡tÃŃ ho
Ġo ce
Ġly Å¾a
M Å¯Å¾e
sl ova
Ġna zna
ÅĻ Å¯m
ĠpÅĻi jÃŃt
ĠhrÃ¡ li
Ġne e
ĠÄįÃ¡ ste
Ġskup inÄĽ
ĠvÃ½ boru
Ġd ali
Ġz kla
ĠT en
ĠBrit Ã¡
ĠP ri
dne s
ĠH ol
Ġod boru
Ġban kov
fe kt
Ġrozhod ÄįÃŃ
Ġnap sal
st roj
Ġnejbli Å¾Å¡ÃŃ
ĠBudÄĽj ovice
be nÃŃ
Ġpe v
ĠpÅĻi ÄįemÅ¾
O B
Ġhlav y
ĠÄįlen ovÃ©
Ġhude b
Ġzak on
Z E
ĠK ri
S o
lo Å¾it
sad it
ĠdÃ¡ vÃ¡
ĠvÄĽtÅ¡ inu
ĠÅ¡ampi onÃ¡
p em
Å¾ ky
ĠbÃ½ vÃ¡
Ġevrop skÃ©
en Ã©ho
Ġka u
Po tÃ©
Ġstadi onu
lov Ã½ch
Ġvyh rÃ¡t
Ġg e
Ġli kvi
ĠpÅĻedstav it
ma li
hra je
ĠmÃŃsto pÅĻed
li i
Ġna sa
Ġk nÃŃ
Ġza vÃ¡
Ġpov e
do sti
ĠjejÃŃ ho
ĠR ich
Ġtak ovÃ©ho
Ġp ane
ti ckÃ½
ĠF a
Ġsta ÄįÃŃ
Ġkon f
ĠnÃ¡ pad
Ġfotbal ovÃ©
ĠL it
Ġpro bÄĽh
ĠVel kÃ©
ĠÃº se
Ġ3 8
Ġ200 1
Ġtelevi znÃŃ
Ġs bor
A n
Ġzp ÃŃ
Ġcen ti
Ġocen ÄĽ
Ġpolo Äįas
ĠpokraÄį uje
ĠOstra va
ĠskuteÄį nosti
Äįe b
od i
ĠvÃ½ z
p ci
ĠM S
chod em
ĠstÃ¡ ty
Ġzapla tÃŃ
Ġp al
Äį nÃ½ch
ta la
Ġza hr
ÅĻe nÃŃm
Ġsp ra
Ġs ni
Ġva z
D A
Ġrozhod li
Ġd ata
dÃŃ m
p ka
Ġb al
ĠMa rek
nÃŃ mi
i di
Ġna hrÃ¡
Ġz v
ĠpÅĻi Å¡lo
Ġo to
Ġpo sil
1 8
Ġb it
Ġte hdejÅ¡ÃŃ
ĠkonkrÃ© tnÃŃ
Ġra kou
Ġko me
Ġv stÅĻe
ĠvÃ¡ Å¾
vÃ¡ ch
Ġpo sta
Ġvi dÄĽl
Ġobchod u
sta li
Ġde nÃŃku
Ġs loÅ¾
Ġby tu
zna mu
Ġhro mad
ĠpÅĻiz nal
Ġk Ã¡d
PÅĻi tom
ĠuÄįi tel
c ov
Ġb av
Ġch ovÃ¡nÃŃ
ĠpÅĻe su
de j
ĠlÃ© Äį
ĠveÅ¡ ker
Ġins pi
Ġdopl nil
Ġin ten
stou pil
ro ÄįnÄĽ
ni ckÃ©ho
Ġspou stu
Äįil y
ĠneustÃ¡ le
Ġfon du
Ġle gi
Ġosob y
Ġm Ã©ho
ĠtÅĻe mi
Ġp tÃ¡
Ġote c
ruh Ã©
Äį kem
Ġh ejt
VÃŃ ce
Ġlet ad
sti ckÃ½
ra ti
Ġdo tace
ĠmuÅ¾ stvo
k lÃŃ
ĠpÅĻÃŃ rodnÃŃ
ĠH ar
ĠÅ¡Å¥ ast
Ġvelk Ã½m
E S
ĠD ani
by lo
Ġzem ÅĻel
ĠkaÅ¾ dou
b ri
Ġho st
Ġzaji Å¡Å¥
Ġnem ovito
Ġa plika
st ÅĻi
ist Ã©
Ġno c
i ci
ho t
ĠC ar
ĠvÃ½ hod
ta ÄįnÃŃ
Ġstru ktu
t nÃŃch
bra m
Ġzna Äįky
ĠzaÄį alo
te d
ĠÄįi nÃŃ
at ri
Ġs mysl
c ovÃ©
Ġ3 7
ĠÄįe kajÃŃ
ĠÃº ko
Ġnech at
ĠzÃ¡j mu
Ġmo hu
as h
Ġv le
Ġce stou
Ã© mu
ĠstÅĻe do
K ra
L N
T ÅĻi
ĠzÃ¡pase ch
K Y
Ġindi vidu
Ġproje v
Ġte rori
Ġhlu bo
ĠpoÅĻÃ¡ dÃ¡
ĠmÃŃsto sta
ĠkrÃ¡ de
Ġhud by
stro je
ÃŃ t
ĠÄĮe chÃ¡ch
so ci
st alo
Ġd ist
ĠmuÅ¾ stva
ovÄĽ t
hroma dy
ĠÅ¡kol stvÃŃ
D va
Ġh ez
ĠtÅĻetÃŃ m
ĠstÅĻe t
Ġnej vÃ½
PÅĻesto Å¾e
vÄĽt Å¡ÃŃm
Ġof f
ĠvlÃ¡ dnÃŃ
le l
ĠdÃŃ la
Ġna s
Ġsrov nÃ¡nÃŃ
P ar
ĠvÃ¡ Å¾nÄĽ
S L
Ġz bav
il l
Ġ rem
ĠG o
Ġvyso ko
ov ek
Nej vÄĽtÅ¡ÃŃ
Ġost rav
Ġmuze a
ĠG u
S ÄĮ
M Ã¡m
Ġpro pu
me s
Ġz u
ĠzÃ¡ loÅ¾
Ġne g
Ġstu den
v Ã©ho
Ġosob nÄĽ
Ġsp Ã¡
kovi ce
L u
Ġte st
ĠpÅĻÃŃleÅ¾ito st
ÅĻi ly
ce me
J an
ĠÅ¾Ã¡ kÅ¯
Ġv teÅĻ
ĠO S
Ġdo poledne
Ġdve ÅĻe
Ġhistori e
1 3
ĠVo j
Ġdom ov
or tu
Ġu va
Ġpolici i
Ġminu lÃ½ch
ĠchtÄĽ la
Ġ3 4
Ġse xu
Ġfotbali stÃ©
ĠnemÃ¡ m
.. .
1 4
Ġna chÃ¡zÃŃ
Ġvyu Å¾itÃŃ
Ġnajde te
Ġch emi
Å¡ a
MÄĽ sto
2 00
j il
Ġo na
Ġvy hrÃ¡li
Ġstej nÃ½
Äįa se
rÃ¡ k
Ġb en
ym bur
F oto
hra d
Ġzd rav
lov ÄĽ
Ġser ver
Ġpo ÅĻÃŃ
ĠgÃ³l man
ĠvÃ½ji me
ĠÅł e
Ġspo le
Ġos lov
kov Ã½m
Ġhra jÃŃ
V Å¡ichni
ĠzmÄĽ nÄĽ
Ġob Å¾al
Ġroz sÃ¡
ĠÅ¾ele zni
Ġsk lo
Äį Å¯m
ĠE uro
ĠotÃ¡ zky
Ġmlad Ã½ch
Ġpozor nost
Ġfung uje
la l
t h
Ġlo gi
ĠzpÄĽ vÃ¡
Ġneda le
Ġzach rÃ¡
Ġlet nÃŃ
Ġzprav oda
Ġm ez
Ġlid mi
ĠpÅĻ ine
p ali
Ġs hod
st Ã½
Ġpo tÄĽ
Ġhasi ÄįÅ¯
Ġda nÄĽ
r ovÃ©
ĠzmÄĽ nit
lÃŃ ch
2 5
b od
Ã¡ tek
on e
ĠdalÅ¡ÃŃ mi
t ovÃ©
den nÃŃ
ti lo
Ġrozhod la
Ġko l
A si
Ġme tro
Ġvy v
nÄĽ nÃ½ch
ĠvÃ½ro by
ne se
TÅĻe ba
ĠÅ¡ko lu
Ġjin de
ĠnÃ¡ zev
ĠMo sk
Ġex p
klad em
ĠdokÃ¡z al
Ġvni tra
ĠzajÃŃmav Ã©
Ġe fek
Ġalkoho lu
cha la
Ġp sa
Ġm Ã³
Ġs voje
ĠÄĮT K
Ã³ n
Å¡ enÃ½
Ġhra nici
Ne bo
ĠtÄĽ Å¡ÃŃ
Ġle dÄĽ
Ġb et
Ġdoz vÄĽ
ĠzprÃ¡ va
ĠpÅĻÃŃslu Å¡
Ġdo slova
ĠÄįer st
ĠÄį inu
ĠAn d
Ġkapit Ã¡n
Ġparla mentu
ane ch
ĠsnÃŃ Å¾enÃŃ
ĠpÅĻi vÃŃ
ĠreÅ¾is Ã©r
MÃŃ sto
c u
Ġu spÄĽ
zen Ã½ch
Ġja der
ĠpÅĻed Ã¡
ĠnÃ¡z oru
Ġhlav nÃŃho
ĠpÅĻÃŃleÅ¾ito sti
vo z
Ġstan dar
ĠKra j
P lzeÅĪ
ne sl
ĠC e
g em
ka zy
Ġ x
Ġpro pad
Ġpr im
ĠÂ »
Ġo rig
Ġvy pla
ĠH y
ĠpÅĻed nost
Ġ lavi
Ġm nou
H od
j at
dÅ¯ leÅ¾it
Ġf avor
lov ou
Ġvzpo mÃŃn
Ġnic mÃ©nÄĽ
ĠJi hla
Ġzim nÃŃ
ov od
Ġza ÅĻÃŃ
D Å¯
Ġp Ã³
Ġvel ko
Ġne roz
ĠÃº Äį
ĠudÄĽla l
Ġnov Ã½m
lÃŃ m
Ġn enÃ¡
ĠpÅĻekva pi
Ġpro u
Ġgene rÃ¡l
mut ov
Ġrod ina
Ġvede nÃŃm
ĠvÃ¡ Å¡
ĠM il
rÃ¡ z
Ġmist rÅ¯
Ġpova Å¾uje
ili p
Ġvo zu
Ġprob lemati
Ġnej spÃŃ
ar Å¯
Ġne chy
C ÃŃ
ĠPrÃ¡ vu
Ġobje vÃŃ
ĠnepÅĻÃŃ jem
ĠB i
Ġmal Ã½
ĠHra dec
Ġprof es
p Ã¡n
ti cky
Ġ ran
p art
Ġvra cÃŃ
Sa mozÅĻejmÄĽ
Ġvzni kla
p ak
Ġpo ci
Ġparla ment
ĠzÃŃsk ali
Ġspo jenÃŃ
ĠnabÃŃd ku
ÄįÃŃ k
Ġh mot
ĠpÃŃ Å¡e
Ġt vÅ¯r
ĠU S
ĠtÃ¡ bor
ÅĪ a
ĠvÃ¡no ÄįnÃŃ
u Å¡
tel nÃ¡
ĠD enÃŃ
Äį enÃ½
ĠÃº smÄĽ
Ġdo ba
Ġs bÄĽ
Ġstra ch
ĠF C
ĠzÃ¡vÄĽ r
ĠupÅĻe s
Äį ujÃŃ
Jed no
Ġmluv it
ĠdesÃŃ tek
ĠM ezi
Ġt va
ĠP er
ĠD om
ĠL Ã¡
Ġ19 5
g it
po li
Ġpo bo
Ġdi plo
ĠÅĻÃŃ kal
ĠKa teÅĻ
Ġa spoÅĪ
Ġtran s
Ġbu r
Ġop roti
let ou
Ġzvy Å¡
ÅĻ ov
Ġpri vati
S tÅĻe
pro stÅĻed
len t
T E
je kt
Ġf ar
ĠP O
ĠdÅ¯vod u
n g
Ġpolov iny
Ġdo stup
Ġba sket
Ġne ÅĻe
e bu
ĠspoluprÃ¡ ce
Ġe u
ĠpodÃŃ vat
ĠzÃ¡kladnÃŃ ch
Mu Å¾
ti ckÃ¡
Ġneby ly
M A
Ġj inÃ¡
Ġautom ati
Ġrekonstru kce
ĠpÅĻipo mÃŃnÃ¡
da go
ĠprÅ¯ mysl
ĠnÃ¡vÅ¡tÄĽvnÃŃ ci
sk i
k alo
Ġvy nika
Ġnemo hou
ĠvÅ¡e ho
ĠNov ot
Ġra dnÃŃ
ĠV l
Ġper son
ĠprÅ¯ myslu
Ġza uj
Ġpr ovÄĽ
Äį tyÅĻi
ĠsmÄĽ ru
Ġk ru
ĠE x
Ġpat nÃ¡cti
Ġpl nÄĽ
ĠMas ary
ĠW il
ĠBo hem
ĠnÄĽ koho
ÅĻ eno
ĠÃº zem
T I
Ġod liÅ¡
ĠcÃŃ le
ĠsprÃ¡ vy
Ġ4 00
1 6
K vÅ¯li
sp on
Å¾e nÃŃm
Ġdo hromady
Ġ5 5
as Ã¡
Ġod st
ĠÃºstav u
Ġdob rou
Ġex per
ĠLibere c
ĠJak ub
Ġo ch
d lem
va tele
se t
Ġkdy si
ĠchvÃŃ le
Å¾ÃŃ me
r ovÃ¡
ĠD NES
Ġ ovo
ĠprostÅĻed kÅ¯
ĠzamÄĽst na
ni k
ĠH on
ĠÅ¡ampionÃ¡ tu
Ġpremi Ã©ra
ni ckÃ¡
ĠvrÃ¡ tÃŃ
Ġdem on
k res
Ġs Ã©rie
Ġautobu s
Ġpod Ã¡nÃŃ
lov al
1 7
ĠV Å¡e
ĠpÅĻedcho zÃŃ
pe k
Ġch ci
Ġce lek
dÃ¡ ch
Ġtr en
p ovÃŃ
Ġkategori e
ĠÅ¾ lu
ĠAn gli
Ġvy rob
ĠpÃ© Äįi
li ko
Ġkraj skÃ©ho
Ġza sÃ¡
Ġpr inci
Ġreprezen tace
Ġn ene
ĠM F
ĠsnÄĽ hu
ĠmÃŃ nÃŃ
vi lo
Ġj mÃ©na
ĠÅĻidi Äįe
ĠvyrÃ¡ bÄĽ
le sk
ĠS to
Ġnep od
ch e
ĠtÄĽ la
4 5
ĠvyÅ¾ ad
sti ckÃ½ch
no s
Ġsy na
ch ani
Ġpra vo
Ġsoukro m
ovan Ã½m
ĠpodmÃŃ nek
ci on
Ġtra ti
VÅ¡e chny
Ġrych lost
Ġobla st
T ra
Ġvy mÄĽ
ĠtÃ½d nu
Ġdobrov ol
enÃ© m
je v
ĠnÃ¡sled nÄĽ
ÄĮe skÃ¡
adva cet
Ġmla dÃ©
ĠJ sem
Ġp lu
Ġs an
Ġn ovo
Ġkomunika ce
R u
ti ci
Ġ19 3
ĠSo kol
ĠpÅĻÃŃpad Å¯
ĠtÄĽ mi
Ġos ud
ti ka
ĠmÄĽ nÃŃ
Ġhodno cenÃŃ
ĠÃº n
ÅĻÃŃ k
ĠvÅ¡ ude
P ou
Ġvi dÄĽnÃŃ
le v
Ã½ val
Ġvozi dla
Ġkonstat oval
Ġane bo
Ġpoz dÄĽ
Ġv ÃŃm
Ġs vÃŃ
Ġslou Å¾ÃŃ
ĠIn ter
Ġhor Å¡ÃŃ
ĠnemÄĽ la
ĠnÃ¡ skok
g an
ĠKar la
M la
la ci
ĠJ en
dÅ¯leÅ¾it ÄĽjÅ¡ÃŃ
Äį nÃ©ho
zo zem
p ati
Ã ¤
Ġdo dnes
Ġsla b
Ġd le
Ġposla l
Polici stÃ©
Ġj ÃŃm
NÄĽk teÅĻÃŃ
B A
ĠS P
ĠB ez
ÅĪ Ã¡
Polici e
Ġre Ã¡l
ved la
Ġzd rojÅ¯
N ovÃ½
s m
Ġbyd lenÃŃ
Ġza bez
VÄĽtÅ¡ ina
Ġex pozice
ĠvÃ½ro bu
ĠskuteÄį nost
Ġnej Äįa
F ot
ĠNÄĽme cka
da jÃŃcÃŃ
ĠÅĻidi Äįi
tu ry
ĠpÅĻe stup
Ġne hod
Ġpostav enÃŃ
ĠpÅĻed nÃ¡
v Å¡em
Ġdo rost
Ġsnad no
E x
Ġb ron
Ġve dou
ĠdivÃ¡ ci
ĠB or
Ġdom nÃŃ
kÅ¯ v
Ġ emi
Ġhosp oda
Ġru ku
zi la
za ÄįnÃŃ
ĠÃº roveÅĪ
m er
Ġpos lou
ti ckÃ½ch
ĠsouÄįas nÄĽ
Ġdost anou
li ne
Ġexist uje
Ġinvesti ce
Ġvod u
Ġde vÃŃti
ro zu
Ġpen al
ĠLon dÃ½
Ġpozi ce
ĠponÄĽ kud
d or
Ġter mÃŃn
ĠnÃ¡mÄĽ stek
Ġrem ÃŃ
Ġzahrani ÄįnÃŃch
Ġpolici stÅ¯
Å¾ nost
Ġpro nÃ¡
ĠvÃ½ Å¡
A no
ĠpoÅĻÃ¡d nÄĽ
p lice
Ġu dÄĽlÃ¡
Ġdo t
ĠpÅĻÃŃÅ¡tÃŃ m
Ġpov rch
Ġ4 8
Ġhodno ty
ch er
Ġza chy
spÄĽ Å¡
ĠodmÃŃt l
L Ã©
Po z
ĠstÃ¡t nÃŃho
Ġslav nost
u z
z ena
m lou
Ġo lomou
Ġvy boj
ĠLadi slav
ad ÄĽ
r in
Ġgra fi
Ġjs i
di v
o od
ro s
ĠÅł panÄĽl
Ġna Å¡el
Ġpolov inu
ĠcÃŃ l
Ġkon tra
Ġan aly
ĠvÄĽ dÄĽt
ova telÃ©
F A
Ġprav du
Ġkrimin ali
Ġpodot kl
Ġobyva telÃ©
ĠzÅ¯st ane
Ġdiva delnÃŃ
Ġpo by
Ġsho w
dr Å¾el
ĠstÅĻe d
ĠpÅĻed em
ĠLukÃ¡ Å¡
Ġu vol
VÃ½ sled
ĠLu bo
Ġposla n
ÅĻ skÃ½ch
ĠvlÃ¡ dÄĽ
ĠdÅĻe vÄĽ
en ky
Ġvy po
Ġa kadem
ĠzÅ¯ stal
ĠdÃ¡ vno
di Å¡tÄĽ
ĠÅł i
fer en
Ġhle dÃ¡
SK Ãī
Ġnejd ÅĻÃŃve
Ġtla k
ĠÅ¡ a
d ly
Ġzp Ã¡tky
Ġrekonstru kci
Ġsoupe ÅĻi
Ġe vi
Ġpo Å¡
Ġv stupu
Ġnej rÅ¯z
ĠpÅĻiprav uje
la du
ĠbezpeÄį nostnÃŃ
Ġch tÃŃt
ĠA da
Ġder by
Ġme chani
ĠL et
ob ec
ĠF rÃ½
ÅĻe li
ĠpÅĻÃŃ tel
Ġop ra
Ġgene race
Ġu sil
m b
Ġtr vÃ¡
ĠStani slav
le b
Ġsemi finÃ¡le
Ġnee xist
lnÃŃ k
Ġtak hle
na la
Ġdo jde
ĠvÃ½kon y
Ġpre ven
ZÃ¡ roveÅĪ
bi la
ĠvÃ½ da
Ġpodni k
ĠÄĮesko sloven
Ġchu Å¥
Äį nÃ©m
Ġre volu
ĠC i
ĠT ÄĽ
Ġin spe
hor Å¡ÃŃ
ĠH er
ĠÅ¡an cÃŃ
ĠmÃŃst nÃŃch
F ir
Pro ti
Ġvytvo ÅĻit
ova tele
ĠzaÄį aly
w ar
Ġjak Ã½m
ĠkterÃ½ mi
ĠÄįe kat
Ġzase dÃ¡nÃŃ
Ġvzni ku
6 0
ĠtÃ½ kÃ¡
Ġra men
Ġa Äį
Ġjedin Ã©
Ġde si
K ar
ka s
Ġod vÃ¡
ĠvÅ¯ z
ĠpotÅĻe bu
je li
ala Å¡
Ġpo hod
in ovÃ©
ĠW in
Å¾ ena
Ġk or
Ġd ÅĻÃŃv
Å¾ ujÃŃ
ĠnÃ¡vr hu
ĠÅĻeditel ka
Ġply nu
ĠK an
Ġvybav enÃŃ
Ġex tr
ĠS vat
ĠC el
Ġrozhov oru
Ġse ku
Ġvole bnÃŃ
Ġde ta
hlÃ©d nutÃŃ
Ġpi vo
Ġakci ÃŃ
Ġtr val
Ġpre zen
Ġs myslu
nu t
Ġpar dubi
ÅĻ enÃ½
Ġmo t
Ġak tivnÃŃ
Äį kÃ¡
on d
D O
Ġ199 8
Ġp it
Ġzaji stit
ĠJa pon
ĠJosef a
ĠdomÃ¡cÃŃ ho
l Ã½m
ĠÄĮe skÃ½
Ġvystou pÃŃ
lep Å¡ÃŃm
Ġrozhod ne
Ġseri Ã¡lu
ĠprÅ¯ vod
Ġh ÅĻ
ĠloÅĪ skÃ©m
Ġdob rÃ¡
ali zace
ĠskÃ³ re
J o
Ã³ znÃŃ
min ist
Ġli bere
ĠSpar ty
ĠveÅĻej nÃ½ch
ĠnÄĽme ckÃ©
Ġsou bo
Ġnedo stat
ĠK SÄĮ
lo b
po l
Ġo kra
Ġkole gy
ĠF or
Ġelekt ÅĻ
Ġnej men
Ġkou pit
Ġdve ÅĻÃŃ
Ġrekor d
ĠMi ku
ze t
le nÃ½
ĠstÅĻe di
lÃ¡ k
Ġe li
ÅĻÃŃ me
Ġob oru
Ġci zÃŃ
Ġob Ã¡
mou t
Ġmi kro
ĠmÄĽsÃŃ cÃŃch
ĠVe se
enÃ© r
A meri
ĠspotÅĻe bi
ĠsÃ©ri i
rÃ¡ ku
ĠÅ¾i v
zi dent
Ġvzta hu
Ġgene rÃ¡lnÃŃ
Ġspo ÄįÃŃ
ĠdÄĽ je
d ni
Å¾i lo
ĠpÅĻed vÃ¡
Ġza brÃ¡
me tr
ĠvÃ½sled kÅ¯
Ġjist Ã©
Ġin ici
Ġobje ktu
ĠB el
Ġk rou
v Å¡tÄĽ
Ġmo to
Ġro mÃ¡
Äı te
ha la
Ġupozor nil
ĠbÅĻe z
x us
Ġzne u
Ġhle dat
kov y
bÃŃ Äį
Ġter mÃŃ
Ġf ron
Ġp ana
Ġode hrÃ¡
Ġdo lÅ¯
MÄĽ l
Ġve dl
Ġzde jÅ¡ÃŃ
Ġtak ovÃ½ch
Ġf o
ĠstrÃ¡n ky
Ġpo psal
Ġz do
Ġhla sÅ¯
ĠkaÅ¾ do
ĠE va
N ovÃ¡
Ġ199 9
chÃ¡ze jÃŃcÃŃ
ĠA t
Ġskon ÄįÃŃ
Ġan ga
K e
ĠzamÄĽst nÃ¡nÃŃ
ti ly
ĠnÃ¡ stup
Ġvzta hy
zi vnÃŃ
Ġh nutÃŃ
Ġsvobod y
ĠpÅĻÃŃ bÄĽ
Ġb alÃŃ
z z
NÄĽk terÃ©
ĠtÃ½d nÅ¯
di i
ko st
ĠL N
Ġvod ou
Ġgym nÃ¡zi
dÄĽ lnÃŃ
Ġkon zer
nÄĽ t
S tra
ĠzemÄĽdÄĽl stvÃŃ
ĠtÅĻi ceti
ĠprÅ¯ mÄĽru
ĠA si
Ġna lez
Ġpo stou
Ġjezd it
ĠSpar ta
Ġtra m
Ġs mÄĽÅĻ
ĠLi to
Ty to
Ġvy stÅĻÃŃ
Ġos a
Ġpozi tivnÃŃ
ĠL an
le jÅ¡ÃŃ
Ġroz dÃŃ
la da
Ġjuni or
ĠpÅĻe chod
Ġvy d
ra d
P re
Ġprode je
ti p
Ġtane ÄįnÃŃ
Ġrestau race
ĠbÃ½val Ã©
ĠumoÅ¾ ÅĪuje
ĠpÅĻÃŃprav y
Ġz nalo
Ġ em
Ġnepoda ÅĻilo
ov in
ĠÃº ÅĻady
Ġban ka
Ġro le
Ġd ala
Ġu kra
ĠznÃ¡ mÃ©
ĠÅ¾en u
VÃ½ stava
p ÅĻi
Ġmal Ã½ch
ru di
Ġdlouhodob ÄĽ
Ġbo ji
ĠpÅĻÃŃpad u
Ġpro sa
ro k
Ġcenti metrÅ¯
Ġpopis uje
ĠdokÃ¡z ali
m inu
A M
z t
Ġma je
un g
Ġpov od
Ġnaro zen
Ġz odpovÄĽ
ne t
ĠtÅĻÃŃ dÄĽ
ĠprohlÃ¡ Å¡enÃŃ
B ran
Ġjednoduch Ã©
s at
Ġpocho pi
ĠpÅĻedpo klÃ¡
ĠpÅĻÃŃro dy
kÃ¡ t
Ġled nu
DÄĽ ti
ĠÃº sp
ĠkancelÃ¡ ÅĻe
ĠPod le
Ġobsah uje
ĠSv obod
ĠÃº Äįet
Ġby Å¥
Ġpre sti
ĠÅ¾e b
ĠÅł um
H rÃ¡
Ġp ali
ĠÅĻe k
Ġjed ni
Ġsli b
procent nÃŃ
ĠK e
s vÄĽt
Ġno hy
ĠumÃŃstÄĽ nÃŃ
C hy
d ro
ni ky
prav u
Ġnebez peÄįÃŃ
ĠD ra
Ġtelevi z
Ġspor tu
z ou
PÅĻe s
s ovÃ¡
o ta
ĠÅłkod a
Ã¡ na
ĠtÃ½m Å¯
ĠPo Äįet
ĠsÃŃ Å¥
Ġpovo lenÃŃ
Ġchy b
ĠpÅĻinÃ¡ Å¡ÃŃ
Hlav nÃŃ
ĠurÄįit Ã©
Ġinform oval
lov Ã½
Ġpi vov
Ġkni h
Ġm z
Ġka paci
O vÅ¡em
Ne ch
K U
Ġjednozna ÄįnÄĽ
Ġdisci p
Ġo r
Ġkli du
ĠzkuÅ¡eno st
ĠÅ¡kod u
Ġli g
Äį len
te nÃŃ
F ran
ko p
Ġspe ku
ad ÅĻ
an s
ĠnÄĽk dejÅ¡ÃŃ
ĠSv oboda
Ġpot enci
ĠÅ¡ la
nÃ¡ l
ĠÅĻe Å¡ÃŃ
ĠS port
Ġty pi
ĠpotÃŃ Å¾e
Ġ Q
ÅĻe ch
Ġhod lÃ¡
Ġabso lu
let r
Ġmuse jÃŃ
Ġtomu to
ra b
d lu
ĠD r
Ġvhod nÃ©
Ġob o
ĠzÃ¡ vi
Ġani Å¾
Ġad resu
Ġnej vÄĽtÅ¡ÃŃm
Ġ198 9
bu rg
ĠÅ¾Ã¡ ci
Ġni koli
Ġnapo sledy
sa ÅĻ
O T
Ġsa z
ĠnovÃ© m
Ġw ww
Ġpou Å¾itÃŃ
ĠÄįtr nÃ¡ct
Ġo Å¾i
Ġu kazuje
Ġzak Ã¡z
st ku
ĠN ovÃ©
ĠbrankÃ¡ ÅĻe
Ġnemu se
ĠvÃ½ u
Å½ i
Ġvzpo mÃŃnÃ¡
Ġpe dago
ĠpÅĻesto Å¾e
ĠtÄĽ Å¡it
ĠdÅ¯ raz
nÄĽ nÃ½
ĠB lan
i a
Äį ena
stu d
nÄĽjÅ¡ÃŃ ho
U rÄįitÄĽ
Ġna vÃ¡
ĠOlomou ci
Ġstud entÅ¯
Ġorig in
ĠpÅĻe boru
it ou
ru t
Ġag re
Ġna Å¡li
ĠvÃ½rob ce
ĠÄįÃ¡st ku
Ġzlo dÄĽj
Ġkape ly
Ġspolu hrÃ¡
sti ckÃ©ho
D Å¯vod
Ġpravi dla
h ali
Ġdruh Ã½m
ĠnechtÄĽ l
ĠnabÃŃ dky
ĠÄįÃ¡ stÃŃ
va telÃ©
Ġameri ckÃ½
Ġhod inÄĽ
ĠpouÅ¾ÃŃ t
Ġ3 9
ch ou
ĠvyÅ¡etÅĻ ovÃ¡nÃŃ
ĠNA TO
Ġ4 2
ĠM al
ĠÄįe skou
Ġdo my
ĠmlÃ¡de Å¾e
ĠpotÅĻe by
Ġver ze
Äįas nÄĽ
Ġod dÃŃ
Ġo hledu
Ġvoz Å¯
Ġprim Ã¡tor
ĠpouÅ¾ÃŃ vÃ¡
v ana
ĠpÅĻes il
Ġsp lÃ¡
ne j
Ġdiva dle
Äı Ã¡
Ġdop ÅĻe
Ji Å¾
dÄĽj ovi
Å¾ ka
Ġ199 7
ĠC on
Pro b
ĠN E
ĠOnd ÅĻej
ĠPardubi ce
Ġolympi Ã¡
Ġnavr h
ĠT J
ĠOlomou c
v nÃŃm
rov Ã½
lov ar
ĠsvÄĽ ÅĻen
ĠF er
Ġp ilo
Ġtran sp
Åł kod
I V
ent nÃŃ
ĠstÅĻe le
ve st
stu jÃŃcÃŃ
Ġra da
Ġvra Å¾
ĠzÅ¯ stat
Ġmy sli
ĠCh ar
Ġdi git
N Ãģ
Ġstu denti
ĠpÅĻij dou
p ky
ĠZ deÅĪ
ĠvÃ½ povÄĽ
Ġpolo Äįase
Ġpar kovi
ova nÃŃ
ĠK om
Å¾ by
P rÅ¯
Ġod ve
Ġpoku s
ĠzamÄĽstnan ci
Äį kÃ¡ch
le nÃ¡
Ġro stou
Pet r
Ġso li
Ġdemokra cie
Ġzapla tit
Ġhy gi
h av
Ġjak Ã¡
o ty
Ġh ale
ĠÅ¡pat nÃ©
Ġvz al
men e
Ġnep la
po z
Ġst roj
ĠodpovÄĽ Äı
Bo huÅ¾el
Ġneu vÄĽ
l ti
Ġuz avÃŃ
ĠstÃ¡ vÃ¡
ĠU her
ne ra
ĠzaÄį Ã¡tkem
Ġpoda ÅĻÃŃ
ka zu
Å¾ ily
ĠÅ¡Ã©f a
sÅ¥ an
Ġbra nek
Åĺ ÃŃ
Ġ Å¾ÃŃt
Ġob avy
gi ckÃ©
ĠzpÄĽ va
Ġochra nu
Ġe uro
Ġzpravoda j
Ġpoz nÃ¡
Ġroz u
ĠN em
ber g
ĠÂ §
Ġpod la
ĠFran cie
Ġmax imÃ¡lnÄĽ
Ġsta bili
st rÃ¡
ĠJo hn
ĠnÃ¡ bo
ĠÅł vÃ©d
Ġpod i
sah uje
ĠvÃ½bÄĽ ru
S nad
ĠHra dci
Ġu vnitÅĻ
inister stvo
st nÃ©
Ġo pozi
ĠvÄįere jÅ¡ÃŃ
ĠPl znÄĽ
Ġrepubli ka
Ġide Ã¡lnÃŃ
Ġtradi ÄįnÄĽ
dÃŃ me
Å¾ eno
ĠS an
I L
Ġtabul ce
Ġome zenÃŃ
Ġstav bu
adva cetiletÃ½
ĠV ary
Ġvy chÃ¡zÃŃ
ĠpÅĻi rozen
A Äį
stup uje
ĠÄįe ho
Ġspou sta
ĠnÃ¡v rat
Ġjednot livÃ©
Ġjen Å¾e
Ã¡l ovÃ©
st ran
Ġnez nÃ¡
Jin ak
ĠnÄĽho Å¾
ĠÅ¡ko lnÃŃ
O stat
ĠR i
ĠS E
mÄĽ rnÄĽ
ĠV setÃŃ
Ġjin ou
Ġven ku
Ġvzni kl
Ġvy hrÃ¡
Ġpo sky
Ġfotografi ÃŃ
ĠM er
Ġob hÃ¡
Ġho stÅ¯
ku pu
t ovÃ¡
Ġkonku r
kon ce
Ġli ga
ĠvÃ½zku m
ĠRa dek
Ġ0 9
Ġbo je
j ce
ji li
Ġ201 2
K u
Ġp lav
ob ot
P rav
Ġobje vil
Ġbron z
Ġodbor nÃŃkÅ¯
Ġdist ribu
Ġproje kty
H N
ĠSpoj enÃ½ch
Ġch Ã¡
ĠzvÃŃÅĻ at
Ġven kov
ĠtÅĻi krÃ¡t
Ġnez byt
Ġo pa
ĠdÃŃ lo
Ġjar nÃŃ
Ġdue lu
ĠpÅĻevÃ¡ Å¾nÄĽ
Ġfir mÄĽ
ĠR us
ĠpoÅ¾ Ã¡d
Ġdu el
le h
Ġmat ka
ĠnÃ¡z ory
zd ob
2 4
ĠÄį lÃ¡nek
ĠpÅĻÃŃzni v
Ġsled ovat
ov skÃ½
Ġk al
Ġjin Ã½m
ran d
Ġb rat
Ġze len
ĠSlav ie
Ġpode ps
Ġbudou cÃŃ
Ġle s
ĠnejspÃŃ Å¡
VÅ¾dy Å¥
ĠnemÃ¡ me
ova telÅ¯
Ġpo rov
men out
Ġpra xi
V ed
Ġsly Å¡et
MÃ¡ me
K rÃ¡t
ĠvÄĽ z
Ġpo ste
Ġ199 6
p let
P A
ĠPo lici
Ġob sahu
Ġpo slu
ĠB an
Ġpov ed
Ġsp u
ĠkÅĻi Å¾ovat
ĠÄįtyÅĻi cet
O S
Ġhlav nÃŃch
Ġp Ã¡d
ĠÅ¡kod y
n skÃ¡
ĠzvÃŃ tÄĽ
Ġ4 6
Ġz ob
dol f
ĠpÅĻedstav en
Ġne dÄĽle
ĠpÅĻi chÃ¡zÃŃ
Ġro ck
Ġoz nÃ¡mil
ĠV al
ĠÄįÃ¡ste ÄįnÄĽ
ĠrÅ¯ stu
t ovat
ĠuÅ¾i vatel
rÃ¡ Å¾e
Vz hledem
b el
ĠzvÃŃ tÄĽz
Ġde vÃ¡
h ad
B rno
ĠPa rou
Ġboj ovat
ĠÄįt ve
ĠnÃ¡v ratu
di ÄįnÃŃ
v kou
Ġa vÅ¡ak
Ġvole j
Ji ÅĻÃŃ
Ġvozi del
Å¡e li
ĠzÃ¡vod y
ĠÄĮ a
ĠvÄĽn ovat
ve c
ĠÃºda je
ĠV ol
Ġvyso kou
Ġonemoc nÄĽnÃŃ
Ġleh ce
Ġli tera
Ġjed inou
ĠAle x
Ġz nÃŃ
ĠnejlepÅ¡ÃŃ ch
ĠTe re
ĠdopÅĻe du
ĠjejÃŃ ch
Ġru ka
Ġat d
ĠzÃ¡jem ci
ĠpÅĻÃŃ m
j as
enÄĽ jÅ¡ÃŃ
Ġ7 5
Ġvyrov nan
Ġs jezd
Ġstar tu
sti ckÃ¡
ĠtÃ½m em
s er
ĠdivÃ¡ ky
Ġpod ruhÃ©
lÃ¡ da
krÃ¡t ka
my slov
Ġmal Ã¡
Ġpot r
Ġkoali ce
le y
Ġse tkÃ¡
Ġvo j
Ġde sÃ¡t
Ġbudouc nosti
Ġhovo ÅĻÃŃ
ĠvnitÅĻ nÃŃ
Ho stÃ©
Ġpostav it
Ġos vÄĽt
Ġchod it
Ġvzdu chu
ĠpÅĻÃŃ pravÄĽ
ĠreÅ¾i mu
pla tek
Å¡tÄĽ m
Ġnor mÃ¡lnÃŃ
Ġfoto graf
ĠudÃ¡ losti
nÃŃ kem
Ġmas o
ĠnÃ¡ kladÅ¯
Ġk ov
Ġchce te
ĠbezpeÄį nosti
bi ce
p in
Ġsil nic
Ġok na
Ġroz um
ĠvÃ½stav u
Ġne lÃŃ
Ġdosava dnÃŃ
St ar
for m
ĠzÃ¡sad nÃŃ
ĠÄį leny
Ġten is
Ġ lov
Ġvy prac
Ġ25 0
Ġpo sou
ni ku
ĠpÅĻed lo
Ġnej dÅ¯leÅ¾itÄĽjÅ¡ÃŃ
Ġzi mÄĽ
Ġos u
ĠmÄĽsÃŃ ci
ĠÅ¡ampi on
ĠÄĮe Å¡i
Ġpracov nÃŃch
Ġtex t
dky nÄĽ
lÃ¡ ÅĻ
Ġsoci ali
ĠÃº drÅ¾
k ly
Ġve z
h ned
Ġji ho
S tu
vat enÃ¡
ĠtÃ© Å¾
ra la
ĠMora vÄĽ
enÃ¡ tu
O M
Ġod mÃŃtÃ¡
z at
Ġaktiv ity
Äįka mi
nÄĽ ji
Ġstaro sti
Ġnedale ko
Ġuspo ÅĻÃ¡
Ġextrali gy
ĠtÅĻet iny
ĠpÅĻi znÃ¡
ÄĮe skÃ½
) .
Ġzdro je
Ġfil mÅ¯
Ġekonomi ckÃ©
h ry
ĠspoleÄį nÃ©
Äį kovÃ©
Ġturna ji
ĠnÃ¡vÅ¡tÄĽvnÃŃ ky
ĠmÃŃ r
ĠÃºspÄĽ chu
Ġna je
Ġoby Äįej
ova cÃŃch
b ro
Ġop rÃ¡v
ĠÅ¡ panÄĽl
ĠI r
by tek
ĠLiber ci
Ġfe de
ĠzÃ¡ kro
D E
Ġvyj adÅĻ
vi ce
V Äįera
ch Ã½
ĠH Ã¡
Ġpo klad
Ġre zi
ĠU kraj
ĠNovÃ¡ k
ce l
Ġpoch val
ĠzahÃ¡ jenÃŃ
Ġdoprav u
Ġma teÅĻ
ĠH C
Ġs al
ĠÃº pl
ĠÄįerv nu
Ġ6 5
ĠJi hlav
ĠÅ¡est nÃ¡ct
ĠtÄĽ le
Ġse znam
Å¾ÃŃ vÃ¡
Ġhy po
O bÄĽ
ĠÄįe t
ĠzvlÃ¡ d
a u
Ġpok les
Ġty p
z ovanÃ©
hra de
ĠT ra
Ġ4 3
ĠvÃ¡l ce
Ġtechni ckÃ©
z il
ĠPr vnÃŃ
Ġm ak
ĠdvanÃ¡ cti
ĠK romÄĽ
ĠchybÄĽ t
Ã¡ ny
w s
ĠblÃŃ Å¾ÃŃ
ĠC ent
Ġpoz nat
Ġvy vÃ¡
ĠÅł vÃ½car
Ġpa desÃ¡ti
Ġpou Å¾it
vola l
Ġna Å¡tÄĽstÃŃ
Ġpovin nost
Ġkli ent
pe c
Ġz kra
Ġ ]
Ġan alÃ½
Ġne spo
ti ckÃ©ho
I M
ĠÄįty ÅĻech
ĠÅ¡ o
Ġry bnÃŃ
Ġsta rÃ¡
Ġ4 7
M art
ĠÅĻe Äįeno
ĠÄĮ S
R y
ĠB us
P ÄĽ
Ġv Äįas
ina mi
Ġt lu
Ġkar ty
2 2
mu m
Ġaktu Ã¡lnÃŃ
Ġd ar
ĠSlavi a
Ġpo kou
Ġvybra t
ĠMa Äıar
Ġ4 4
tu ra
ÅĪ ky
Ġbudouc nu
Ġt ovÃ¡
w e
Ġcharak teri
Ġsty lu
ĠnejvÄĽtÅ¡ÃŃ ch
ĠprospÄĽ ch
Äį tÄĽ
Ġkonfer enci
Ġsna Å¾il
pro du
Ġpov z
di o
kÃ¡ tnÃŃ
et ro
Ġdu Å¡e
h nou
ĠpÅ¯sob enÃŃ
Ġne t
Ġrodi ÄįÅ¯
ĠO p
an Å¯
ĠpÅĻÃ¡ nÃŃ
Ġdi vo
Ġal tern
Ġza mÃŃ
Ġspo l
Ġs mut
Ġvari an
Ġtechni ky
Ġtre fil
od y
Ġd alo
ĠmoÅ¾ no
ĠN ovÃ½
Ġse vero
Ġvide o
Ġpaci ent
z ÃŃm
ĠSloven sku
Ġpohy bu
Ġmaje tek
g al
ĠÃº t
Åĺ E
B C
ÄĮe skÃ©
ĠdosÃ¡ hnout
Ġs lÃŃ
ĠmÄĽst em
Ġkraj skÃ©
zen y
ÅĻ ena
zen Ã¡
ĠmiliÃ³ nu
Ġod kud
Å¾ enÃ¡
ĠpohÃ¡ r
ĠnÃ¡d her
vÄĽ zd
Ġsm rt
ĠAmeri Äįan
Ġb or
ĠjmÃ© nem
Ġuniverz ity
Ġvy dal
Ġpolice j
Ġdo chÃ¡zÃŃ
ĠM c
Ġpop tÃ¡
va z
Ġvz ÃŃt
ĠzÃ¡vod ÄĽ
Å¾ oval
zen o
ĠpÅĻekva penÃŃ
Ġva Å¡i
Ġpen zi
ĠveÅĻej nÃ©ho
Ġz nak
Ġmode rÃ¡tor
Ġm Ã½
se ch
mu je
Ġpoliti ckÃ½ch
ĠN or
K ou
ĠJaro slava
Ġhodno tÄĽ
Ġzastupi telÃ©
ĠC u
h ÅĻi
Ġ12 0
Ġdo min
ĠÄĮ EZ
ĠzÃ¡ ko
ĠvlÃ¡ du
Å¡ tej
Ġnev z
le ka
Ġrad nici
Ġo cit
N ovÃ©
vo sti
at ÅĻÃŃ
Ġ4 9
Ġu tkÃ¡
ĠvÄĽ de
Ġneza po
Ġvz rost
Å¡i lo
ĠF lo
c in
ĠTo po
stav u
ti on
ĠÃº z
r ova
drÅ¾e li
Ġbi lan
ĠvÃ½ hru
ĠpÅĻÃŃ bu
Ġtitu lu
ĠÅ¾eb ÅĻÃŃ
ji la
Ġk lo
mÃ¡ la
Ġpro z
Ġsva z
kaz ujÃŃ
Ġtechnologi e
Ġrozhod nout
Ġo rch
Ġzprac ovÃ¡nÃŃ
an tnÃŃ
ĠzaÄį Ã¡tek
p ÅĻ
Ġfor ma
ĠrozÅ¡ÃŃ ÅĻenÃŃ
Ġkole g
h am
lo govÃ©
lu jÃŃ
rod nÃŃm
Ġvy kon
ĠkvÄĽt nu
Ġo po
at ÃŃ
Ġbra m
ĠÅ¡e desÃ¡t
ĠtÅĻinÃ¡ ct
ĠzaÄįÃŃ najÃŃ
ĠP ot
t ce
ĠÅł u
Ġmar ket
ĠÃºÄįa sti
liko Å¾
Åĺ idi
Ġvlast nÃŃm
ĠÃº kol
Ġho tel
Äį nÃ½m
Ġameri ckÃ½ch
Ã© rÅ¯
Ġja pon
Ġvy hra
Ġnej lepÅ¡ÃŃm
Ġho rnÃŃ
ĠpoÄįÃŃ tat
ĠÄįÃŃ sla
u er
ĠT Ã½
Ġpodp ory
ĠvÃ½rob ky
di ce
Ġpoliti ci
i dla
t nÃŃm
Ġvo zÃŃ
ĠTe pli
ĠRy ch
Ġ emo
L oni
Ġfinan ÄįnÃŃch
ĠpÅĻedse dy
mÃ¡ Å¾
Ġfor mou
razi li
ĠposlednÃŃ ho
Ġna lÃ©
ĠnÃ¡rodnÃŃ ho
Ġpod vod
P av
ĠMorav y
Ġpar k
T Ã©
i d
Ġpo chyb
Ġpodez ÅĻe
rov ou
Ġmeda ili
Ġu prostÅĻed
ĠzÃ¡leÅ¾ito st
razi la
Ġoprav y
Ġtou to
8 0
Ġf anta
ĠÅ¾Ã¡ dost
ĠBy l
Ġu cha
ĠobÄįan y
Å¾ÃŃ ch
lu m
ĠK lat
ĠpÅĻÃŃprav u
ĠnezÃ¡ vi
ujÃŃcÃŃ ch
Ġu Å¡et
Ġpodez ÅĻenÃŃ
b ar
Ġroz poÄįet
ĠJind ÅĻich
Ġpro hrÃ¡
Ġode Å¡el
ĠsprÃ¡v nÄĽ
ĠmÃŃ ry
z ny
vnÃŃ ch
Ġameri ckÃ©ho
Ġlu xus
Ġra kov
Ġpro hrÃ¡li
Ġst rÃ¡v
Ġtu n
Å¾ as
P e
Ġkon cent
ĠpÅĻi pad
Ġminu lÃ©m
Ġdvoji ce
Ġn en
Ġpodni kÃ¡nÃŃ
ĠA fri
Å¾i je
Ġza vÃŃ
Ġk lÃŃ
am p
Ġprost ory
van ou
Ġoble ÄįenÃŃ
ĠzpÅ¯sob il
Å¾e la
Ġvy da
ĠcÃŃ tÃŃ
H ned
Ġs Ã³
Ġpubli ka
DÃ¡ le
Å¾ li
Ġmateri Ã¡l
Ġby dlÃŃ
Ġo chran
Ãį N
Ġprodu kce
ke ty
Å¡ nÃ½
ZÃ¡ jem
A utor
ĠvyuÅ¾ÃŃ vÃ¡
Ġko ho
Ġa f
Ġzak ou
Ġpot re
lnÃŃ ci
Ġzji stili
ÅĻ stvÃŃ
ĠpoÅ¾adav ky
ĠFran cii
ĠK DU
ĠpÅ¯ li
ĠzÃ¡pad nÃŃ
ĠdruÅ¾ stva
ĠtrÃ©nin ku
ĠJ ar
ovÃ¡ ni
ĠHav el
Ġu drÅ¾et
Ġorg Ã¡n
ch at
ĠM ezinÃ¡rodnÃŃ
f on
nÄĽ n
Ġv ze
la r
ĠD P
Ġdlou hÃ¡
Ġvys lov
Ġkata stro
Jed nou
ĠmÃŃst nosti
vnÃŃ ho
ĠspoleÄį nÃ©ho
Ġkvali tu
ova nÄĽ
ĠocenÄĽ nÃŃ
Ġhokeji stÃ©
Äįe l
e ro
Ġdro g
Ġv rch
Ġod bo
Ġmuze um
ĠSo kolov
Ġj o
ĠN ez
Ġdo stÃ¡vÃ¡
ĠL ud
Li bere
ĠO l
ĠzprÃ¡ vu
ĠpÅĻiprav it
Å½ Ã¡d
ĠprobÃŃ hÃ¡
ĠpotÅĻeb nÃ©
Ġchy by
Ġz di
Ġn y
Ġfir mu
ĠBene Å¡
Ġstej nou
M inist
ĠnÃ¡bo Å¾en
mÃ½ Å¡le
Ġko nÃŃ
ĠmÃŃ ru
Ġstudi a
ĠnÃ¡vÅ¡tÄĽvnÃŃ kÅ¯
ĠveÅ¡ker Ã©
ĠPa ÅĻÃŃ
Ġbar vy
ĠÄįtvr tÃ©
ĠpÅĻi hrÃ¡
Ġf an
stÃ¡ vajÃŃ
ĠZ noj
te ÅĻskÃ©
j mu
ÅĻÃŃ ÄįÃŃ
z ovali
Ġza ÅĻa
Ġne hody
ash ing
l ce
ĠzaÄį nou
ĠÅł a
ĠnÃ¡ mÄĽst
ĠlÃ©ka ÅĻe
ĠG i
Ġpohy buje
ovnÃŃ k
Ġo Äį
kÃ¡ lnÃŃ
ĠpÅ¯sob il
Ġby ty
Ġtri um
ti vy
Ġcel ku
Ġutr pÄĽ
Ġkvali ty
kÃ¡ ÅĻi
Ġprojekt Å¯
dÄĽla l
Å¾en ou
ĠvyprÃ¡ vÄĽ
ĠÃºspÄĽÅ¡ nÄĽ
ĠpÃŃ sem
lÃ¡ r
it Ã¡
Ġrod inÄĽ
m skÃ©
ĠI vana
Druh Ã½
Ġzby tek
ĠoÄįekÃ¡ vÃ¡
Ġvy lep
Ġ ovÄĽ
Ġs lad
ĠÃºto k
ĠodpovÃŃ dÃ¡
ĠpracovnÃŃ kÅ¯
Ġz lÃŃn
bu de
ĠznÃ¡m Ã½
ori e
Ġmeda ile
Ġdo drÅ¾
ĠdÄĽ l
pa dy
ĠÅĻe ky
z dÃŃ
ĠpracovnÃŃ ci
I A
Ġpove de
PÅĻed stav
Ġch lad
pi e
Ġslo Å¾enÃŃ
U S
Ġpr y
Ġd y
ĠpÅĻipo mÃŃn
ĠfanouÅ¡ ci
Ġm m
Ġvy hrÃ¡la
ti ky
Ġdo pis
ĠÄįe skÃ©m
Ġjedno tky
Ġza hrÃ¡
Ġrod inu
ĠlÃ©ka ÅĻÅ¯
ĠÅ¡ ir
ÄįnÃŃ k
ĠdÄĽla jÃŃ
ÅĻ skÃ¡
c an
Ġho stÃŃ
te c
Ġvy pu
Ġtam nÃŃ
Ġd ov
Ġmaji tele
ru je
ĠZ atÃŃm
ĠpomÃ¡ hÃ¡
ĠT om
ĠvÅ¡ech na
Ġi denti
ĠzvlÃ¡ Å¡tÄĽ
z du
Ġkli dnÄĽ
ĠfanouÅ¡ kÅ¯
Ġdosta tek
Ġklu ci
er ÄįnÃŃ
hod nÃ©
ĠBe rou
Ġvynika jÃŃcÃŃ
KrÃ¡t ce
ĠobÄĽ tÃŃ
ĠmÄĽ stech
ĠpÅĻe va
ĠCh rudi
ĠÅĻÃŃ dÃŃ
ĠTomÃ¡ Å¡e
ĠZÃ¡ pad
Ġprac ovi
ĠG re
Ġpro kÃ¡z
ĠpoÅĻad u
rov Ã©ho
dli Å¡tÄĽ
hro mÃ¡Å¾
stru ktu
Z em
v Ã½m
Ġv Ã©st
Ġka mi
ĠP RO
ĠÄįe Å¡tÃŃ
ĠS lu
Ġkomple x
Ġvrcho l
ĠHav lÃŃÄį
or em
Ġstra Å¡nÄĽ
Å¾ ku
ĠÅ¾i dov
ĠokamÅ¾i ku
Ġna le
Ġdo jÃŃt
Ġdovo lenou
chÃ¡ze l
k ve
Ġvlast nÃŃch
Ġroz hlas
met ry
Ġ19 0
Ġdvoj nÃ¡sob
Ġkape la
le nÃ½ch
rov Ã½ch
t nÃŃho
Ġzlo Äįin
Ġza stou
ĠarmÃ¡ dy
ĠB al
Ġstar Ã½ch
Ġstaro sty
ĠmlÃ¡de Å¾
Ġf ilo
ĠP u
ĠvysÃŃ lÃ¡nÃŃ
Ġd oved
ĠstÃ¡t nÃŃch
Ġmagist rÃ¡tu
LA V
stvÃŃ m
ĠJi hoÄįe
O n
D od
Ġins cena
h t
Ġpl nÃ½
sad ili
Ġkonkuren ce
A V
Ġsty l
Ġzp ro
Ġspo ko
Ġvy ÄįÃŃ
Ġjed inÃ¡
by l
ĠvÃ½sled ku
do x
ÅĻ skÃ½
eno st
el hÅĻi
Ġfil my
Ġorgani zacÃŃ
len dÃ¡
St av
Ġvelk Ã©ho
ro ÄįnÃŃ
na j
ĠpraÅ¾ skÃ©ho
ovnÃŃ ci
stÅĻÃŃ c
Ve denÃŃ
Ġhod inÃ¡ch
an ed
Ġna ÅĻÃŃ
Ġstup nÄĽ
P la
Ġobec nÄĽ
ĠK un
ĠH ana
ĠnÃ¡s il
ĠvÃŃ na
n skÃ½ch
Ġni koho
Ġo ku
Ġuz nÃ¡
Ved le
Ġna dÄĽje
ĠO s
2 3
ĠvÄĽtÅ¡ inÄĽ
ĠzÃ¡ slu
K de
ĠnÄĽjak Ã¡
ĠkrÃ¡s nÃ©
S na
ĠzmÄĽ na
Ġmo ÅĻe
d ovÃ©
h ovÃ©
pr ovÃ¡
Ġu drÅ¾
ĠpÅĻestÃ¡ vce
ĠgÃ³ lÅ¯
Ġdefini tivnÄĽ
je la
Ġply n
Ġsub je
ĠplÃ¡ ny
Ġve letr
Ġhlas ovÃ¡nÃŃ
Ġ199 5
ĠZ lat
Ġte ra
ĠstÅĻÃŃ br
ĠAu to
ckÃ© mu
N i
d anÃ©
ĠÄįlen em
Ġkomple tnÃŃ
Ġstav ba
Ġin teri
ĠprimÃ¡ tora
rÃ¡ m
it ka
N ad
Ġpo dÄĽ
ĠnÃ¡hra dnÃŃ
Pro stÄĽ
Ġpaci entÅ¯
Ġpi va
Ġba bi
ĠMilo Å¡
ĠmÄĽst skÃ©ho
ri d
ÄĮ er
kla datel
Ġst rav
Ġob ÄįanÃ©
ĠznÃ¡ t
rÃ¡ til
C ena
Te hdy
Ġdo jem
Ġleti Å¡tÄĽ
Ġod vez
u se
M S
ĠsluÅ¾ bu
ĠzÃ¡ sah
Ġinforma ÄįnÃŃ
ĠmusÃŃ te
Ġnej star
Ġv al
Ġne Äįek
Ġzd r
ĠÄįa stÄĽji
Ġsil nÃ©
ĠsÃŃ lu
jÃŃÅ¾ dÃŃ
ÅĻ skÃ©ho
ĠW al
Ġa pod
z ar
ti ku
ĠP h
Ġde vatenÃ¡
Ġco m
Ġmlad Ã½
si c
IN O
Ġpremi Ã©
Ġare Ã¡l
ĠtvÃ¡ ÅĻ
Ġrespe kt
ĠzvÃ½ Å¡it
ĠpÅĻÃŃspÄĽ vek
Ġho l
ĠvyjÃ¡d ÅĻenÃŃ
Ġje mu
ti ckou
ĠÃºÄįastnÃŃ kÅ¯
Ġdoku men
ĠbÄĽ Å¾nÃ©
r ce
ĠZ Åł
ĠsÃ¡ le
man n
Ġpoliti ka
Ġocho t
ĠpÅĻed nÃŃ
Ġse stavÄĽ
ĠtisÃŃ ci
Ġne re
Ġzbra nÄĽ
Tr enÃ©r
Ġprac oval
ĠneznÃ¡m Ã½
Ġpom Å¯Å¾e
Ġkou sek
nÄĽ te
s h
ĠhÅĻ bit
ĠP re
ĠÅ¡ at
ĠvzÃ¡ c
k aly
Ġs kÃ¡
Ġnor m
el l
Ġa li
Ġdota ci
tÄĽ li
Ġmno hÃ©
ĠC om
ĠzÃ¡ leÅ¾ÃŃ
Ġdosta teÄįnÄĽ
van Ã½ch
SpoleÄį nost
ĠbÃ¡ s
soci ace
kÃ¡ l
Ġsil ni
ĠkaÅ¾ dÃ¡
To to
Ġdruh Å¯
ĠS Ã¡z
ĠlÃŃ bÃŃ
ce k
it Ã©
Kra j
sta jÃŃ
ĠMÄĽ sto
ĠmÃŃ ÅĻÃŃ
Ġda ÅĻÃŃ
Ġin kas
Ġro ste
ĠÄĮe chy
ĠRob ert
Ġvod nÃŃ
ĠR ou
Ġte p
ĠÃº ste
ĠmÃŃ rnÄĽ
Ġasist ent
Ġu dr
mÃ¡ nÃŃ
Ġt ÃŃ
Ġnej sem
ĠpÅĻe hled
en Ã½m
ĠÃºvod u
ĠoznÃ¡ menÃŃ
ĠOS N
Ġspra vedl
Ġod chodu
ĠC D
Ġstup ÅĪÅ¯
Ġhere c
Ġagentu ra
ĠO pa
Ġc enÄĽ
Ġlikvi da
Ġli cen
lo s
Ġf ol
Ġpodni kÅ¯
ni ckou
ĠpÅĻÃŃpa dy
Å¡Å¥ ast
Ġok ru
Ġm ani
Jak Ã©
ene k
Ãº to
Ġsou boj
Ġi hned
ĠobvinÄĽ nÃŃ
Ġekonomi ky
Ġlegi sla
pe ra
Ġho sty
do stÃŃ
Ġu vaÅ¾
Ġote vÃŃ
Ġmu lti
ĠHra dce
Ġtr pÄĽ
men u
Ġat le
ĠC zech
Ġpr oved
t Å¡ÃŃ
Ġkonf li
ta mi
an Ã½m
ĠDenÃŃ ku
Ġstudi e
ĠnejÄįa stÄĽji
V Äļ
Ġbod u
Ġpo loÅ¾
ka Å¾
Ġmo rav
ĠT V
Ġofici Ã¡lnÃŃ
Ġde nÃŃk
ĠKarlov Ã½ch
ĠblÃŃz kosti
ĠD y
Ġci ga
ĠÄĮe ska
Ġodbor nÃŃci
ĠB ed
A S
Ġposla nci
Ġprodlou Å¾enÃŃ
Ġfon dÅ¯
ĠK lu
Ġku s
Ġstadi on
Ġanga Å¾
st Ã¡l
Å¡i m
Ġprofesion Ã¡lnÃŃ
Ġzp ÅĻÃŃ
ĠbÅĻez nu
r nu
V stup
s ce
Ġvy tr
Ġod bÄĽ
ale rii
Ġfinanc ovÃ¡nÃŃ
ĠÃºdaj Å¯
Ġna f
rov oz
Ġsou dnÃŃ
le ji
Ġproce su
Ġ199 4
P Å¯vod
N Äļ
Ġprove denÃŃ
Ġ ilu
Ġz hlÃ©dnutÃŃ
ĠvÅ¡ emi
ĠS k
ovan Ã©m
Ġus mÃŃ
ĠdÄĽt skÃ©
ĠN ymbur
ĠÃº pravy
Ġzda leka
sti ky
Ġza ÅĻad
ĠK rum
ĠstÃ¡ vajÃŃcÃŃ
I I
pe nÃŃm
m atu
ĠOstrav y
ĠÅ¾e lez
ran t
Ġv stÅĻÃŃc
ĠvÃ½ bu
Ġnato lik
lo mu
Ġse l
Ġad minist
en tu
2 1
ĠRo ky
pi lo
ĠdÃŃtÄĽ te
Ġost rov
Ġneby li
Ġnaje vo
S ed
pr ch
t ar
ĠPro chÃ¡
ĠblÃŃz ko
ĠtÅĻet inÄĽ
Ġhla vÄĽ
ĠZÃ¡ kladnÃŃ
Äį ata
Ġslu ne
Ġal bu
sla ne
Ġg alerie
ĠkÅĻe sÅ¥an
dÃŃ Å¾
Ġdo tÃ¡
Ġrizi ko
ĠvÄĽ domÃŃ
ĠLu cie
Ġpla ne
ĠMi ro
Ġd resu
Ġg u
Ġtre stnÃŃ
Ġza ru
d ovÃ¡
Ġzastupitel stva
Ġod ci
Ġhud ba
Ġzd roj
in ka
U R
Ġb avÃŃ
mÄĽ ÅĻi
Ġbra tr
ti sk
la na
or g
ĠnÃ¡sledu jÃŃcÃŃ
D ne
Å ĩ
Ġstro m
Jed nÃ¡
ĠKSÄĮ M
ĠsnÃŃ Å¾it
ĠLit vÃŃ
Ġne va
ĠpamÄĽ ti
Äı Ã¡r
Ġroz voje
Ġnaho ru
Äį nost
ĠBar to
ĠK or
ak u
Ġver zi
Ġpo to
ĠnemÅ¯Å¾ eme
ĠStÅĻe do
ĠvÃ½sled kem
Ġpro sto
K om
ĠÅ¾i jÃŃ
NÃ¡ vÅ¡tÄĽ
Ġ [
grafi e
va jÃŃcÃŃch
Ġ5 7
ĠvÃ¡ leÄį
OV Ãī
Ġvojen skÃ©
ĠjÃŃz dy
ĠRu ska
Ġprav Ã©
Ġhra d
ĠA g
Ġvy volÃ¡
ĠsdÄĽli la
Ġza bÃŃ
uje te
Ġdo sti
OU T
ĠÃļ ste
ĠE l
ve j
Ġz hodno
ĠzvlÃ¡ Å¡Å¥
y er
Ġpok le
Ġvod ÄĽ
ĠJe Å¡tÄĽ
ĠDvoÅĻÃ¡ k
Par dubi
ch ati
ĠzÃ¡ mek
ĠmÃŃstosta rosta
ĠÄįÃ¡st ky
ĠÃºse ku
ĠpojiÅ¡Å¥ov ny
Ġbudouc nost
Ġu j
Ġmist r
Ġsou boru
ĠzÃ¡ Å¾it
bi lo
Ġkro ky
ĠÅĻÃŃ kajÃŃ
ĠÃº Å¾as
ÅĻ enÃ¡
ĠvÃ½jim kou
ĠK ot
ĠW e
a pa
Ġzru Å¡enÃŃ
ĠÄįÃŃm Å¾
ĠpÅĻi vez
k tem
Ġprosin ci
lan t
Ġpochopi telnÄĽ
Ġob e
Ġd vo
Ġobraz y
ÅĻ eny
ĠplÃ¡ nuje
Ġ5 6
Ġvy dat
Ġhejt man
Ġsk ÅĻÃŃ
ĠK li
Ġad vo
ĠvlÃ¡ d
cen Ã½
Ġvy Å¡etÅĻenÃŃ
Ġpo kro
Ġneg ativnÃŃ
ĠM ad
p ri
Ġob vod
nÃŃ kÅ¯m
tÃ© Å¾
Ġhra du
A T
Ġnaro dil
ĠÃº lo
ve jte
Ġcent rÃ¡lnÃŃ
ĠzÃ¡ me
ĠÃºvod nÃŃ
ĠK rej
ti k
Ġu hlÃŃ
Ġzo o
Ġstro je
ve s
Ġsou hlas
Ġodbor nÃ©
lo r
Ġdo stav
EN Ãį
Ġotev ÅĻe
ĠLi p
Ġzji stit
Ġdom ova
z on
Ġzbra nÃŃ
ĠÅłtÄĽ pÃ¡n
bra l
Mi mo
Ġs chod
Äį kÅ¯
Ġdlou hou
ĠV r
Ġpri or
Ġpo byt
Ġdota z
Ġdub nu
Ġk lÃ¡Å¡
Ġschop ni
ĠvzdÄĽlÃ¡ nÃŃ
n ovi
ĠS il
ÅĻ ky
Ġz bÃ½
Ġz vÄĽ
Di vÃ¡
Ġch ar
ĠvÄĽ nuje
ĠH lav
Ġ6 00
ĠpraÅ¾ skÃ©m
Ġdovo lenÃ©
il m
Ġvo zy
Ġlid skÃ©
tu d
Ġmobil nÃŃ
VÃŃ tÄĽz
g Ã©
nÄĽ nÃŃm
Ġk ruh
Ġvy hov
Ġpolov ina
ĠÄįtyÅĻ mi
ru b
Å¡ an
Ġprode ji
vÄĽdo mÃŃ
Ġre feren
Ġo no
ĠÃºn oru
Ġd Ã½ch
Ġrych losti
Ġpo chÃ¡zÃŃ
ĠI rÃ¡ku
Ġnov e
Nik do
Ġzlep Å¡enÃŃ
ĠF ilip
ĠztrÃ¡ ty
Ġtra Å¥
Ġuli cÃŃch
C ho
Ġrozhodu jÃŃcÃŃ
Ġni koliv
Ġzmi ze
ÅĪ ujÃŃcÃŃ
F S
ĠKateÅĻ ina
ĠPo lÃ¡
ĠBoleslav i
Ġkoste la
Ġdruh y
Ġsil nÃ½
Ġmno zÃŃ
Ġna j
ĠjiÅ¾ nÃŃ
Ġda jÃŃ
Ġp alÃ¡
ĠD ou
Ġs boru
Ġslov y
h nat
Nic mÃ©nÄĽ
ĠRu sku
ĠD V
ĠlÃ¡ tky
mu n
Ġa ku
U T
ĠsluÅ¾ ba
k lÃ©
ro ss
ĠpodmÃŃn kÃ¡ch
pi to
Ġvy jde
Ġsymbo li
ÅĪ te
Ġpotrav in
Ġucha ze
Ġpotvr dila
Z ÃŃ
ĠÄįlÃ¡n ku
ĠBy lo
Ġnastou pil
Ġdru hu
Ġplo chy
ĠvÃ½rob kÅ¯
Ġka lendÃ¡
Fir ma
li vÃ½
m ani
Ġprozra dil
Åłkod a
Ġzna ÄįnÄĽ
Ġci vili
Ġpotr vÃ¡
la jÃŃ
Ġ201 3
S y
Ġope raci
je de
ĠpoÄįÃŃta Äįe
Ġh ar
k oru
Ġser vis
ĠzÃ¡ zemÃŃ
ĠO ld
Ġch vil
Ġmo tiv
Ġvla sy
ĠV er
Ġji hlav
Ġosob nÃŃch
ri ch
ĠrÃ¡ na
Ġprogra my
Ġvyso kÃ¡
ĠpÅĻe vod
ĠvÄĽ do
ĠÅĻÃŃj nu
logi e
Ġme d
Ġno ÄįnÃŃ
Ġhistori ckÃ©
A K
ĠukÃ¡z al
Ġklub Å¯
Ġobyva tele
ĠP atri
K ri
nu to
Ġschop nost
Ġstro my
ĠpÄĽ st
Ġposlu cha
ĠÄįe skÃ½m
Ã¡ nu
Ġtrest nÃ©ho
ĠKa Å¾
O ST
ĠnÃ¡ klad
lo Å¾enÃŃ
Ġs vo
ĠJaro mÃŃr
H e
o ko
k vali
Ġfotbal u
ĠpÅ¯ dÄĽ
ĠB ul
h rou
Ġ5 4
Ġ199 0
ĠpouÅ¾ÃŃ vat
Ġminu tÃ¡ch
ĠpÅĻÃŃslu Å¡nÃŃ
le Å¡
ĠvzdÄĽlÃ¡ vÃ¡nÃŃ
ka jÃŃcÃŃ
Ġk in
ĠzmÄĽ n
Ġ y
Ġfor mÄĽ
ĠpotÅĻe bujÃŃ
Ġpodstat nÄĽ
Ġskup inu
Ġpos Ã¡d
ĠnabÃŃ dne
ĠcÃŃr ke
-- --
te x
Ġ5 3
Ġdo Äį
ĠpodÃŃ le
kov anÃ©
Ġh vÄĽzd
ĠS part
sti ckou
ĠvÄĽ dÄĽl
Ġhygi eni
ĠvÃ½chod nÃŃ
SK ÃĿ
mu ni
ĠÅĻÃ¡ du
rÅ¯ m
Ġsta vÄĽt
) ,
Ġmin imÃ¡lnÃŃ
Ġspeci fi
ot t
Ġpoliti kÅ¯
st on
Ġ8 00
Za Äį
Ġz r
Ġbud ovÄĽ
Ġso ft
ĠstÅĻe dnÃŃch
Ġfotbal ovÃ©ho
ĠÄįtvrt finÃ¡le
Ġnesou hla
ĠdÄĽ di
ĠdÅ¯sled ku
ĠmÄĽsÃŃ ÄįnÄĽ
Ġsou ÄįÃ¡
B R
Ġru skÃ©
Ġok rese
ov nÄĽ
Ġvy vÃŃ
Ġzi sku
va mi
Ġkontro lu
Ta dy
e vrop
Ġpomo hl
eni ce
Ġrov nou
Ġ =
V a
Ġschop en
Ġodvo lÃ¡nÃŃ
Ġza dnÃŃ
ĠpÅĻÃŃ Äįku
Ġkar lovar
um ati
Å¡tÄĽ nÃ©
tel nou
Ġ >
Ġtre stu
ĠudÃ¡ lost
hod nÄĽ
Ġorganiz Ã¡tor
Ġve se
B e
ĠR Å¯
Ġpry Äį
AL ER
Ġupozor ÅĪuje
Ġpoliti ce
Podob nÄĽ
Ġp ne
m luv
ĠskvÄĽ le
Spo lu
ĠzvÃŃ ÅĻe
Ġli terÃ¡
Ġochra ny
Ġokres nÃŃ
ĠK ub
Ġdo provÃ¡
ĠOr li
ĠzÃ¡ zra
Ġv an
Ġne sk
Ġfung ovat
raz u
Ġbe ze
Ġu Äįin
ĠvÃ½stav bu
bÄĽ hl
ÄĮ Ã¡
Ġob lÃ©
ovÃ© mu
Å¡tÃŃ ch
Z vlÃ¡
b at
Ġv loni
ĠJ ir
ĠV ar
Ġpro sadit
ĠÄįtr nÃ¡cti
Jed na
Ġmno hdy
ato li
koli k
ĠA ni
Ġnej horÅ¡ÃŃ
in ky
ÅĻen ou
Ġslou Å¾it
ĠÄįem u
Ġse dÃŃ
ch vat
ĠAnd re
ĠnÃ¡ rÅ¯st
R a
ĠE d
Ġbram bor
Ġtu dÃŃÅ¾
Ġdiva del
ĠÅ¡ li
ĠnabÃŃze jÃŃ
ĠpÅĻiprav il
ĠS er
Ġvy pro
bil nÃŃ
ĠhvÄĽz dy
Ġd la
Ġreak ce
ĠV il
ĠÅ¡kolÃ¡ ch
ĠdÅ¯ stoj
lov ÄĽk
Ġjedin Ã½m
ÅĻÃŃ ch
D r
O lomou
Ġrych lÃ©
M ar
Z lo
Ġb lÃ¡
Ġpla te
ĠtrÃ¡ vnÃŃ
ĠvyuÅ¾ÃŃ vat
C I
Na bÃŃ
byt ku
Äį ovÃ¡nÃŃ
Å¾ nÃ½
ĠstrÃ¡n ce
ti sÃŃ
sk obu
Ġnedosta tek
enÃ½ mi
ĠnedÃ¡ v
Ġhodno tu
Ġpo koj
mo ci
stÅĻe dnÃŃ
Ġuzav ÅĻel
ĠpÅ¯l no
Ġroz vÃŃ
Ġpoliti ku
Ġzby teÄįnÄĽ
Å¡ kovÃ¡
Ġ5 8
Ġ199 3
ĠvÃ½kon em
Ġb rÃ¡nÃŃ
Ġaktiv it
dÃ¡ t
ĠvÃ½ hÅĻe
L U
Ġpoby tu
vi e
skobu dÄĽjovi
Å¡e la
ĠLe to
ĠMy slÃŃm
Å¾ nosti
B AL
Å¥ Ã¡
Ġk lÃ¡
pra vÃŃ
ĠnÃ¡s ilÃŃ
Ġkri zi
Ġhra de
f en
Ġtak ovÃ©m
lo n
Ġskon Äįilo
ĠSe ver
Cel kem
ĠB rod
Ġagre si
Ġmateri Ã¡lu
ĠmÃ© dia
ĠzvlÃ¡ Å¡t
ob ÄĽ
Ġma teÅĻskÃ©
Ġveli kosti
ĠfÃ¡ zi
k rÃ½
jÃŃm at
Å¡i ÅĻ
Ġpo rod
ĠvÃ½ voje
ĠpÅĻiprav ili
Ġmal ou
Ġne tu
ĠzvÃ½ Å¡il
Ġk les
ĠMla dÃ©
ĠVla sti
stou pit
d ovat
Ġvypl Ã½vÃ¡
ALER IE
Ġje l
Ġotev ÅĻenÃŃ
lov y
ĠSu per
ĠÄĮe skou
Ġkost el
ĠmÃŃst em
Ġvyso kÃ½
ĠZdeÅĪ ka
pad l
ĠvojÃ¡ kÅ¯
Ġroz lou
Ġsrp nu
rit Ã©ri
ĠnabÃŃd ka
Å¯ h
Ġve dli
g hÃ¡
Ġne f
Ġzahra dÄĽ
Ġmo nit
Ġnebu du
ÄįÃ¡ tek
âĢ ĵ
i ru
Ġru ky
Ġ5 2
Ġrostli n
ĠpÅĻiz pÅ¯sob
Ġkni hu
Ġstani ci
Ġz krÃ¡
znamen Ã¡
Ġp s
Ġz ved
Ġs hromÃ¡Å¾
va j
ĠpÅĻipo mÃŃ
z l
ĠvÄĽ ÅĻÃŃm
Tento krÃ¡t
Ġe pi
Mart in
me c
Ġv ir
Ġsna Å¾it
ĠAle Å¡
Ġstar Ã½
p h
ĠV an
ĠL y
ne te
ĠudÄĽla li
ĠV lt
Ġn Ã½
ĠFranti Å¡ka
J sme
S vÃ©
Ġl hÅ¯
t t
ĠpÅĻedpo klÃ¡dÃ¡
ĠdÄĽla l
Ġtisk ovÃ©
Ġtr pÃŃ
Ġta lent
Ġfanou Å¡ky
Ġli gu
ĠpÅĻe kro
Ġnemo hli
Ġkon at
Ġkampa ÅĪ
ve den
Ġk at
Å¾i tek
ĠzÃ¡ lo
Ġsk rÃ½
Ġnov iny
Ġro man
ĠSÃ¡z avou
Ġz pe
Ġfon d
ĠK ovÃ¡
cho dech
Ġhodno tÃŃ
Ġkni ha
m av
ĠPo hÃ¡
ĠpÅĻi dal
ul tu
Å¾e li
ĠoÄįekÃ¡ vat
blÃŃ Å¾
ĠpokraÄį oval
Ġkon t
Ġakci e
Ġdo hody
B Ã½val
nÄĽ na
st vem
Ġozna Äįil
Ġobje kt
ÄĮ E
Ġatmosf Ã©ru
O stra
Pra c
Ġvy hledÃ¡
ĠobÄĽ ma
ry nÄĽ
N I
ĠlÃ© to
Ġvy ho
Ġpubli ku
ĠstÃ¡ tech
Ġos vÄĽd
Ġse znamu
Ġkr ve
Ġ199 2
Ġob haj
pad lo
ÄįÃ¡ k
Ġstro mÅ¯
Ġne hodÄĽ
Å¡tÄĽ n
Ġsobot nÃŃ
ĠstÃ¡ la
Ġproje dnÃ¡
tel nÃ½ch
Ġodh ali
nÄĽ nÃ¡
SK O
ĠMÃ¡ me
ĠC ÃŃ
ĠoÄįekÃ¡ vÃ¡nÃŃ
Ġch ÅĻi
Ġprv ky
ĠS al
Ġdo kud
N av
Nej vÃŃce
Ġkonkuren ci
ti c
ĠG ra
Ġosob nosti
emo c
dÃŃ k
rÃ¡ Å¾ÃŃ
Ġot ce
ist y
ĠvÅ¡ im
Ġho rÃ¡ch
Ġregion Ã¡lnÃŃ
Ġopti mi
ĠzamÄĽst nÃ¡
ĠH avÃŃ
ĠsmÄĽ r
Ġnech ci
ĠukÃ¡z alo
ĠpÅĻije l
Ġvy ÅĻa
ĠpÅĻÃŃ klad
ĠsvÄĽt lo
ĠdÃŃ vky
ĠbrnÄĽ nskÃ©
s nÄĽjÅ¡ÃŃ
ĠtÅĻetÃŃ ho
Ġk lad
Ġob or
Ġroz hla
ĠsprÃ¡v nÃ©
Ġtak ÅĻka
va le
Ġob slu
ÅĪ oval
ĠN ed
Ġz krÃ¡tka
Ġv lou
ÄĮ SL
ĠveÅĻej nÄĽ
Z de
ve Äįer
ĠS nÄĽ
Ġna mÃŃ
ĠStra ko
ĠzÃ¡vod Å¯
Ġnez vlÃ¡
lou ho
Ġb la
Ġhlav i
Ġob vin
vnÃŃ ci
Ġv in
Ġstaro st
Ġarg u
po sud
Ġnav Å¡tÄĽ
ak a
Ġu loÅ¾
ist o
ĠpÅĻesvÄĽd Äįen
Ġpok ry
Ġsebe v
jedno du
nu la
ĠzÃ¡ ru
zd ory
ĠB ur
my Å¡
re Å¡
ĠzdÅ¯raz nil
Ġalkoho l
Ġvol nÃ½
D om
nÃ¡ ÅĻi
pe Å¾
ĠzÃ¡ mÄĽr
ĠpÅĻiprav en
ĠzodpovÄĽ d
Ġsoukro mÃ©
Ġprote st
D I
Ġminu lÃ©
bu s
ĠDo ma
Ġofici Ã¡lnÄĽ
ĠprÅ¯ myslov
Ġtvr dil
ĠzÅ¯ stala
Äį enÃ½ch
ej te
Ġovo ce
ĠpÅĻÃŃj my
Ġt j
vo tnÃŃ
Ġve den
Ġu vÃŃ
kÃ¡z ali
Ġsmlou va
tÃ¡ m
Ġkom pli
ĠnÃ¡ hodou
ĠK Ã¡
Äį enÃ¡
ĠpÅĻe kÃ¡Å¾
Å¾ kov
Ġre kre
Ġnastou pÃŃ
Ġim p
ĠF o
ĠzkuÅ¡eno stÃŃ
t nÃ©
Ġvi dÄĽli
7 0
Ġpo Å¡kod
an c
stou pÃŃ
Ġskon ÄįenÃŃ
ĠP it
Ġkoment Ã¡
Ġlid skÃ½ch
Ġdu ch
ĠpÅĻe mÃ½Å¡
ĠCh ri
Ġbudouc na
Te dy
ĠTe le
ĠhospodÃ¡ ÅĻskÃ©
ĠpÅĻÃŃÅ¡tÃŃ ch
Ġj dou
Ġchy bu
Ġzabez pe
M Äļ
TÅĻe tÃŃ
ĠhlÃ¡ sÃŃ
A l
pro mi
ĠMa g
Ġbi o
Ġz hor
Ġve Äįera
ta cÃŃ
Ġban k
Ġne Äįe
Ġokol nostÃŃ
Ġinter pre
te s
Ġkoru ny
o Äįe
M e
x y
Ġspon zor
ĠjÃŃ dlo
Ġvliv em
ĠNovot nÃ½
ĠhospodÃ¡ÅĻ stvÃŃ
ĠF K
ĠD en
br Å¾
Ġkonfer ence
ĠsnÄĽmov ny
Ġos v
ĠkrÃ¡t kÃ©
ka zem
de vÅ¡ÃŃm
Ġnemo ci
Ġtla ÄįÃŃ
Ġpro dat
Ġpacha tel
Ġknihov ny
Ã½ kÃ¡
z in
Ġspo ÅĻitel
ĠR Ã¡
Äįer st
ĠMat ÄĽ
mu s
Na Å¡e
ĠLen ka
ĠRu sko
ku jÃŃ
Å¡ kov
kovÃ© m
ĠDP H
Ġtelef onu
ĠdÄĽ nÃŃ
Ġspo jen
ÃŃ me
Ġhokej ovÃ©
Ġzaji Å¡tÄĽnÃŃ
ĠN ÄĽk
Ġnepo tÅĻe
hled nÄĽ
ĠT OP
Ġmax imÃ¡lnÃŃ
3 5
P an
Ġnaro zenÃŃ
Ġko nÄĽ
Ostra va
ĠÄįtvrt letÃŃ
Ġsla vÃŃ
K am
le nÃŃm
Ġvypad at
zÃ¡ toÅĻi
Ġhud bu
mÄĽ sÃŃ
an Ã©m
bÅĻe Å¾ÃŃ
ĠRu dolf
Ġroz mÄĽ
Ġne be
inÃ¡ m
ĠÅĻe me
Ġz re
drÅ¾e la
Ma ji
ĠQ u
Ġzat Ã¡
ĠT ro
Ġkli entÅ¯
Jestli Å¾e
Ġp ut
Ġst at
ve l
v ent
ĠT at
ĠpÅĻedcho zÃŃch
Ġvelk Ã©m
Ġch vÃ¡
Ġvy hodno
Ġ5 9
ĠlÃ© kÃ¡
Ġza re
Ġw ebu
Ġpre zent
ĠB ou
Äį ovÃ¡
VÃ½sled ky
ĠpÃ¡ s
ĠnechtÄĽ jÃŃ
ÄĮ a
ĠstarÅ¡ÃŃ ch
Ã¡t Å¯
Ġpro slu
Ġh nÄĽ
ĠpÅĻe bor
ĠKlad no
Ġcvi ÄįenÃŃ
ĠnÃ¡ro ÄįnÃ©
Ġnej rych
Ġsna Å¾ili
Ġsen Ã¡tor
Ġdu chu
S Ã¡m
n skÃ©m
ĠzabÃ½ vat
Ġza bÃ½vÃ¡
ĠzamÄĽstnan ce
ĠVladi mÃŃra
ĠS im
t onu
ĠÄįtve re
ĠKo s
Ġv race
Ġok ruh
Ġve Äįe
Ġza z
tr Ã©
ĠÅ¾Ã¡d nÃ©m
Ġroz Å¡iÅĻ
do ws
ĠST Ãģ
Ġner v
Ġrestau raci
sti ce
ĠO n
Ġd ÅĻÃŃ
Ã½ r
DÅ¯ leÅ¾it
Ġprac ujÃŃ
Ġreprezent an
ĠR adi
Å¡ko l
MÃ¡ te
ĠBudÄĽj ovicÃŃch
ĠE n
zu jÃŃcÃŃ
sk al
ĠNÃ¡rodnÃŃ ho
li na
lin g
ĠHor nÃŃ
Ġhasi Äį
pa denÃŃ
ĠproblÃ©m em
ĠÅł pi
b Ã¡n
Ġposlan cÅ¯
Ġvol nÃ©
Ġk ritÃ©ri
ĠscÃ© nÄĽ
S P
kt oru
Ġlo di
cha ÅĻ
Ġobla stech
Ġautomobil Å¯
ĠH D
bra t
Ġvy Äį
Ġpro hrÃ¡l
Ġmo tiva
Ġukon ÄįenÃŃ
ĠukÃ¡z at
Ġsou dce
ĠsouÄįas nÃ½
Ġm ra
Ġprosto rÃ¡ch
Ġna pÄĽtÃŃ
ĠpÅĻipo mnÄĽl
ĠnÃ½ brÅ¾
Ġnevy u
gi on
Ġpodni ky
Ġi zrael
ĠW ashing
Ġdost alo
ĠmÄĽst skÃ½ch
ĠzvÃŃÅĻ ata
Ġkontro ly
ĠnabÃŃd nout
Ġdce ra
Ġby tÄĽ
Ġklu by
ĠzÃ¡chra nu
ĠB Ã¡
S u
Ġh an
ĠvÄĽ dÃŃ
Ġmoder ni
li vu
ĠsvÄĽt ovÃ½ch
va Äį
ĠDani el
mi e
k Ã½mi
Ġna vÃ½
s an
ĠKarlov ar
ĠYor ku
d alo
teÄį nÃ½
Ġmoto cy
Ġdo zor
ĠpÄĽk nÄĽ
Ġpopu lÃ¡rnÃŃ
Ġpo stoj
Ġpou hÃ½ch
st el
in k
A Å¥
ĠKarlov y
ĠpÃ¡t Ã©
stÅĻe lil
Ġza hy
ĠpÅĻedstaven stva
ĠdÃ© le
Ġhla sy
ĠK at
Ġtu ne
Ġangli Äįt
Ġzahra dy
ĠK ad
S to
ĠZem ÄĽ
Ġz ÅĻej
ĠS lez
r nÃ½
ĠkamarÃ¡ d
no jem
forma ce
ĠA d
Ġna dÄĽji
ĠO ba
Ġobje vila
Ġtro Å¡ku
Ġi zo
Ġpo Å¡t
Ġkilo gra
ĠpÅĻe hra
Ġka me
Ġmat ur
rg ani
ĠneÃº spÄĽ
Ġc oby
ĠN ovÃ©m
Ġhru b
Od bor
te ru
sle z
Ġjed nak
ĠV alaÅ¡
ĠzabrÃ¡ nit
ĠGe or
Ġope race
ĠoÄįi ma
Ġz nal
bi ci
Ġu ji
ĠRich ard
Ġobje d
ĠLi bor
Jed nÃŃm
ĠvÅ¡e obec
ou nt
Ġ8 5
ĠvÄĽtÅ¡ iny
Ġumo Å¾nÃŃ
ĠsnÃŃ h
2 6
ĠJi ho
Ġpoho t
ĠO t
ĠMiro slava
ĠpÅĻÃŃpad nÃ©
ĠZ lÃŃnÄĽ
Ġtr hy
Ġokru hu
h lu
Ġke rami
Ġobrov skÃ©
ĠdruÅ¾ stev
alo g
Sou ÄįÃ¡stÃŃ
Ġnes mysl
n anÃ©
lad Å¡ÃŃ
o ro
Ġh avÃ¡
r nÃŃho
Ġdru ho
Ġpremi Ã©ru
Pro gram
ĠBra ti
ĠvÃ½zku mu
Ġodp or
D vÄĽ
la li
Å¡i ce
Ġteplo ty
Ġdo le
vo t
Ġbole sti
e nÃŃm
Ġzt rÃ¡t
f y
pro ti
Minist r
Ġkoncer tu
ĠS Ã½
ĠmÄĽ ÅĻÃŃ
ĠnepÅĻe d
st nÄĽ
ĠreÅ¾i m
Ġkontro l
ĠscÃ© ny
le sku
zi e
Ġu prch
ĠH ru
Ġne vidÃŃ
ĠpÄĽ ta
Ġobla stÃŃ
Ġzalo Å¾enÃŃ
as y
Ġli be
Ġne Å¡Å¥ast
ko t
ĠprÅ¯ bÄĽh
ĠBÅĻe clav
Ġob div
Ġextr Ã©m
ĠkÃ¡d ru
Ġstej nÃ©m
Ġk Ã³
Ġre s
Ã© l
ĠSloven ska
ĠsnÃŃ mek
Ġje de
ĠÄĮ Ã¡
ĠhvÄĽz da
Ġv ina
ĠAnto nÃŃn
at t
Ġc ca
ĠItÃ¡ lie
Ġ7 7
Ġry bÃ¡
Ġd anÃ©
Nej en
M I
V Å¯
K la
Ch ce
ĠprÅ¯zku mu
ot va
ĠHo rÃ¡
Ġla h
T Äļ
dÃ¡ k
ÄįÃŃ na
li lo
NÄĽk dy
Z lÃŃn
Ġde ch
od ÄĽ
2 8
z ovala
Ġch ud
Ġspis ovatel
ĠpÅĻije tÃŃ
Po tom
Ġnech ali
Ġinvesti ÄįnÃŃ
am at
Ġcy klu
ĠÄįe kal
d av
ĠÄįesko sloven
b l
ĠnÃ¡ro k
zna la
Ġuli c
Ġpat ÅĻil
ĠdrÃ¡ hy
Ġrozhov or
Ġkontak t
ĠâĢ ¢
Ġod ha
Ġma xi
Ġk ÅĻÃŃÅ¾
Ġda nÃŃ
Ġsil nÄĽ
ĠpÅĻed bÄĽ
ĠAmeri ce
ĠÅ¾Ã¡ dosti
ĠÄįÃŃ sle
ĠmanÅ¾el ka
Ġvy stup
ĠAda m
sko slez
Ġli stu
ĠnÃ¡vÅ¡tÄĽ v
Ġredak ce
Ġz le
ĠB ran
ST I
PÅĻÃŃ pad
ĠdÃ¡ r
Nej prve
Ġne ji
Ġ4 1
Ġexp eri
ĠdosÃ¡ hl
Ġa mat
mr z
ĠdÃ¡ vat
Ġinici ati
Å¡ enÃ¡
ĠK ut
ĠÅ¡ tÃŃ
zen ou
ĠnÃ¡ le
ĠtÅĻÃŃ da
Ġdo ktor
Ġtradi ce
Ġtechnologi ÃŃ
Ġcel kovÄĽ
ĠpokraÄį ovÃ¡nÃŃ
ĠdÄĽ v
ĠzÃ¡ bÄĽ
O bec
b en
Ġhot ovo
ĠO pen
desÃ¡ti letÃ½
lo m
Ġdo prava
ot Ã©
n ovÃ½
Ġtak ovÃ½m
Å¡ÃŃ me
sad ila
Ġnap lÃ¡n
ĠmÃ©di ÃŃ
ĠK alou
Ġkom ory
Ġpro jÃŃÅ¾
Å¾en Ã©ho
ĠnÃ¡ kla
ru s
ĠÄįer nÃ©
ĠnavÅ¡tÄĽ v
sÃŃ ch
Ġposla nec
Ġji hu
ĠN enÃŃ
ĠzÃ¡ sa
Ġsu rov
ĠNÄĽme cko
Ġkole ch
Ġcest ov
Ġobraz Å¯
ĠzÃ¡jem ce
Ġmo st
ĠmÃŃstopÅĻed seda
Ġpozem kÅ¯
ĠTÃ¡ bor
Ġau tem
ĠodpovÄĽ dÄĽl
Ġinstitu ce
ĠsÃŃ tÃŃ
ĠSt an
Ġpo ruÅ¡
ĠzÃ¡kon em
ĠÅłum per
Ġpo blÃŃÅ¾
ĠkaÅ¾do roÄįnÄĽ
Ġvy hlÃŃ
Ġreprezen taÄįnÃŃ
hor vat
Ġne vÃ½
poÄį Ã¡tku
Ġvyrov nat
Ġvr tu
ĠnemÄĽ lo
ĠotÃ¡ zkou
ĠPo spÃŃ
Ġvy Å¡el
sko Äįil
ĠT our
Rozhod ÄįÃŃ
Ġb rÃ¡t
Ġs hr
Ġpodob nÃ½
ĠprÅ¯ kaz
ĠD nes
kon om
gi ÃŃ
ĠpÅĻe ru
Ġohro Å¾enÃŃ
ĠÄįerven ci
ĠH lu
Ġsez nÃ¡
Ġko t
Ġu vo
va rnÃŃ
Ġsp at
it ÃŃm
D ouf
Ġta bu
Ġry b
kaÅ¾ dÃ©
v rat
Å¡ ily
Ġned ovo
ĠdÅ¯vod y
li d
Ġstav ÃŃ
Ġspole hli
ĠmladÃŃ k
li a
Ã¡ me
ologi ckÃ©
Ġji mi
lnÃŃ kÅ¯
Ã¡ Å¡
ĠstÅĻed ovÄĽ
Ġhospoda ÅĻenÃŃ
ĠH rÃ¡
Ġli mit
ĠvysvÄĽt lila
du jÃŃ
ĠÅ¾elezni ÄįnÃŃ
Ġo Å¡etÅĻ
ĠpÅĻi spÃŃ
ĠstrÃ¡Å¾ nÃŃci
ĠvytvÃ¡ ÅĻe
ĠsvÄĽ domÃŃ
Ġvel vy
Ġakadem i
Ġklasi ckÃ©
ĠPardubi cÃŃch
Ġstan d
c ro
Ġpovin nosti
Ġdovo lit
ĠS b
Ġka pito
Ġdo Äįka
ĠZ uz
Ġkou pali
O tev
Ġvoli ÄįÅ¯
ĠAn ge
k ÅĻi
ov skÃ©
Ġzd ob
ĠD O
ps at
ĠvÃŃtÄĽ ze
ĠsoustÅĻe dÄĽnÃŃ
Ġsou ladu
Ġkome die
Ġpodzim nÃŃ
Åł Ã©f
ĠH odo
Pav el
Ġpodpor uje
Å¡e jÃŃ
ĠH od
ĠpÅĻe hrÃ¡
Ġobje dnÃ¡
ĠProstÄĽ j
Ġtra gÃ©
ĠvidÃŃ m
R E
Ġkar tu
Ġvytvo ÅĻenÃŃ
ck em
ĠLiber ce
Ġredak tor
Ġrela tivnÄĽ
9 9
ĠnÄĽme ckÃ©ho
ĠSlavi i
ĠpÃ³ di
Ġna ci
Ġsever u
ĠmÄĽ nit
Ġspokoj enÃ½
ĠMu ze
ĠpoÅ¾Ã¡ ru
Ġ rÃ½
mÃŃ ru
ĠD ÃŃ
Ġku sÅ¯
ĠMezi ÅĻÃŃÄįÃŃ
ĠTu re
ĠF re
ĠzahÃ¡ j
Ġdesi g
Z mÄĽ
ĠsvÄĽd ÄįÃŃ
J I
Ġstra nou
ĠpÃŃ se
ist Å¯
ĠvÄĽ d
Ġti sku
Ġkari Ã©ru
L o
h na
ĠBritÃ¡ nie
sil ÃŃ
vo dech
Ġva Å¡ÃŃ
Ãº spÄĽÅ¡
Ġkomb in
Po stup
Ġpa le
teri e
V Ãį
Ġpo razil
ĠÅĻe Äį
Ġturi stÅ¯
ĠpÅĻÃŃro dÄĽ
Ġnom in
Ġakci onÃ¡
ĠmanÅ¾el stvÃŃ
Ġtradi ci
Do konce
Ġvy ch
i ans
Ġvyso kÃ½ch
ĠnÃ¡vr hy
Ġdoprav nÃŃch
ĠH la
ĠTe plice
Ġpo pÃŃ
Ġfotbali stÅ¯
ĠstÅĻe diska
Ġvi z
Ġkab el
Ġvlast nÃŃho
Cel Ã½
ĠN ovÃ©ho
Ġna jdou
sku p
ÄįÃŃ me
ko mo
ke tu
ĠProstÄĽ jov
ĠdÃ¡l nice
Ġho stujÃŃcÃŃ
hu jÃŃ
ĠzmÄĽ nÃŃ
Ġvle vo
ĠH el
ĠÅĻe kli
jÃŃ me
ÄĮ tyÅĻi
Ġosob a
Ġvy jednÃ¡
ĠlÃ© ky
Ġprogra mÅ¯
2 7
ĠvÃ½ let
Nej lepÅ¡ÃŃ
p Ã¡d
Ġ9 5
ĠpÅĻines l
Ġmist ra
ĠvÃ¡ p
Ġna va
ĠbrÃ¡ nit
Ġjedin e
Jed in
ĠAlex an
Ġji nÃŃ
ĠpÅĻed Äįas
Ġpne umati
stan ov
Ġatra ktivnÃŃ
ĠpÅĻÃŃj mÅ¯
ĠzÃ¡ mo
ĠprobÄĽh ne
ĠlÃ© Äįeb
ĠvzÃ¡ pÄĽtÃŃ
Ġfilo zo
w er
Ġdlou h
Ġne Å¡lo
ĠtÄĽÅ¾ ce
Ġpoku tu
ĠvÃ½bor nÄĽ
le je
ĠvÃŃ me
e ku
Ġmaji telÃ©
Ġob rat
Ġosm nÃ¡ct
ak e
Ġode hrÃ¡l
Ġpodob u
P S
Ġnep ÅĻÃ¡
Ġinf ra
tÃ¡ ÅĻ
Ġnapl no
ĠsystÃ© my
P ÃŃ
H or
it nÃŃ
Kon e
Å¡ Ã¡
Ġzave denÃŃ
Ġje m
Ġzji stil
ka za
Å¡ enÃ½ch
Ġjist otu
Ġh aly
Ġpozem ky
Ġu klid
Ġjednodu Å¡e
MÄĽ li
Ġpr ov
ĠVoj tÄĽ
To mÃ¡
Ġf Ã³
nutÃŃ m
W N
Ġop er
Ġzla to
Å¾en Ã½m
Äįe ho
ce lo
Ġnece lÃ½ch
Ġvyrov nÃ¡
Ġz ouf
ĠnÃ¡ dob
c z
Ġlegen dÃ¡
Ġkomunika ci
ĠA f
Ġreprezent ant
ch ovÄĽ
ĠpÅĻÃŃjem nÃ©
ĠkonkrÃ© tnÄĽ
lov Ã©ho
Ġle sa
ĠÅ¾Ã¡ ky
Ġne tra
zi lo
Ġzastav it
ĠvteÅĻ in
ven stvÃŃ
ĠtermÃŃ nu
od en
Ġspoj enÃ©
ÄįÃŃ nÄĽ
ĠdÃ¡ vajÃŃ
ĠÅĻe kne
ĠSloven sko
Ġaby ste
kovi c
ĠpÃŃ snÄĽ
ĠS obot
Ġobra nu
Ġpat rnÄĽ
Ġo my
n dÃ½
Prob lÃ©m
ĠMo st
Ġt rou
Ġpotvr zuje
h nu
Ġ5 1
ĠV en
Ġl Å¾ÃŃ
ĠdruÅ¾ stvo
mÃ¡ m
ĠÄįer no
ĠSpo leÄį
ĠÃºsmÄĽ vem
Ġkur z
ĠS rb
NÃ¡ sled
Ġpo rt
V lÃ¡da
Ġsamot nÃ©
Ġst ovek
Ġsym pati
ĠMicha ela
Ġsto lu
ĠA no
ĠP ala
Å¡ nÃ¡
ĠzÃ¡loÅ¾ nÃŃk
Ġmen Å¡
eno sti
Ġsez ona
ĠmÅ¯Å¾ u
Ġn ou
Ġ6 4
g ar
on Å¯
Ġne ho
ĠWin dows
Ġdokon ale
ĠK ÅĻi
Ġvy vr
ve ch
Ġode v
ĠItÃ¡ lii
Ġk ina
ĠC y
Ġme tr
Ġneu mÃŃ
ĠbÃŃ lÃ©
on o
L Ãģ
Ġvzta hÅ¯
Ġfi gu
Ġv tip
Ġalbu m
den ce
ĠÄĮer nÃ½
Ġla bora
Ã³ ny
Po ÅĻad
Ġmoment Ã¡lnÄĽ
p rÃ¡v
Ġsrov nÃ¡
o ÅĻi
Ġroz sahu
ĠzÃ¡kaz nÃŃkÅ¯
ĠpÃ¡ du
Ġosm nÃ¡cti
Ġubyt ovÃ¡nÃŃ
h lou
i Å¡tÄĽ
r chu
UD r
ĠII I
ĠnÃ¡vÅ¡tÄĽ vÄĽ
Ġskon Äįit
Ġobrov skÃ½
Ġvy zna
av ori
Ġcestu jÃŃcÃŃ
ĠBritÃ¡ nii
Ġosob nost
av u
ĠudÃ¡ lostÃŃ
ĠzÃ¡kon y
Mu sÃŃ
Ġpl no
Äį iny
jed inÄĽ
je nÃŃm
Ġh Å¯
ĠVi kt
Ġve dla
rou p
Ġkom plika
ri m
Ġzji Å¡Å¥
Ġzkou Å¡ky
Ġostat nÄĽ
Ġsem inÃ¡
Ġdisku se
Ġhistori ckÃ½ch
M inisterstvo
Ġmuse lo
Ġpo chy
Ã³ nu
Ġg olf
et na
Ġarch e
ĠÅĻidi ÄįÅ¯
rÃ¡ nek
Ġ199 1
ÄĮ ÃŃm
Ġci vil
Ġbe re
ĠPe ter
ĠdÅ¯ kaz
ĠloÅĪ skÃ©
Ġs ovÄĽt
pe ci
Za jÃŃmav
Hlav nÄĽ
Vel mi
Ġ lan
ĠÄįe Å¡t
Ġce lost
Ġpora zili
Ġzji stÃŃ
Ġpodzi mu
ĠdÅ¯leÅ¾it Ã½
an o
ĠO kres
ĠsouÄįas nÃ©ho
Ġzprav idla
Ġz aned
Ġs prav
S lav
Ġtex tu
Ġpa u
Ġmas a
Ġokres nÃŃho
ĠM U
ĠelektÅĻ iny
ĠbÄĽ hu
ĠRÅ¯ Å¾i
Ġtri bu
ĠangaÅ¾ mÃ¡
Ġpro hlÃ©dnout
ĠÅ¾ebÅĻÃŃ Äįku
ĠNi zozem
Ġdo kÃ¡Å¾
ĠpÅĻiznÃ¡ vÃ¡
e ra
ĠÅł im
Ġkraj skÃ½
Ġosob nostÃŃ
ĠtrÃ¡ pÃŃ
ĠpÃ¡ n
ĠtvÃ¡ ÅĻÃŃ
Ġg lob
Ġter Ã©nu
ĠÅ½e lez
ĠhrÃ¡ la
b in
Sta ÄįÃŃ
je k
Ġmateri Ã¡ly
raz y
org ani
ĠD alÅ¡ÃŃ
Ġok resu
c ad
ĠpraÅ¾ skÃ½ch
Ġspravedl nosti
2 9
Ġkon c
LO AD
Ġsil nicÃŃch
HN OUT
ĠI vo
Ġz je
Bran ky
ĠM Ã¡m
Ġchla p
Å¡ u
ĠvojÃ¡ ci
elhÅĻi mov
Ġo lej
WN LOAD
ven tu
Ġvy ro
ĠproblÃ© mu
Ġpropa ga
ĠmÄĽ ste
ĠpÅĻÃŃbu z
ĠnavÅ¡tÃŃ vit
K rÃ¡
ĠskvÄĽ lÃ©
emi Ã©r
ĠpÅĻedstavi telÃ©
t re
Ġex eku
ĠvyprÃ¡ vÃŃ
pe ch
do lÃŃ
Ġstuden ty
Ġnimi Å¾
Ġod padu
Ġpoplat ky
ĠdÄĽt stvÃŃ
Ġne op
Ġ ren
NÄĽ me
ĠÅ¾al ob
ĠMicha el
K Ãģ
ĠH ou
ĠÃļ ÅĻad
ĠÃºsp or
ĠostatnÃŃ mi
ĠjÃŃ del
Ġne znamenÃ¡
lÃŃ me
ĠmÄĽ stu
Ġp es
Ġslav nostnÃŃ
k do
pra vo
Ġstand ard
ĠvyÅĻe Å¡it
Ġpra xe
ĠÄįe st
ĠCho mutov
ĠelektrÃ¡ rny
Ġjin Ã©m
pou Å¡tÃŃ
Ġciz in
ĠlÃ¡ sky
ĠS enÃ¡tu
R Ã¡
Ġtro ji
Ġhle dÃ¡nÃŃ
Ġdost aly
ĠSTÃģ HNOUT
Ġad re
Ġmat ky
Libere c
um ent
ĠA b
Ġdivi ze
le bnÃŃ
Ġte l
S vÄĽt
Ġprofes or
Ġna kladatel
Ġkan ad
ĠÅ¡ vÃ©d
Ġroz vod
d nÃ©
ĠÅ¾ Ã¡n
Ġod chod
chÃ¡ze lo
Ġse kre
ĠpÅ¯ dy
la la
Ġotev ÅĻel
Ġves nice
st rojÅ¯
ĠJe Å¾ÃŃ
Ġna kup
ĠzÃ¡j my
Ġtvr zenÃŃ
Ġvy dÄĽ
ĠpÅĻije de
ĠR an
Ġur Äįen
ĠvyjÃ¡d ÅĻil
Ġoprav u
Pre zident
Ġtr vat
ra tivnÃŃ
Ġre g
go slÃ¡
Ġsu ver
ĠnÄĽme ckÃ½
ĠSe vero
ĠL in
StÃ¡ le
ĠstÄĽ h
Ġcy klo
Ġozna Äį
Ġsp al
ĠnÃ¡vÅ¡tÄĽ vu
Ġbez pro
Ġsli buje
Z ku
Ġnedo Å¡lo
Ġho ÅĻ
ĠÃļ stav
Ġsouvi sÃŃ
Ġch iru
Ġvyzkou Å¡et
Ġdob rod
ZÃ¡ pas
to st
Ġneu spÄĽ
Ġvz nika
vy Å¡
Ġjas no
Ġna Å¡la
ĠnezÃ¡vi sl
Ġmo stu
atÅĻi ceti
Ġpro chÃ¡
ÅĻ ina
ĠM en
Ġzvy Å¡uje
s nÃ½
k in
an ci
Ġvz bu
Ġpoku t
tÃ¡ nÃŃ
Ġse st
ĠzÅ¯ stÃ¡vajÃŃ
Te prve
I P
h en
Ġob Äįerst
ĠsouÄįas nÃ½ch
sti lo
ĠsvÄĽt ovÃ©ho
ĠznÃ¡m Ã½ch
ĠPol sku
ĠzÃ¡ mÄĽ
Ġh ÅĻÃŃ
Ġs ka
ov kou
ĠF ot
m l
Ġo pozice
Ġe t
ĠM od
ĠPÅĻÃŃ bram
Ġkari Ã©ry
sti ka
Ġu hra
Ġvykon Ã¡
Ġod stav
Ġobra nÄĽ
ĠV z
M an
Ġz opak
Ġspoko jen
ĠJ sme
si lo
ĠvÃ½ Å¾i
Ġbo m
ovÃ© st
hla Å¡
Ġh mo
ĠurÄįit ou
ĠPÅĻÃŃ bra
Ġmani pu
ĠP rÅ¯
Ġpo se
ĠvÃŃ no
Kon ce
Å¡ ce
Ġtr Å¾
Ġpoved lo
vis lost
ĠpeÄį livÄĽ
Ġpreziden tem
Ġobje ktÅ¯
C O
de s
w ood
Ġod hod
b ka
Ġpal ub
ĠS lÃ¡
Ġsvat Ã©ho
ĠdÅĻe va
de jte
ĠÅĻe tÄĽz
c uje
bo ÅĻe
d aly
cha jÃŃ
s ly
Ġsouse d
ĠÄįtvrt Ã½
o ff
ĠnebezpeÄį nÃ©
Ġsever nÃŃ
Ġnejmen Å¡ÃŃ
ĠsÃŃ ti
Ġnep ou
ĠpÅĻÃŃ prava
ĠPÅĻe rov
ĠtÃ½ Äįe
Ġdi sp
li c
ĠznÃ¡ mo
ĠmÄĽ ÅĻenÃŃ
nu jÃŃ
Ġfinan ÄįnÄĽ
s nÃ¡
Ġfor m
ĠzÃ¡ Å¾itek
Ġinform ovala
tÄĽ la
5 5
Ġch alu
ĠnÄĽ Äįem
Ġposky tuje
ĠH um
se lu
Ne vÃŃm
te oro
Å¡en ou
ĠgÃ³ lu
p ily
ĠprÃ¡zdn in
Ġz ruÅ¡
Ġschop nosti
Ġsouvi se
in t
de ÄįnÃŃ
Ġpar ti
ĠvÃ½stav by
Ġautom ob
Ġparkovi Å¡tÄĽ
n ovou
Ġza jÃŃmÃ¡
ĠÅ¾ il
Ġmal Ã©ho
Ġbud ov
ĠKdy by
chÃ¡ze li
Ġdo posud
Ġdo plnÄĽ
Ġod vola
Ġkla den
me zÃŃ
Ġna st
ĠlÃ¡ tek
ĠnÃ¡sledu jÃŃcÃŃch
Ġrozhod ovÃ¡nÃŃ
ĠJihla vÄĽ
Ġtu rnÃ©
Å¾ ad
ĠvÃ½ le
ĠdomÃ¡c nosti
L ÃŃ
ĠdÅ¯vod em
F in
ĠF is
Ġneexist uje
Ġpodpo ra
ĠztrÃ¡ tu
ĠnÄĽ Å¾
ĠpÅĻi Å¡ly
Ġje vi
Ġku li
Ġkoncer ty
ĠjedenÃ¡ cti
ĠVe li
TomÃ¡ Å¡
Ġuni kÃ¡tnÃŃ
Ġexist ujÃŃ
a ÄįnÃŃ
Ġfotbal ovÃ½
ĠP ou
Ġpod Ã©l
DÅ¯vod em
Ġdo klady
ĠzvÃŃtÄĽz il
Ġvy dÄĽlÃ¡
Ġmateri Ã¡lÅ¯
Å¾ eny
Ġuspo ÅĻÃ¡d
Ġna kou
de x
pad la
ĠÅ¡ vÃ½car
ĠÄį tenÃŃ
ĠbÄĽ Å¾nÄĽ
Ġnemo hla
lu vili
ĠJihla va
ku ji
Ġnebu deme
Ġmamin ka
ĠgÃ³l mana
Ġvol nÄĽ
ĠU rb
Ġode jÃŃt
si a
M O
Ġlid ov
Ġo hlÃ¡
Ġosm desÃ¡t
ĠnelÃŃ bÃŃ
ĠF u
Ġpoho dÄĽ
ĠP Ã¡
Ġkultur nÃŃho
Ġpam Ã¡tky
Ġ6 6
ĠPol ska
Ġvy Å¡la
Ġb ÅĻi
ĠvyuÅ¾ÃŃ vajÃŃ
Ġde sky
Ġbu n
Ġinternet ovÃ©
Ġko pu
Ġvlast nictvÃŃ
d on
Ġjak Ã½ch
Ġod stup
Ã© ÅĻi
Ġsoci Ã¡lnÄĽ
van Ã©ho
ĠIn g
P i
Å¾i tel
wa re
Äį nosti
Ġne stalo
d in
Ġindividu Ã¡lnÃŃ
Ġjmen uje
Ġk W
Ġletad la
te f
ch Ã©
Ġbe rou
Ġb ro
h nal
D u
ve de
ber t
Ġko ord
Ġdo j
pu stit
ĠzÃ¡pas em
g or
Ġsna ha
Ġsk al
Ġsou dÃŃ
Ġji h
ĠLondÃ½ nÄĽ
Ġdemokra tÃ©
li p
A kce
LÃ© ka
Ġvy Äįer
ĠD lou
Ġhodno ta
Äįi ce
Ġ18 0
ĠsnÃŃm ky
Ġoz broj
gra ce
Ġpostav y
ĠYor k
Äį inu
Ġdoz vÃŃ
men y
ĠpoloÄįas u
ĠmÃŃstopÅĻed se
Po Äįet
Ġvy vola
zen Ã©ho
ch la
ĠpÅĻÃŃleÅ¾ito stÃŃ
Ġtrium f
! !
re dit
ĠvÃ½znam nÃ©
ĠtÃ½dne ch
Ġa kt
ĠupÅĻes nil
at ÄĽ
Ġje t
PÅĻe devÅ¡ÃŃm
ĠdÅ¯ klad
Ġh ub
cen ÄĽ
Ġhro znÄĽ
Ġpostav il
Ġztra til
Ġdrob nÃ©
ĠmimoÅĻÃ¡d nÄĽ
J u
ĠvÃŃ tr
Ġper fekt
ĠV Ã½ch
Ġbran ce
K ni
Ġpodob nÃ©ho
Ġdemon stra
Ġsez on
ĠnepÅĻÃŃ zni
ĠvÃ½t varnÃŃ
Ġroz dÄĽli
rut nov
Po li
klÃ¡ dat
Ġpodob nÃ½ch
Ġna da
S il
Ġvl h
Ġcest ovnÃŃ
ĠZ lÃŃna
ĠvÃ½hra dnÄĽ
Ġne b
ĠÃº silÃŃ
Ġvol bami
ĠpÅĻe vez
Ġexist ence
Ġdeseti letÃŃ
Ġkni ze
ĠN av
ĠBohem ians
Ġobchod Å¯
Ġrozhod ovat
Ġinternet ovÃ½ch
Ġop il
Ġin Å¾enÃ½
ĠzÃŃskÃ¡ nÃŃ
mÃ¡ ch
Ġo stÅĻe
R U
Ġstudi um
ĠvysvÄĽt lit
ĠnovinÃ¡ ÅĻi
Ġobli Äįe
Ġj Ã¡d
vÃ¡ te
ĠodpovÄĽd nost
Ġstra nÃ¡ch
ĠneuvÄĽ ÅĻi
ĠpoÅ¾ Ã¡r
tem ati
ĠÄįÃ¡st ka
Å¡ te
Ġprove den
sp odÃ¡
ĠjÃŃz dÄĽ
Ġnez mÄĽ
Ġsv al
Ġz ato
Z dÃ¡
ov nÃ©
Ġmarket ing
ĠnatÃ¡ ÄįenÃŃ
Äįan y
b ovÃ¡
Ġm Ã½ch
ĠOlomou ce
Ġroz p
ĠM ni
ag mar
Å¯Å¾ eme
Ġuni i
I D
ĠlÃŃ dr
Ġmet ru
ĠumÄĽle ckÃ©
ĠT ÅĻ
i se
ĠnÃ¡sled ky
ĠnezamÄĽstnan osti
dÄĽ lo
Ġpr venstvÃŃ
Ġdob ou
Ġji hoÄįe
Ġmon o
pÃŃ Å¡e
ologi e
Ma jÃŃ
Ġin teg
Ġinforma ci
g re
Ġsloven skÃ©
c enÃ¡
ĠpÅĻe stÄĽh
nu li
Ġ Ã¡
ter inÃ¡
ĠNÄĽ mci
ĠÃºÄįastnÃŃ ci
ĠF oto
Ġk rev
Ġrozhod lo
bÄĽ hla
k lou
Ġho ry
Ġjak Ã©ho
Ġb ak
Ġobchod nÃŃho
no w
pis em
el d
Jak Ã½
Ġk res
jez dy
Ġda ÅĻilo
Ġo tÅĻe
Druh Ã¡
Ġhere Äįka
kup ina
chÃ¡ze la
ĠnÄĽ kam
ĠÃºspÄĽÅ¡ nÃ©
Ġni Äįem
O tÃ¡
ĠH r
so l
ĠC horvat
ĠN ik
Ġnej novÄĽ
ZE UM
Ġu kÃ¡Å¾e
Ġvyrov nÃ¡nÃŃ
Ġry t
Ġneob vy
Ġodpo Äįin
Ġchy stajÃŃ
on al
ĠÅĻÃŃ dit
ĠLe o
ĠAn na
Po prvÃ©
Ġte ore
ĠvÃ½ro bÄĽ
ĠJi ÄįÃŃn
nÄĽ me
Ġhe kt
men Ã¡
Ġs rÃ¡Å¾
ĠpovÄĽ st
ĠvÃ½ voji
fika ce
ĠBÄĽ lo
ĠvÅ¾dy Å¥
Ġk lou
lo Å¾ÃŃ
ĠHra diÅ¡tÄĽ
Ġpro po
lu s
ĠPardubi c
ĠK ali
ĠvrÃ¡ tila
Ġsou dem
ĠÅ¡est nÃ¡cti
Ġmode ly
ĠstÃ¡ lo
ĠsvÄĽt la
ĠLi dÃ©
ĠsprÃ¡ vnÃŃ
ĠT ÅĻi
ĠÄįtyÅĻi ceti
ro t
ĠsbÃŃ rky
Ġm j
Ġkoste le
ĠNÄĽme c
Ġpoz oru
ĠH ej
ĠÅ¡ tÃ¡
ĠÄĮech Å¯
Ġnejstar Å¡ÃŃ
Ġne chala
Ġpode psal
Ġtakz vanÃ©
Ġpolici sty
Ġkli mati
ĠpÅĻi jÃŃma
ĠpÅĻekvapi vÄĽ
ist ÄĽ
Pardubi ce
Ġhypo tÃ©
RA D
hlÃ© dl
re c
Ġdopl ÅĪ
Ġzna ÄįnÃ©
ĠpoÅĻada telÃ©
Ko lik
ĠvÃ½da je
Ġpoj men
ni Äįka
Ġpro dÃ¡vÃ¡
Ġne my
Ġsedm desÃ¡t
ÅĻ enÃ½ch
Ġod ÄĽ
Ġzastav il
ĠÅ¡ampion Ã¡t
ot or
Ġzna menÃŃ
ĠKo l
Ġsitua cÃŃ
f le
Ġs me
ĠprÅ¯mysl ovÃ©
Ġb l
Ġodst art
Ġfun kcÃŃ
Ġvy Å¡lo
ĠC ha
ĠS am
ĠPro to
a ci
gu e
Ġza par
ĠzmÄĽ nil
Ġslu nce
Ġrodin nÃ©
Nik dy
Ġautomati cky
Na Å¡tÄĽstÃŃ
Ġdiscip lÃŃ
it h
Ġo jedinÄĽ
Ġho ro
Ġp sÃ¡t
cen Ã½ch
ĠD ub
ĠS vit
nu tÃ©
Ġli Å¡ÃŃ
tÄĽ te
ter s
ĠobÄįan skÃ©
Ã³ z
b Ã¡m
ĠvyhlÃ¡ Å¡enÃŃ
Ġpoliti ckou
pa la
nese nÃŃ
ĠVÃ¡no ce
Ġ7 3
Pra Å¾
ĠRakou sku
ĠN ova
Ġdom luv
ĠpouÅ¾ÃŃ vajÃŃ
ĠbrÃ¡ ny
ĠpÅĻ ene
kraÄį ovÃ¡nÃŃ
ĠH en
ĠzpÄĽvÃ¡ k
T vr
ĠstÅĻet nutÃŃ
O L
Ġno si
Ġnemovito stÃŃ
ĠÅ¡pat nÃ½
Ġnes mÄĽ
ĠkaÅ¾d Ã½m
Ġdeta il
Å¾ ko
Mu sÃŃme
Ġo hlednÄĽ
Ġener gii
Ġextrali g
Ġfir mou
Ġvy mysle
ĠpÅ¯vod u
Ġbud ova
ĠSnÄĽ mov
ĠvÃ½ro ba
ĠpÅĻi le
Ġpoho n
ni Äįky
Ġli b
Ġdouf Ã¡m
Ġstudi u
Ġf rek
Ġnesta ÄįÃŃ
, "
Å¾ dÄĽ
vÅ¯ j
ĠJak o
Ġma j
teÄį nÃ¡
Ġk lÃ¡nÃŃ
d ily
Å¡ kem
ĠVa rech
Ġu stanov
z an
stÃ¡ nÃŃ
Ġe fekt
Ch tÄĽl
ĠÃºtoÄįnÃŃ ka
Ġorch est
Ġsestav y
Jen om
vr h
U P
ĠpÅĻine se
ĠpÅĻesvÄĽd Äįit
Po tÅĻe
J E
ni Å¾Å¡ÃŃ
ĠF ak
Ġu tek
Ġprvo lig
Ġseku n
zÃ¡ jem
Ġo zdob
di Å¡ti
Ġbu l
ĠarmÃ¡ da
Ġzp rÃ¡v
ĠC hu
ĠpÅĻedstav il
ov ny
ĠB lu
Ġpo hledÃ¡
Ã¡l ka
Ġsoubo ji
Ġstav bÄĽ
Ġsk li
z av
Ġvytvo ÅĻil
Ġstandar dnÃŃ
ĠpÅĻed vo
Ġv pravo
ĠNÃ¡ chod
ĠosvÄĽt lenÃŃ
Ġpovz bu
Ġmode lu
Ġpodpo ÅĻit
sk e
Ġkonstru kce
ĠpÅĻi padÃ¡
ĠprodÃ¡ vat
jÃŃ majÃŃ
den ci
Ġo hledem
Ġ6 3
Äį ina
mo ÅĻ
ĠS em
Ġvy hro
lÃŃ ka
ĠBÅĻe z
Ġreag oval
be ch
vo ÅĻÃŃ
Ġna razil
Ġri sk
t ko
Ġvyu Å¾il
Ġinfra struktu
li vost
ĠVe ro
ĠzÃ¡stup cÅ¯
Ġ6 8
ĠÃºva hu
ĠK le
z ali
ĠhrÃ¡ lo
ĠÅ¾ivo Äįi
ĠnÄĽ komu
ĠDavi da
Ġautor Å¯
Ġnej sil
Ġdr Å¾et
DalÅ¡ÃŃ m
Ġmuze u
ar da
s chop
Ġma Äıar
Ġsp ar
no hor
ĠpÅĻije li
Ġaplika ce
lÃ© t
Ry ch
Ġu Äįeb
ĠvyÅ¾ad uje
Ġpo ky
Ġja ra
Ġsta vÄĽ
Ġvzni kÃ¡
Ġpov rchu
j ka
v enÃ½
ĠJ ane
ĠBru selu
Ġ lÅ¯
Ġtra gi
ĠR at
ĠBudÄĽj ovic
Ġvy loÅ¾
ĠpÅĻÃŃspÄĽ v
Ġne dÄĽl
Ġmu sli
Ġok en
stro no
Ġstaro stka
w n
Ġauto ra
Ġv Å¡ÃŃm
ĠBa nÃŃku
ĠpÅĻe lomu
Ġvypad alo
ĠK ry
ĠzÃ¡kaz nÃŃky
Ġpoh ÅĻe
Ġnej m
Ġdobrov o
ĠvÃŃtÄĽz Å¯
Å¡ kou
Ġvyso ce
ĠhrÃ¡Äį Å¯m
l nÃ©
ÄįtÄĽ jÅ¡ÃŃ
Ġtvor by
ĠpÅĻi dÃ¡
ĠPra hu
lik vi
es s
ĠvaÅ¡e ho
ĠÄįtenÃ¡ ÅĻi
Ġmz dy
ĠzÃ¡leÅ¾ito sti
li am
Ne u
Ġarchi te
ĠvÃ½ no
S port
Ġdo ty
Ġod le
ĠtÄĽ les
lÃŃ Äįek
Ġvyvr cho
Ġnepla tÃŃ
Ġobjev ily
an em
Pro jekt
Ġko li
nÄĽ nÃ©ho
mÄĽ jÅ¡ÃŃ
Ġfakul ty
rov anÃ©
ĠkÅ¯ Å¾i
L a
ĠDo le
ku l
ĠKa Å¡
la cÃŃ
ĠzÅĻej mÃ©
ĠnÃ¡vÅ¡tÄĽ vy
ak ce
Ġo chut
ĠÅ¡pi Äį
ĠKar vin
pou Å¡tÄĽ
ĠdÃŃ vka
Ġi s
Ġmar nÄĽ
ĠsystÃ©m em
Ġvybra l
ĠMar kÃ©
ÄĮ ÃŃ
Ġza sah
Sou Äįas
Ġu na
ĠE r
ĠKa ro
ĠzahÃ¡ jÃŃ
nÄĽ ny
Ġh ov
Å¯ r
Ġjin Ã½mi
ĠPolici e
Ġbaz Ã©nu
nÄĽ nou
la ÄįnÃŃ
ĠtrÃ©nin k
ĠzÃ¡kon Å¯
Ġhost ovÃ¡nÃŃ
Ġcel ky
Ġkomb inaci
stÃ¡ nu
ĠvÃ½ hodu
Ġfor my
ĠdospÄĽ lÃ©
Ġinve sto
Ġdne ska
m p
ĠV rch
ĠI V
Ġl Å¾i
Ġne dÅ¯
f ÃŃ
ĠmÃŃst nÃŃho
Ġch a
hod il
Ġsedm nÃ¡ct
ĠSch war
ĠdneÅ¡ nÃŃm
Ġf avori
ĠV Ã¡m
Ġmo zku
ĠJ ÃŃ
Åĺe ditel
M E
Ġni komu
Ġvi ce
am eri
ĠMicha la
P enÃŃze
hra du
bo o
ĠPohÃ¡ ru
Ġobjem u
ĠNe Äįas
l Ã½mi
qu e
stav y
Ġpo bÃŃ
Ġod vÄĽt
ĠLi gy
ĠvÃ½ stup
ation al
Ġby zny
Ġc u
Ġsm luv
j Å¯
Ġkontak tu
VÅ¡e chno
ovi Äį
ĠuÅ¾ it
Ġdi ag
Ġ7 00
ali zaci
Ġveli tel
ĠzÃ¡ vaÅ¾
ka nÄĽ
Ġporov nÃ¡nÃŃ
Ġpostav ÃŃ
Ã¡n skÃ©
Ġzaji Å¡tÄĽ
lÃ¡ nÃŃm
Ġdopl nila
la datel
di kt
Ġopak ovanÄĽ
ĠSt ÅĻednÃŃ
ĠS en
Ch ceme
ÃºÄįa stnÃŃ
ĠvÄĽtÅ¡ÃŃ ch
zra e
ĠB ob
nÃŃ mu
ĠnejvÃ½ znam
ĠdÄĽj in
Ġtla ku
Ġpara dox
Ġod va
ĠjÃŃz du
Ġma g
ĠÅĻÃŃkÃ¡ m
Fot bal
Ġjedno tek
ĠS O
ĠÃºspÄĽÅ¡ nÃ½
pÃ¡d nÄĽ
Ne dÃ¡
Ġro py
Ġvr st
Ġdo dat
l s
g res
hod nÃ½
H asi
ĠpÅĻedse dou
Ġna krÃ¡
ĠDo lnÃŃ
T Ã½m
ĠbÃ½val Ã½ch
ĠnesmÃŃ rnÄĽ
Ġp Ã¡tku
Ġpok rÃ½
Ġv it
ĠSt Ã¡tnÃŃ
Ġbez plat
Ġin teli
Ġher ci
ĠkrÃ¡de Å¾e
ĠÃº tÄĽ
Leto Å¡nÃŃ
Ġchy ba
ĠÅ¡ir Å¡ÃŃ
an ka
nou cÃŃ
ĠU nie
E xist
Vy so
Ġpozem ku
ĠnÄĽjak Ã½m
Ġbr z
se li
Ġo ÄįÃŃ
Z na
Ġori ent
ĠdÅ¯leÅ¾it Ã¡
ĠpÅĻedmÄĽ ty
Ġa ero
ĠpÅĻeno s
ovan Ã½mi
ĠtÅĻÃŃ d
Ġsam Ã©
Ġkraj skÃ½ch
Ġdlu h
Ġlev nÄĽjÅ¡ÃŃ
ĠhÃ¡ zen
Ġcharak ter
Ġrefor my
ĠnejrÅ¯z nÄĽjÅ¡ÃŃ
Mo de
ĠreÅ¾is Ã©ra
ĠvÃ¡ Å¾nÃ©
ĠJi Å¾nÃŃ
ĠS r
Ġinvest ovat
ÅĪ Ã¡k
Ġprodu ktÅ¯
Rad nice
Ġprodu kty
Ġspo lÃ©
Ġrozhla su
Ġpoci ty
Ġha va
Ġno hou
ĠloÅĪ skÃ½
Ġpo platek
Ġpa rÃ¡
Ġotev ÅĻÃŃt
Ġpod al
ĠT am
ĠzÃ¡vÄĽre ÄįnÃ©
b ru
ĠI zrae
E vrop
ĠdÄĽt skÃ½ch
ĠnÄĽme ckÃ½ch
p sÃ¡
Ġod pole
p p
j nÄĽ
sp ort
B O
Äį te
ĠAu strÃ¡
ĠvÅ¯ dce
Ġorgani zaci
ĠD ol
Ġfak tor
Ġevrop skÃ©ho
ĠN ovo
od ob
ĠDV D
Äį ovat
ĠsprÃ¡v ce
Ġtvr d
nÃ¡m it
ovacÃŃ ho
m itu
Ġosob nÃŃho
ĠÅ¾Ã¡ dÃ¡
Hod nÄĽ
ĠNej vyÅ¡Å¡ÃŃ
Ġinvesti c
ĠSpar tÄĽ
Ġbole st
sti cky
Ġkuchy nÄĽ
ĠotevÅĻ enÃ©
Ġk ino
ĠpÅĻiprav ila
Ġtren d
ĠnÃ¡ stroje
Ġz ub
ĠStÅĻedo Äįe
Ġrezer va
in ovÃ¡
Ġst aly
Hra dec
ĠsystÃ©m Å¯
Ġjazy k
Ġlo Äı
ĠB ud
Ã¡ lem
Ġt ru
ĠL ho
Ġlit rÅ¯
ĠstÅĻe lou
Ġja zz
ĠnÄĽjak Ã©ho
ĠA m
Ġnasa zenÃŃ
Ġt atÃŃ
ĠsnÃŃ Å¾il
Ġzpro stÅĻed
Ġbo x
Ġsig nÃ¡
as a
ĠÃºvÄĽ r
Ġnahra dit
chÃ¡ me
ĠpÅĻev zal
Ġroz poru
Ġan ony
Ġkampa nÄĽ
Ġu ÄįÃŃ
ĠK do
Ġkole govÃ©
Ġh rou
ĠvybÃŃ rat
ĠrÅ¯ Å¾
ĠKlat ov
kÃ¡ n
Ġv dÄĽ
vÃ¡ t
Ġmana gem
ĠvyjÃ¡d ÅĻit
ĠDÄĽ ÄįÃŃn
S par
ĠÃºÅĻad Å¯
ĠL Ã©
Ġde tek
Ġvzpo mÃŃ
ĠdÅ¯vÄĽ ry
dÄĽ ly
kti ve
Ġs Ã¡l
ĠzajÃŃmav Ã½
ĠC hod
Ġf ra
Ġv nu
Ġod su
Ġpora den
ĠvÃ¡ mi
ĠC or
mÄĽ t
ĠtÅĻet inu
ĠmezinÃ¡rodnÃŃ ho
Ġb er
ĠÃºspÄĽ chy
minu t
ĠÄįin i
k ovali
ĠC up
ĠzvÃ½ Å¡ÃŃ
Ġso cha
Ġne dÄĽlnÃŃ
on g
Ġpo kaÅ¾dÃ©
ĠbÃ½ vajÃŃ
By li
Ġkvali ta
j n
Pod ÃŃ
ĠvÃ¡l ka
ĠmlÃ© ka
ĠtvÃ¡ ÅĻe
kl Ã½
Ġro h
Ġznamen alo
Ġp av
ĠpÅĻedstav ujÃŃ
to p
poÄį tu
Ġprou du
se nÃŃ
Ġb li
Ġpodnika tele
ĠjÃŃ dla
ĠE li
Ġli nky
ĠM inister
Ġle vi
ĠnÃŃm Å¾
Ġvla k
nÃŃ na
Ġmod rÃ©
en s
Ġkon tin
hÃ¡ ch
Sou d
Ġnes chop
Åł Ãį
Ġukra dl
ĠÄįaso pisu
ba va
t an
Ġin stal
ĠJ sou
ly e
OV ICE
ĠP ale
ĠmÃŃ ÅĻe
ĠS R
Ġe konom
Ġpresti Å¾nÃŃ
ĠMilo Å¡e
lÃŃ ky
Olomou c
B ER
Ġobchod y
ÄĮ R
ĠbÅĻe hu
Ġvzdu ch
ĠkancelÃ¡ ÅĻ
Ġt mav
Ġpo hro
ĠodpovÄĽ di
Ġfavor it
ĠtÃ½ dnÄĽ
ĠzpÄĽva Äįka
Ġsportov nÃŃch
M inu
Ġkone ÄįnÃ©
Ġzahra je
Äį eni
ÅĪ ovÃ©
Ġs my
ÄįÃŃ st
Ġlet ou
ĠpoÅ¡ko zenÃŃ
Ġkla vÃŃ
Ġkou pil
in ku
Ġde fen
ĠPÅĻÃŃbra mi
Ġreag ovat
Ġkli enty
Ġvlast nosti
len ka
Ġhle dajÃŃ
ĠvstÅĻe lil
Ġte pla
ĠsvÄĽt ovÃ½
ĠUni verz
ĠpovaÅ¾ ujÃŃ
Ġdota cÃŃ
ĠsezÃ³ ny
ĠpÅĻÃŃ stupu
Ġden nÃŃ
ĠÅĻe Äįi
Ġbav it
Ġproz atÃŃm
ĠW a
Ġbasket bal
Ġau tÄĽ
ÅĻÃŃ Äį
Ġmuse ly
Ġpu k
Ġseri Ã¡l
se a
Nej d
av e
F e
Ġin te
ĠzpÅ¯sob u
Ġdlou hÃ½
ĠS tÃ¡
ortu gal
Ġdra h
Ġsk ry
Ġnut no
Ġrizi ka
Ġroz dÄĽle
ĠdneÅ¡ nÃŃho
ĠpÅĻe je
Å¥ an
Ġz kon
Ġje ze
as u
Ġne tr
po klÃ¡dÃ¡
ĠpÅĻiprav ujÃŃ
ĠjejÃŃm Å¾
Ġpart nera
Ġdokon ÄįenÃŃ
ĠnabÃŃ dce
Ġdobrod ru
Ġtra sy
Ġ201 4
Ġten hle
Ġstar Ã©ho
ĠnejlepÅ¡ÃŃ ho
ĠKrej ÄįÃŃ
Ġdeva desÃ¡tÃ½ch
Ġ1 30
Ġhodin ou
ĠsoupeÅĻe m
o ra
ĠnÃŃz kÃ©
Ġdy nami
ta j
ĠG ar
ĠP ÄĽ
ĠP RAHA
ni sÃ¡
ĠK ÅĻe
ĠJ itka
Å¡ enÄĽ
Ġpohot ovo
ĠM ed
Ġzem ÅĻe
Ġrych lostÃŃ
Ġkole ga
Ġko s
ĠnÃ¡ kupu
Ġin stru
tÃ¡ Å¾
Ġob jas
Ġbrit skÃ©
Ġvy me
Ġporu Å¡enÃŃ
Ġje likoÅ¾
o stÃŃ
Ġs mÅ¯
ĠP or
ĠmÃŃst nÃŃm
Ġde kla
ĠVysoÄį ina
ĠvÃ½ stavÄĽ
ĠM or
Ġ6 7
ĠmÃ¡ lem
Ġtrest nÃ©
ĠÄįe skobudÄĽjovi
ĠB lesku
Ġobje vili
Å¾ÃŃ vajÃŃ
Ġdo hodu
ĠzemÄĽdÄĽl skÃ©
Ġdigit Ã¡lnÃŃ
Ġto le
Ġu rych
Ġjemu Å¾
Ġza pÃ¡
Ġh al
ĠzdÃ¡ lo
E FA
Ġjed ou
ĠD agmar
Ġvol no
ĠNe ch
sle nÃŃ
ĠÄįe la
Ġrece p
ĠznÃ¡ mÃ¡
ĠÅ¾Ã¡ dostÃŃ
ĠgymnÃ¡zi a
Ġex pozi
Ġameri ckÃ¡
Ġbo jÃŃ
ĠAmeri ky
VÄĽ ÅĻÃŃm
ĠnabÃŃ dl
r ti
tej ner
Ġz ÅĻe
Ġvy dÃ¡vÃ¡
ĠAle na
Ġge o
Ġpro bu
Ġvy vo
ĠVa len
Ġse hnat
ĠpÅĻe stav
es pe
lÃ¡ m
Ġspokoj eni
Ġk ore
ĠsmÄĽ je
komu nika
Ġdva cÃ¡t
T ro
Ġja ro
z ÅĻej
ĠEvrop skÃ¡
Ġobchod nÃŃch
Ġb rej
Ġz ane
Ġpar ty
bi o
Ġ9 9
ĠP ek
lÃ© ze
Ġb Ã©
ĠMi cro
Ġko mo
Ġp il
Ġzat ÃŃ
Ġzd Å¯vod
Ġreprezen taci
Ġdra Å¾Å¡ÃŃ
ĠvÃ½ cvi
sob nÄĽ
ĠcÃŃ tit
ven ce
Ġminu tu
ĠpÅĻipo jenÃŃ
ĠnÄĽk terÃ¡
s lou
ra ÄįnÃŃ
ĠtÅĻinÃ¡ cti
Å¾ enÄĽ
Ġma temati
M luv
Au to
ĠPaÅĻÃŃ Å¾i
CÃŃ lem
r nÃŃch
Ġtechni ckÃ½ch
Ġtvr dÄĽ
Ġmetro pole
ĠpÅĻed chÅ¯
Ġ1 000
Ġs dru
Z P
p lik
PÅĻi prav
Ġny nÄĽjÅ¡ÃŃ
ĠS c
ĠÃºÅĻednÃŃ ci
ĠÄįin nostÃŃ
Å¡ ena
ĠkaÅ¾d oden
ĠztrÃ¡ cÃŃ
Ġp un
Ġza stÅĻe
nÃ¡ ÅĻe
Ġkvalifika ci
Ġmedi cÃŃ
Ġsklad by
Ġ Ã
Ġsmlou vÄĽ
ĠKla use
kÃ¡ Å¾ÃŃ
Ġpru d
Ġve terinÃ¡
Ġvytvo ÅĻili
Ġkari Ã©ÅĻe
Ġs um
Ġpo sto
pi se
Ġdoku menty
ĠGeor ge
ĠS ig
ĠT ho
Ġsp oru
poz dÄĽji
tel Å¯m
ĠpÅĻiprav ena
to sti
Ġter Ã©n
Ġdo hodÄĽ
Ġmysle t
d rav
ĠCho mut
ĠmÄĽsÃŃ ÄįnÃŃ
ĠpÅĻe chodu
ob e
Ġh i
n s
st anou
Ġpo ly
ke ji
ĠC H
Äįen ou
ĠpÅĻÃŃ stroje
il la
ĠpÅĻe prav
si e
Ġty py
Ġk Ã½
ĠpÅĻi lÃ¡
Ä İ
Ġpo hla
ĠvÃ½ vo
Ġpod at
Ġposla ne
ma il
chÃ¡ nÃŃ
ĠstÅĻe lu
ĠkrÃ¡ le
ĠrÃ¡ nu
he ÅĪ
Ġneva dÃŃ
ÅĻ Ã¡t
d Å¾
VÃ¡ clav
h uje
Ġfilm ovÃ©
da va
Ġpa mÃ¡
S itua
ĠpenÄĽ Å¾en
Ġin fek
ĠstrÃ¡ nek
Å½ Ã¡
ĠvyrÃ¡ bÃŃ
ĠdÅ¯ chodu
ĠÅ¡et ÅĻenÃŃ
t rÃ¡
z lo
ĠkandidÃ¡ t
ĠCh eb
Ġpoko je
ĠvÄĽ k
ĠmenÅ¡ÃŃ ch
Jo sef
ĠpomÄĽ ru
ĠvÄĽn oval
pla tÃŃ
ĠdosÃ¡ hla
ĠK ru
ĠB ude
Ġpr ince
jÃŃma vÄĽjÅ¡ÃŃ
Ġpam at
Ġvyp lÃ¡
Ġ9 00
Ġorg Ã¡ny
Ġkilo met
Äį at
EN T
ĠokamÅ¾i k
ĠkaÅ¾dÃ© mu
Ġob ran
ĠC an
Ġma li
Ġs otva
Ġpr ovi
Ġm lÃ½
li vÃ¡
N D
Ġfa u
ĠvyÅ¾ Ã¡
ps ali
p lav
zen i
sud ku
Ġnakladatel stvÃŃ
MÅ¯Å¾e te
h ovÃ¡
Ġa rab
o g
ĠlÃ¡ zeÅĪ
Ġsk and
Ġvzni kne
Ġu l
di ci
Ġky tar
ĠpÅĻine sla
ĠÃºÄį tu
li ly
Ġpora dce
ĠvÃ½ hody
Ġsto py
N Ãī
Äį oval
ĠmyÅ¡len ky
ÅĪ skÃ©
ĠvÃŃ te
ĠS chu
ĠAt lan
ĠTÅĻe bÃŃ
Ġpo mÄĽr
ĠspoÄįÃŃ vÃ¡
Ä ¾
B rit
er s
fi kov
ĠdostÃ¡ vajÃŃ
Ġdopl ÅĪuje
ĠAf ghÃ¡
Ġb ene
Ġatmosf Ã©ra
Ġst ali
ÄĮ Ãį
ĠSt ÅĻÃŃ
D en
ov skÃ©ho
ĠTen to
ĠdÃ¡l nici
ĠzÃ¡leÅ¾ito stÃŃ
ĠSed lÃ¡
pe ÄįnÄĽ
Ġvaz by
Ġvy razil
Ġoslav y
m lu
di ca
Ġrychle ji
Ġzna jÃŃ
Ġvybud ovat
ĠtÃ½ kajÃŃcÃŃ
ĠJablo nec
ĠParou bek
Ġu se
blo ne
ĠLo s
Ġtrest nÃ½
ĠMÄĽst skÃ©
Ġcuk rov
ÄĮa sto
ĠS Ã¡
Ġostat nÃŃm
Ġamat Ã©r
ĠZ A
Ġzi ma
ĠpoÄį Ã¡tkem
Ġsil nÄĽjÅ¡ÃŃ
Ġbran kou
PÅĻed seda
Ġvy bran
ĠpÄĽ ve
ĠÅĻedi telem
Ġs l
Ġpoz n
Ġp isto
Ġaktiv nÄĽ
ĠzÃ¡ vodech
r il
ĠmezinÃ¡rodnÃŃ ch
Ġrespe ktive
ĠM ist
Ġorigin Ã¡lnÃŃ
ĠMi ch
Ġzu by
Ġpo cti
Ġvy dala
Ġob sadil
ĠSt av
ĠpÅĻedstav u
Ġpla st
Ġfrancouz skÃ©
ĠÄįtenÃ¡ ÅĻÅ¯
ĠChrudi m
Ġod ol
Ġup ÅĻÃŃm
Ġs f
ĠE gy
Ġc on
Ġnastav enÃŃ
ori a
Ġsmr tÃŃ
Ġbez mÃ¡la
Ġno s
d oval
ch ova
Ġobjev ujÃŃ
od u
Ġzabezpe ÄįenÃŃ
Ġod mÃŃ
pu stÃŃ
su dek
Ġkvalifika ce
Ġv adÃŃ
V ol
F K
ÄĮ lovÄĽk
ĠÂ °
Ġvozi dlo
ĠBy la
Ġjist Ã½
Ġcuk ru
Ġmin e
ĠCu pu
ĠH us
Ġplay off
Ġu Äįit
Ġmysle l
ĠdÅ¯vÄĽ ru
ĠpÅĻij mout
ĠpamÃ¡ tek
hÃ¡ nÄĽ
ĠPra chati
na r
Ġf ale
od Ã¡r
Ġza mÃŃt
Ġnej ÃºspÄĽÅ¡
Ġkou pi
Ġnik de
ul t
Ġb lu
Ġzku Å¡e
ĠmÃŃ nÄĽnÃŃ
Ġfede race
ĠP R
Ġpubliku m
ĠdÅĻÃŃ vÄĽjÅ¡ÃŃ
Ġse x
Ġz ma
Ġmuzi kÃ¡
ĠÄįist Ã©
Ġfunkci onÃ¡
ĠPospÃŃ Å¡il
Ġo pi
Ġnemo hu
Ġpat ÅĻit
kovi cÃŃch
Ġkou pÃŃ
ĠR en
ĠÃº dolÃŃ
ĠsÃŃ dlÃŃ
zem nÃŃ
Ġkou Äįe
ĠpÅĻiblÃŃ Å¾il
Ġroz li
Ġinstitu cÃŃ
ĠoznÃ¡ mila
K D
ĠsloÅ¾it Ã©
Ġrod inou
Ġpro ud
Ġznamen at
Ġfot ba
Ġnejen om
le no
ĠRakou ska
ĠÃºÄįe l
pÄĽ nÃŃ
Ġpro ni
Ġboj ov
Ġjak oby
Ġm ezinÃ¡
Ġpoje de
Ġrepubli ku
Ġro hu
Ġrodin nÃ½ch
Ġvolej bal
ali z
Ġly Å¾ovÃ¡nÃŃ
E J
Ġzahr nuje
Ġzji Å¡tÄĽnÃŃ
o Å¾
tÃŃ n
Ġsle duje
sad ÃŃ
Ġvybud ovÃ¡nÃŃ
ĠoblÃŃb enÃ©
S k
ĠCh ceme
Ġab s
ĠtÄĽÅ¾ kÃ½
DivÃ¡ ci
Ġhodno t
Ġvznik nout
at Ã½
ĠÅł ÃŃ
ĠA rg
Ġp sÅ¯
Ġsvobod u
ĠPo li
Ġpy t
ĠG er
va teli
ĠoddÃŃ lu
Ġciga re
DO WNLOAD
ĠdalÅ¡ÃŃ mu
Ġ Ãį
Ġst rojÅ¯
Ġaltern ati
ĠvÄĽt Å¡ÃŃm
Ġobje kty
m ovÃ©
Ġbet on
Ġdce ru
Ġdoporu ÄįenÃŃ
ÅĻin ec
ĠpÃŃ sk
Ġvy jÃŃÅ¾
Ġpro sÃŃm
Ġv ad
pl Ã½vÃ¡
Ġuve de
ĠJak u
le ra
Ġslu Å¡
Ġof en
nÃ© st
ĠpÅ¯lno ci
vÄĽ r
C eny
Ġpop sala
Äį nÄĽjÅ¡ÃŃ
R ak
Ġ16 0
Ġpro poj
v la
na jÃŃcÃŃ
en ka
Äį ujÃŃcÃŃ
L OV
roz enÃ©
Ġi slÃ¡
t s
ĠpotÅĻe tÃŃ
ĠvrÃ¡ tili
Ġkr ku
Ġvol nÃ©ho
Ġho dÃŃ
mr tÃŃ
pu st
Ġs Ã½
Ġturi sty
ĠÅĻÃŃ kat
Tak ovÃ½
Ġ ÅĻ
ro ni
Ġmonit or
ĠG roup
Ġten krÃ¡t
ÃŃ k
Ġstanovi sko
Ġkom or
BÃ½val Ã½
ĠporÃ¡Å¾ ku
Ġod v
me l
ĠvÄĽ ÅĻit
ĠpÅĻÃŃ mÃ©
Ġsoukrom Ã½ch
Ġobec nÃŃ
Ġpro Å¡el
ĠM in
M U
Ġin ci
Ġosu du
enÃ¡ m
ĠÅ¡i kov
ĠÅł pa
Ġopozi ÄįnÃŃ
e p
IN A
ĠS ad
ÄĽ bra
ĠlÃ© Äįi
ĠÅĻeditel stvÃŃ
di Å¡Å¥
sch e
Ġkom pe
w y
ĠH it
bÃŃ rÃ¡
Ġrych lo
Ġinvest or
Ġvylou ÄįenÃŃ
ĠlÃ©ka ÅĻskÃ©
Ġza vr
ĠobÄĽ ti
Ġserver u
ran Å¾
ĠvytvÃ¡ ÅĻÃŃ
ĠÄįas y
Ġnedo kÃ¡zal
Ġm ob
ĠdomnÃŃ vÃ¡
ĠzakÃ¡ zky
ĠP ut
Do ma
Ġk em
Ġleti Å¡ti
ĠzÃ¡chran nÃ©
log Å¯
ĠK as
ĠÃº tu
stÄĽ jÅ¡ÃŃ
Ġprodu kt
ÅĻe z
Ġmagist rÃ¡t
ĠsÃŃ la
li s
Ġdo sah
ĠPo slane
ĠtÄĽlo cvi
ĠsouÄįÃ¡ st
ĠtÄĽm to
Ġnej niÅ¾Å¡ÃŃ
ĠEvro pa
ĠpÅ¯sob it
Ġz vÄĽd
t ÅĻÃŃ
ĠÄĮÃŃ nÄĽ
est er
klÃ¡ dÃ¡nÃŃ
j an
Ġpro mÃŃt
ĠPÃŃ sku
Ġnevi dÄĽl
st ri
ĠÅ¡ ta
ĠmanÅ¾el kou
Ġpolicej nÃŃho
Ġvy drÅ¾ÃŃ
Ġte pel
ĠM E
Ġkapit Ã¡l
Ġkon tejner
ly wood
Ġovliv nit
Ġsnad nÃ©
y e
Ġznalo sti
Ġzaslou Å¾ÃŃ
ĠpÅĻin Ã©st
LA D
Ġse stra
ĠC hy
Ġst Å¯l
Ġkab in
pÃ¡ ch
Ġpl nou
ĠÅ¾ ada
Ġper spe
Ġori en
Ġstej nÃ½m
ĠnemÄĽ ly
Ġz bÃ½vÃ¡
ĠI P
Ġle g
Ġpoz nÃ¡m
ĠtÅĻet ina
Za ÄįÃ¡tek
ĠMorav skoslez
Ġzele nÃ½ch
Ġnemoc nic
ĠB on
Ġ196 8
ĠPro Äį
Ġne dal
Ġpoh ÅĻ
Ġna Å¡ÃŃm
ĠgenerÃ¡l nÃŃho
ĠT er
Ġvo lit
zna li
ĠkandidÃ¡ tÅ¯
Ġvyp ovÃŃ
ĠhrÃ¡ Äįem
Tak ovÃ©
ĠP en
Ġka ret
hÃ¡ m
Ġz vÃ¡
NÃ¡vÅ¡tÄĽ vnÃŃci
zÃ¡ pad
ĠlÃ¡ ka
ĠzajiÅ¡Å¥ uje
Ġhokeji stÅ¯
Ġti p
ĠR O
ĠmÃŃ sty
Ãļ stÃŃ
ĠÅ¾iv nost
ĠzamÄĽstna vatel
Ġpro sadil
Ġob ÅĻÃŃ
va Å¾uje
ĠnejrÅ¯z nÄĽjÅ¡ÃŃch
ina cÃŃ
ce ch
ĠsmÃŃ ch
nÄĽ no
mu jÃŃ
li govÃ©
Ġk atoli
ĠÅ¡e stÃ©
Ġstrate gi
Tu to
Ġsoci Ã¡lnÃŃho
ĠTe Äı
Ġkoali ÄįnÃŃ
Ġza znÃŃ
ra m
ĠOld ÅĻich
Ġane b
Ġp ek
ĠcÃŃr kve
ĠÄįerv enÃ©
Ġpr ovÃ©st
atÅĻi cetiletÃ½
Ġskon Äįili
ĠvÄĽ dci
Ġmaxi mum
Ġkon to
Ġse da
Ġg o
ĠpÅĻÃŃÄį inou
ĠvÄĽ dÄĽli
Ġpaci enty
A B
ĠpomÃ¡ hat
ĠA Å¾
ov kÃ¡ch
Ġustanov enÃŃ
ĠD Ã¡n
P L
ĠbÄĽ Å¾ÃŃ
Ġdra ma
ĠpÅĻi jÃŃmÃ¡
Ġmedi Ã¡lnÃŃ
Ġkilogra mÅ¯
Ġod nesl
F ilm
S O
ĠzachrÃ¡ nit
ĠÅ¡iro kÃ©
Ostat nÃŃ
ĠtrÃ©n ovat
ĠskvÄĽ lÃ½
Ġuplynu lÃ½ch
Ġopu stit
ZÃ¡ kladnÃŃ
Ġkoment oval
Ġvy spÄĽ
ĠC la
ZÃ¡ vod
Ġosob u
liÅ¡ ti
ĠI N
Ġmetro poli
har mo
ĠdospÄĽ lÃ½ch
Ġsam y
Ġh it
Ġsuper mar
ÅĻ uje
Ġle vÃ©
Ġvy ÅĻÃŃ
ĠzÃ³ ny
Ġsaz by
Ġmi min
ĠbÄĽ Å¾e
Äį inÄĽ
Ġza mil
Å¾ nÄĽjÅ¡ÃŃ
ĠBan k
Ġnedo kÃ¡zali
ĠdaÅĪ ovÃ©
Ãģ L
Ġcho ro
Ġkultur nÃŃch
ĠÅ¾ivo tem
Ġty Äį
Ġz ro
teÄį nou
sk l
ĠÅ¾ enÄĽ
hro zÃŃ
povÄĽ Äı
Ġlo ndÃ½
Ġnep romÄĽ
RA V
od r
c lÃ©
ĠÄįer pa
Ġhum an
ĠÅłtÄĽ pÃ¡
ze tÃŃ
ĠD va
ĠpÅĻÃŃ lo
Ġtex ty
Ã³ zy
ĠvÄįe rej
Ġba rok
ĠmÃ³ dnÃŃ
Ġproje d
Ġpoz adÃŃ
ĠtrenÃ© rem
Ġz likvi
Ġi rÃ¡
ÅĪ ka
Ġs met
Ġko sme
Ġstaveb nÃŃch
ĠzÃ¡ sahu
Ġp eri
sk ovÃ¡
Ġnej ob
razi lo
Ġsna hu
Ġdi e
Ġre vi
ĠjÃŃz da
Ġplu s
ĠProchÃ¡ zka
ĠÃº prav
Ġjed nalo
rch i
Ġprivati zace
ĠT ri
g h
ĠÄį oko
dÃŃ te
Ġosla benÃŃ
Ġkan on
p an
ĠreÅ¾i i
ĠZuz ana
M il
Ġvyu Å¾it
Ġs hodu
av Ã½
Å¡ eno
Ġk Å¯Å¾e
ĠpapÃŃ r
ĠBar celo
ĠL es
Ġch le
st Ã¡t
Ġsp rin
Ġ7 6
Mu sÃŃm
Ġz kom
ĠzÅ¯st aly
s pi
Ġpracovi Å¡tÄĽ
ÅĻ skou
bi e
Ġzaji stÃŃ
ĠMla dÃ¡
tÃ¡ n
Ġcen nÃ©
Ġnav zdory
ĠHa Å¡ek
Ġvy slech
Ġe leg
Ġdo kÃ¡zala
To hle
Ġdata bÃ¡
Ġv nit
fi e
Åĺidi Äį
mÃ¡ n
B ar
ĠpÅĻÃŃ stroj
ĠplzeÅĪ skÃ©
ĠT el
ĠprÅ¯zku m
bra li
ĠU EFA
Ġsvo jÃŃ
vÃŃ k
cti on
ĠgÃ³ lem
Ġkultur nÃŃm
Ġlisto pad
ĠnemÅ¯Å¾ u
Ġstej nÃ¡
ĠstÅĻe lec
ali stÃ©
chyb nÄĽ
Ġzastupitel stvo
Åĺ I
ĠveÄįer nÃŃ
ĠÅ¡ per
Ġb ed
prÃ¡ vnÃŃ
ĠstÅĻe chy
ÄĮe sko
Ġzlep Å¡it
Ġzlo men
ĠRa dy
Bu dou
Ġ6 9
ĠS druÅ¾enÃŃ
ĠH al
ĠzÃ¡va z
ĠVÃ½ stava
ĠneÄįe kanÄĽ
Ġtelefon nÃŃ
T V
rov er
Ġozna ÄįenÃŃ
T he
ĠpÅĻiprav eni
Ġelektri ckÃ©
z nak
ĠÅ¾en ou
Ġce rti
Ne Å¾
ĠvÃ½rob ci
ĠpÅĻij al
sla n
ĠMi lana
Ne do
Ġso kolov
Ġmluv il
b ky
Ġc Ã©
Ġleh kÃ©
Ġtla kem
Ġne bÃ½
Ġu de
ĠR um
Ġsedm nÃ¡cti
po mÃŃn
ĠdÅĻe vo
Ġg alerii
Ġtvor bu
pe ÅĪ
ĠtÄĽ Å¡ÃŃm
ĠÄįlovÄĽ ku
ĠstrÃ¡v il
7 5
ĠrÅ¯z nÃ½mi
Ġte sty
G A
t nÄĽjÅ¡ÃŃ
Ġze lenÃ©
P R
Ġnep oved
Å¡ÃŃ k
Ġs mu
ĠslÃŃ bil
Ġuva Å¾uje
ĠÅ¡ lech
at Ã¡
Ġpotrav iny
Ġkdyby ch
Ġher nÃŃ
Ġseku nd
Å½ ena
N OV
ĠÃºrov nÄĽ
Ġnarozen iny
lin ton
Ġd nem
do mov
ĠMÄĽ l
ĠspoleÄįen stvÃŃ
Ġh rob
Ġdce ry
ĠzvlÃ¡d nout
ĠlÃ¡ kÃ¡
ĠTÅĻe bÃŃÄį
ĠK i
ĠdÃ¡ v
Ġnebo li
P RO
ĠvÃ½ Å¡ky
Ġnau Äįit
gra ci
ĠJ de
ĠG ru
ĠtÄĽmi to
ĠudÄĽla la
g na
ro stu
zi vnÄĽ
ĠM ir
Ġzby teÄįnÃ©
te rÃ¡n
ĠJa ck
Ġpoji st
SK Ãģ
Ġexist enci
ky ni
ĠplÃ¡ t
Ġtechni ku
Ġse ktoru
Jak mile
ĠMilo slav
y s
ĠdÃŃl ny
stupu jÃŃ
I ST
ri s
Ġne prav
Ġpobo Äįky
Å¾e bnÃŃ
ĠRo Å¾
ĠÄĮe skÃ©m
ch vÃ¡
Ġbud ovu
O rgani
Ġvra Å¾dy
kov Ã½mi
Ġokol nÃŃch
ĠKo pe
Ġsamo sp
vis lÃ©
ĠI tal
ĠdÃ¡ rek
Ġrostou cÃŃ
ĠJÃ¡ gr
Ġpo ne
ĠW i
c al
dÄĽ nÃ©
nÃ¡ Å¡ÃŃ
bur ku
m ber
ĠzÃ¡ da
Ġos mÃ©
ĠzkuÅ¡ enÃ½
ĠÃº mysl
T ur
Ġpro mile
Ġnejd ÅĻÃŃv
Ġroz v
ĠÃºto ky
ĠK ore
ĠVÃ¡ s
ĠlÃ¡ ska
Ġpos lÃ©ze
ĠmlÃ¡ dÃŃ
Å¡ko lÃ¡
Ġpohyb ovat
klÃ¡ dajÃŃ
zÃŃ n
ĠI zrael
Ġ11 0
Ġto p
Ġvz ala
Ġinspe kce
Ġne dÄĽlÃ¡
ĠmÅ¯Å¾ ou
ĠpamÄĽ tnÃŃ
ĠstrÃ¡Å¾ nÃŃkÅ¯
Ġautobu sy
Re Å¾i
Ġduch ovnÃŃ
Ġmeto dy
Ġdeva desÃ¡t
ĠpÅĻi pustil
ĠhrÃ¡ Äįky
Ãļ Äįa
Ġtechni ka
Ġvybra li
ko ra
Ġnechy bÄĽ
Ġu blÃŃ
Ġnemovito sti
ount ry
Ġm Å¯
ĠveÅ¡ ke
Ġne zi
k ilo
Ġjin dy
Ġuved enÃ©
ĠÃº na
a cÃŃ
Nez a
Ġz jednodu
ĠVlasti mil
ÄĮ tvr
Ġvyrov nal
Ġpe vnÄĽ
Ġautomobil u
ĠH lin
Ġdo ru
Ġli nku
Ġtitu ly
ĠKaÅ¾ dÃ½
ĠA C
Ġtva ru
Ġzaznamen al
TÃ© mÄĽÅĻ
H istori
Ne po
ÅĻi z
Ġuzav ÅĻenÃŃ
Ġhovo ÅĻit
Ġjedin Ã©ho
ĠÃº sek
prÃ¡ vy
ĠvysvÄĽt lenÃŃ
S kupina
L et
ĠS met
ĠdÃŃ lem
Ġlikvida ci
ĠpoÄį tem
Ġci bu
Ġposti Å¾enÃ©
Ġpro fil
Ġm ari
um an
ĠuÅ¾ÃŃ vÃ¡nÃŃ
Å¾ÃŃ vÃ¡nÃŃ
nost ech
ĠvÃ½rob nÃŃ
Ġnep atÅĻÃŃ
Ġo ÄįÃŃch
Ġnej pozdÄĽji
r nÃŃm
ĠdÃŃ vat
ĠK ur
sti ckÃ½m
ÅĪ ovali
Ġnekon e
Ġne ÅĻÃŃ
ĠstÅĻedi sko
ĠvÅ¯ le
to ch
Ġdisku si
Ġsexu Ã¡lnÃŃ
Ġsch val
Ġdo nu
Ġzaz pÃŃ
ĠCh ebu
Ãļ to
Ġzak lÃ¡
R om
K RÃģ
ĠKo lÃŃn
w i
Ġpl nÄĽnÃŃ
Ġne vÃ¡
Ġch lu
ĠP ortugal
Å¾ u
mÃŃ m
logi ckÃ©
Ġjak Ã©m
VÄĽtÅ¡ inou
ĠsÃŃ d
ĠdevatenÃ¡ ct
ze b
Ġd res
b Å¯
Te le
mo cÃŃ
H a
ha jÃŃcÃŃ
Ġnez Å¯
PÄĽ t
ĠAfghÃ¡ ni
ĠB Ã¡r
Å¡ k
Ġne h
Ġpla ty
Ġfin Ã¡l
Ostat nÄĽ
ĠS h
dÄĽ k
i del
ĠÃºÄįastnÃŃ ky
Ã¡ rnÃŃ
R od
Ġn ot
Ã¡ ÅĻ
S nÃŃ
Hasi Äįi
ce st
Ġdlu hy
ĠvÄĽ tr
Ġob cÃŃch
Ġ9 7
ĠÃº c
ĠpÅĻi chÃ¡zejÃŃ
pu stili
ĠD an
ĠodpovÄĽ dÄĽt
Ġrozhod nuto
sto jÃŃ
Ġpo ma
Ka rel
z vlÃ¡
Ġpo tÃ¡
mÄĽ l
ĠG ross
ĠNA D
Ġhejt mana
ĠpraÅ¾ skÃ½
ing er
Ġbou ÅĻ
Ġod Å¡kod
Ġ7 4
ĠpÅĻÃŃbÄĽ hu
Ġsta Äįilo
je dou
Ġle se
Å¯ jde
ĠKu Äįera
Ġrych lÃ½
vÃ¡ nÃŃm
hra niÄįnÃŃ
ĠS va
ĠWil liam
ne sla
Ġdo k
ovnÃŃ ky
ĠnÃ¡ stroj
Ġnastou pit
D a
nÄĽ nÄĽ
Ġs dÃŃ
Ġhra nic
Ġpo lÃ©
ĠP C
Ġzlat Ã©
Ġ194 5
N B
Ġzalo Å¾il
Ġza dar
lÃŃ nek
Ġotev ÅĻen
Ġdo hrÃ¡
ĠzmÄĽ nila
ĠJ es
Ġu vÃ©st
hra jÃŃ
ĠRom ana
Ġfun k
Ġz m
Hlav nÃŃm
Ġzastupi telÅ¯
Ġprodej ny
Ġro m
ĠpÅĻ enÃ¡
ĠT ou
ej mÃ©na
nt Ã¡l
ÅĻe k
T Ã¡
Ġproti vnÃŃ
Ġjas nÃ½
ĠH ub
ĠpÅ¯ le
Ġpoplat kÅ¯
Ġpl nÃ¡
ÅĪ ovÃ¡
stÅĻe l
Ġnap ÃŃ
in skÃ©
ĠS tej
Ġokra ji
ĠG ol
Ġvypla tÃŃ
ĠpoÅ¾Ã¡d al
ĠHo ra
ĠpÃŃs nÃŃ
ĠÅłu ma
Ġzadar mo
le nÃ©ho
PÅ¯vod nÄĽ
Ġzav raÅ¾
Ġmuzi kan
ĠJ er
Ġpopu lace
bÃŃ k
Ġskup inou
Ġposkyt nout
slav i
Ġplo Å¡e
Ġkom promi
Ġod tud
ĠliterÃ¡ rnÃŃ
Ġzep tal
Ġvyh Ã½
Ġdobr Ã©ho
or ld
Ġzbav it
z ovÃ©
Ġpo bÅĻeÅ¾ÃŃ
ĠnaÅ¡i m
Ġkomb inace
kov skÃ½
Ġs jedno
ĠJihlav y
zÃ¡ nÃŃ
ĠpravdÄĽpodob nostÃŃ
Ġo leje
nÃŃ Äįek
Ġminister stvu
Vel kÃ©
h aly
MÄĽ la
Ġuvo lnÄĽ
Ġpro mÃŃtÃ¡
Ġrodin nÃ©ho
el sea
Po zor
Dod al
Ġpoliti ckÃ½
Ġd vor
ĠĠ ĠĠ
Ġprovo znÃŃ
Mo c
Ġza Ãºto
Ġpot kÃ¡
ga ce
cen i
Ġhol Äįi
Ġbo ty
Na po
Ġweb ovÃ½ch
Ġreak ci
Ġsk lep
Ġtre f
ovnÃŃ kÅ¯
Ġu vÄĽ
ĠmÄĽst skÃ¡
ĠKo pÅĻi
Ġat ent
Ġod loÅ¾
ÄįtyÅĻi ceti
Ġpora d
b la
ĠnevÄĽ dÄĽl
V zni
ĠMicro so
Ġcel kovÃ©ho
ĠodvÄĽt vÃŃ
ku s
ĠM H
ze jÃŃ
Ġosv obo
Ġho mo
ct va
Ġa sociace
ĠpÅĻÃŃzniv ci
Ġre j
Ġpo mÅ¯
ĠnÃ¡ hle
Äį kovi
Ġfoto apa
Ġku pu
se xu
Ġz ani
ĠA ir
Ġdlu ho
ĠkÃ¡d r
Ġdoku mentu
Ġnazna Äįil
sÃ¡ k
Ġsoupe ÅĻÅ¯
Ġtajem stvÃŃ
Ġpoliti ckÃ¡
r ze
Ġrychle jÅ¡ÃŃ
Ġo rd
Å¾ bÄĽ
ĠstÅĻÃŃ da
Ġna ru
Ġvybran Ã½ch
ĠHe lena
Ġkontro le
z la
Ġsu dÃŃ
Rozhod nÄĽ
p ku
ĠÅ½ a
ĠD ana
Ġkategori ÃŃch
OT BAL
Ġplate bnÃŃ
Ġves nici
Ġtra tÃŃ
slÃŃ te
ĠK lÃ¡
nu lo
ĠMi ss
ĠVÄĽ ra
ĠMa x
Å¡ to
Ġr emi
Ġpo bav
Ġreali zaci
ÄĮ as
ĠpÅĻÃŃbÄĽ hy
Ã §
S ku
Ġpohy bujÃŃ
Ġsebe vÄĽdomÃŃ
Ġjed inÄĽ
sla l
Ġzi mu
Ġstou p
ĠO lympi
ĠBo h
Ġce stÃ¡
Ġz mÃŃn
ĠcÃŃ li
Ġ7 8
Ġpaci enta
ĠCh i
Ġpoz nÃ¡nÃŃ
ĠBa nÃŃk
Ã¼ l
Ġkle sÃ¡
Ġlet nÃŃch
Å¾ to
Ġ14 0
Å¡ er
ĠpovaÅ¾ uji
tro l
Ġobje vit
Ġbaz Ã©n
Ġexperi ment
Ġopera ÄįnÃŃ
ĠLito mÄĽÅĻi
ĠvzÃ¡jem nÃ©
Ġb rig
ĠkamarÃ¡ dy
MÄĽ st
Ġza bi
ĠÃº prava
Ġpor trÃ©
Ġabsolu tnÃŃ
Ġorgani zÃ¡toÅĻi
ĠStar Ã©
Ġbo ku
dnÃŃ k
Ġchiru r
ĠzÃ¡ znam
Ġod rÅ¯
Ġdopad ne
Ġsk an
Ġkomunika cÃŃ
ĠÄįist ÄĽ
Ġkategori ÃŃ
ĠJe ho
Za ÄįÃŃ
Ġru skÃ©ho
Ġbankov nÃŃ
ĠzÃ¡ ÅĻi
Ġkom plet
ĠVÃŃ tÄĽz
ĠstÃŃ hÃ¡nÃŃ
ou Å¡tÄĽ
Ġkon tÄĽ
ĠtÄĽÅ¾ Å¡ÃŃ
ujÃŃcÃŃ m
ĠZ by
D ra
ĠsbÄĽ ra
ĠÃºko ly
Ġu kÃ¡zala
rÃ¡l nÃŃch
ĠpÃ¡t Ã½
Ġsuver Ã©n
ĠpojiÅ¡Å¥ov na
ck er
raz ily
ĠzpÅ¯sob y
ĠztrÃ¡ ta
ĠU rÄįitÄĽ
Ġnedo stal
Åĺe kl
ĠMe xi
hra ni
eri e
p ÄįnÃŃ
j skÃ©
3 3
Ġmla dÃ¡
sla nec
K INO
Ġvz ali
Ġrekla mnÃŃ
ĠD Ã¡
ĠSvÄĽt ovÃ©ho
J Ãį
Ġsrov na
n ovÃ½ch
ĠkrÃ¡ l
Ġodstra nÄĽnÃŃ
k lost
Ġcelo svÄĽt
tkÃ¡ ch
Ġz broj
Ġry by
ĠzÃ¡sad nÄĽ
zen Ã½m
my Å¡le
ĠzÃ¡jem cÅ¯
ĠH i
ĠK ana
H le
v na
K R
b ovÃ©
hla va
Ġspoluprac ovat
Ġre ha
lÃŃ kÅ¯
ne y
Ġcel Ã½ch
Ġnezbyt nÃ©
ĠnejbliÅ¾Å¡ÃŃ ch
Ġvir tu
ĠvÄįere jÅ¡ÃŃm
ĠÅĻÃ¡d nÄĽ
ĠK ro
men Å¡ÃŃm
hl Ã½
ĠblÃŃz kÃ©
ĠdÃ© lce
ĠÅ¾ a
ĠorgÃ¡n Å¯
ĠnÃ¡ kladnÃŃ
S lu
ĠzÅ¯st alo
ĠvyÅ¡ pl
ĠTe chni
ĠbrnÄĽ nskÃ©ho
ĠKr kono
ĠumÄĽl cÅ¯
Ġhum or
Ġz nÄĽ
ĠVi ktor
w al
ĠÅ¡Å¥ Ã¡
Ġpoch lu
Ġnav zÃ¡jem
Ġ3 50
ĠdodÃ¡ vky
ĠVsetÃŃ n
Ġh rÅ¯
ĠotevÅĻ ena
Ġsoukro mÃŃ
Å¡ ovi
D R
Å¾i jÃŃ
Ġza dlu
ĠVojtÄĽ ch
Ġpotvr dit
ĠprÃ¡zdn iny
Ġpartner y
Ġzob raz
Ã¡t ka
no ÄįnÃŃ
Ġm alo
Ġzdravot nÃŃch
by la
ĠG rand
Ġopu stil
T ou
ĠpouÅ¾ÃŃ vÃ¡nÃŃ
Ġru chu
Mno ho
Ġju bi
st and
ĠC ity
ĠK O
ak o
V ÃĿ
Ġkoncert Å¯
ĠÄĮ E
s mem
H av
Co Å¾
ĠobÄįerst venÃŃ
Di va
Ġzra nil
Ġprodu kci
Ġb ot
Ġposla nce
Ġpovo lÃ¡nÃŃ
h ÅĻÃŃ
ĠE ri
odi Äįe
Ġpoliti ckÃ©ho
ĠMÄĽst skÃ©ho
U tkÃ¡nÃŃ
ĠpÅĻe zdÃŃ
Ġpro jÃŃt
ÅĻad ÃŃ
da mi
ĠVel kÃ¡
Å¾ Å¡ÃŃm
ÄĮÃ¡ st
Ġfotbali sta
Ġzne Äįi
Ġtrest nÃ½ch
ĠN et
ĠdÃ¡ vky
Ġje sky
Ġnej znÃ¡
Ġoh ni
St rÃ¡Å¾
ĠnejvÄĽtÅ¡ÃŃ ho
ĠdÄĽ lo
Ġ out
Ġjazy ka
ĠpÅĻeva hu
Ġz rych
ĠT ran
ĠKo me
Ġhla va
ĠurÄį ena
K an
Äįe skÃ©
Ġodstra nit
Ġjader nÃ©
U ni
Ġmo z
ĠvÃ½znam nÃ½ch
ĠvysÃŃ la
rÃ¡l nÃŃho
mnÄĽ la
ĠK al
Ġtisk ovÃ¡
Ġstani c
ĠNa Å¡e
Ġm rav
dÄĽla li
Ġvzni klo
HrÃ¡ Äįi
Äį u
ĠFak ul
ĠF al
Ġzr cad
Ġslav nÃ©
Ġz vÄĽt
Ġsp odnÃŃ
Ġuplat nÄĽnÃŃ
ĠV ond
Ġob u
Ġpok r
ĠobÄįan Å¯m
ĠR ada
Ġli sty
ĠÄįtvr ti
Ġproje vu
Ġby dle
Ġroze hrÃ¡
ĠZ Ãģ
Ġvo lan
Ġkoupali Å¡tÄĽ
ĠzÅ¯st anou
ĠS ko
ĠpoÅĻÃŃ dit
Ġsebev raÅ¾
Ġpodnika telÅ¯
ĠV es
Ġnes ly
ob ra
Ġdi spon
ĠmÄĽ k
Ġneg ati
Ġu dÄĽli
Douf Ã¡m
Ġpod ÅĻÃŃ
Ġpoku ty
Ġpovin nostÃŃ
Ġvyv inu
Ġko ÄįÃ¡
Ġdov nitÅĻ
Ġo kraj
Ġ8 8
ce nÃŃm
Ġtu hle
Ã¡t ory
ĠO P
Ġpro hÅĻe
mÄĽsÃŃ ÄįnÃŃ
ĠpÅĻekva p
mÄĽ s
tu ru
ch l
ej menÅ¡ÃŃm
sÃŃ ce
Ġpoku sil
Ġorgani za
Ġnej krÃ¡
Ġre sp
Ġpre fer
ĠLi d
Å¡ ovat
ĠvÃ½rob cÅ¯
ĠG ott
Ġde sku
ĠurÄį enÃ©
ÅĪ an
st ÃŃm
it Ã½
ova cÃŃm
lÃ© my
Ġkvali tÄĽ
ĠzahÃ¡ jil
d an
Ġg en
s Ã©
Ġminist rem
ĠJ E
ĠpomÃ¡ hajÃŃ
ĠzajÃŃmav Ã¡
t Ã½ch
chÃ¡ze ly
U L
Ġtra se
Ġrekla my
Ġfyzi cky
in em
Ġsobot nÃŃm
ĠÄįÃŃ st
ĠpÅĻÃŃtom nost
ĠuzavÃŃ rÃ¡
ĠjÃŃ zd
Ġsouhla sÃŃ
ĠpÅĻed pisÅ¯
Ġno ha
Ġstej nÃ©ho
ĠnovÃ½ mi
ĠBene Å¡ov
NÄĽ kolik
vÃ¡ n
Ġpo ni
ĠTopo lÃ¡n
ĠfÃ¡ ze
Ġdr Å¾el
Ġtr zÃŃch
Ġstaveb nÃŃho
ĠÅĺ ÃŃm
ĠNe u
Ġp lech
Ġkan alizace
st en
ĠsnaÅ¾ÃŃ me
ĠUS D
Ġhan dica
ĠT an
Ġzmi ÅĪ
Ġcen ou
Ġkom for
pÅĻe du
Ġneda ÅĻÃŃ
Å¾ nou
Ġpoko ji
Ġzach ovÃ¡nÃŃ
Ġkam er
ĠdomÃ¡c nostÃŃ
ĠdÄĽdi ctvÃŃ
Ġhudeb nÃŃch
Ġz ÃºÄįastnÃŃ
Ġdobr Ã½ch
ĠG ene
ĠÅł tef
Ġga ran
tu r
ĠpÄĽk nÃ©
ĠKrÃ¡ lov
povÃŃ dÃ¡
ĠÃº mrtÃŃ
ĠO bec
ĠmluvÄįÃŃ ho
ĠÅ¡a ch
Ġtr valo
Ġzprac ovÃ¡
ĠÄįe kali
Ġv loÅ¾
S c
Ġno sÃŃ
Ġobrov skou
Ġna r
Ġtvor bÄĽ
Ġne leg
ĠuvidÃŃ me
Ġu m
ĠKon e
ĠnavÅ¡tÃŃ vil
ĠpÅĻÃŃj mu
sle chu
ĠM A
Ġka ted
Ġf asÃ¡
Ġstro mu
Ġs pÄĽ
ĠP al
Ġov zdu
Ġna vi
Ġb ari
ĠE ner
ĠFlo ri
Ġautobu su
Ġh ala
Ġrekla ma
mÃŃ stÄĽ
C i
Ġz nÄĽnÃŃ
ĠdÃ¡ rky
Ġpora dit
ĠmanÅ¾e la
Ġzastou penÃŃ
mysle m
Ġpale stin
in skÃ½
Ġ6 2
ĠrozsÃ¡ hlÃ©
Ġteleviz nÃŃch
RA VA
vÃ½ mi
je tÃŃ
Ġpubli ci
Ġruka ma
ĠzmÃŃ nÄĽnÃ©
Ġkatastro f
fika ci
Ġboj Å¯
ĠJe stli
ĠlÅ¾ÃŃ ce
Ġstu peÅĪ
Ġad rese
Ġvstou pil
V I
ĠÅ½ Ã¡
Ġnesouhla sÃŃ
Ġob chvat
ĠS MS
ce jÃŃ
ĠpÅĻij a
ĠrozdÃŃ ly
Ġslab Å¡ÃŃ
en ku
Ġza d
d nost
ĠsvÃ¡ tek
Ġlep Å¡ÃŃm
Ġdob ro
po mÃŃ
ĠzajÃŃmav Ã½ch
Ġnej tÄĽ
ĠspoleÄįen skÃ©
n ovÃ©ho
B r
Ġdesi gn
Ġza hrÃ¡t
Ġnovin ky
Ġvol ba
Ġfung ovÃ¡nÃŃ
ĠV od
Äįen Ã©ho
Ġhar mo
Ġma rat
sy p
ĠsprÃ¡v nÃ½
VA D
ĠdÅ¯chod cÅ¯
b on
Ġpolo letÃŃ
O by
ĠFran couz
s si
ĠH ro
ĠvÅ¯ li
ĠLubo Å¡
Ġnorm Ã¡lnÄĽ
N ÃĿ
Ġkab inÄĽ
Ġz poÄįÃ¡tku
Ġa zy
ĠRad o
Ġran nÃŃ
ĠvzdÃ¡le nosti
Ġra l
ĠEvrop skÃ©ho
Ġkon al
ĠpÅĻispÄĽ t
Ġstudi ÃŃ
Ġzpo chyb
tÅĻe bÃŃ
Ġza sa
ĠschvÃ¡ lila
ĠjÃŃz dnÃŃ
Ġtajem nÃŃk
Ġital skÃ©
Ġlokali tÄĽ
Za stupi
ĠshromÃ¡Å¾ dÄĽnÃŃ
ZÃ¡ kon
Ġdlou hÃ½ch
ĠskuteÄį nÃ©
Ġkraj iny
mi se
Ġa da
Ġne li
ĠJan Ã¡
Ġdoda vatel
ĠdÄĽla li
rum lov
Ġb rÃ½
Ġch at
Ġplo chu
Ġnov inÃ¡ch
Ġob vodu
Ġodci zil
ĠJu goslÃ¡
ĠpÅĻed sti
Ġmr zÃŃ
Ã³ za
ĠÄįin Å¯
Ġrozhodu je
ĠpoÄį kat
ve lo
Ġnej sme
M ari
Ġzru Å¡it
ro dÄĽj
ĠzvÃ½ Å¡ila
ĠodpovÃŃ dajÃŃcÃŃ
Ġza dÃ¡
Ġlo dÃŃ
Ġkoali ci
Ġs ma
ĠAngli i
Ġrodi ÄįÅ¯m
ĠKo lÃ¡ÅĻ
R ov
Ġob lo
ĠpÃŃsni Äįky
Åĺ ada
hod nÄĽjÅ¡ÃŃ
ĠdivÃ¡ kÅ¯m
va ru
Ġpo Äįe
ove de
Ġseni or
ĠÃºÄįe ly
Ġsna ze
Ġvari anta
Ġfyzi ckÃ©
O TO
KaÅ¾ dÃ¡
Vla di
Ġsil nÃ¡
ĠR od
ĠÅĺ ec
Ġnej v
4 8
Ġ7 2
li ÃŃ
Ġza Å¾il
in c
Ġch ut
Vy u
s ovÃ©
ĠvedoucÃŃ ho
Z dra
Ġvz hled
ĠZ ÃŃ
z da
Ġho ÅĻe
ĠkrÃ¡s nÃ½
ÅĻe d
ĠJi rÃ¡
Ġpartner em
Ġku f
VÅ¯ bec
Ġseni ory
ĠzÃ¡ le
ĠR ed
ĠvyÅ¡Å¡ÃŃ ch
Ġsta rou
Ġdemokra cii
K Ãī
Ġprovo zuje
Ġbasket bali
S loven
Ġpodpor ovat
Ġno te
Ġpla ve
ĠpoÅĻada tel
Ġzna Äįek
v inÃ¡
Ġmi lost
Ġbo mb
ĠSa mozÅĻejmÄĽ
kov o
ĠPa u
ĠFis cher
Ġchla pce
Ġme lo
ĠpÅĻi bÃ½vÃ¡
Ġcestu jÃŃcÃŃch
H ro
ĠAmeri ÄįanÃ©
Ġdruho lig
t skÃ©
Ġcest ovÃ¡nÃŃ
Ġpos lat
ĠodmÃŃt la
Ġs pi
ĠÅ½ ÄıÃ¡r
Ġrodi Äįi
ĠobÄĽ Å¥
Ġpo chod
Ġroz dÄĽlenÃŃ
Ġkon Ã¡nÃŃ
ĠÄįoko lÃ¡
ĠzÃŃsk alo
ĠsezÃ³ nÄĽ
Ġudr Å¾enÃŃ
ho ten
cho pi
Ġnaho ÅĻe
ZÃ¡ stup
Ġnep ÅĻ
ĠK ÅĻÃŃÅ¾
Ġreferen du
Ġposti Å¾enÃ½ch
ĠÅĻad ou
Ġsed mÃ©
Ġp lnÃŃ
ĠVÃŃt kovice
Ġochra nÄĽ
ĠÅł Ã¡r
Ġb rou
ter Ã½
obo leslav
Nem ÄĽ
ĠMari Ã¡n
Ġpost rÃ¡
S E
c ovÃ½ch
Å¡ tÃ¡
av Ã©
lÃ¡ t
ĠpÅĻedmÄĽ tÅ¯
ĠBra zÃŃ
ĠÄįlÃ¡n ky
Ġa fri
ĠV in
Ġakadem ie
ĠC linton
ĠotÃ¡ zek
Ġokam Å¾it
Ġbez domov
ĠtrenÃ© ÅĻi
K OV
ĠpÅĻekon al
Ġveletr hu
Ġve jce
Ġu kazujÃŃ
Å¾ nÃ½ch
Ġvyu Å¾ili
ĠscÃ© nÃ¡ÅĻ
Ġs Å¯l
Ġturi stÃ©
Ġdokument Å¯
ĠDiva dlo
ĠobtÃŃ Å¾nÃ©
Ġd ez
Ġpracov nÃŃho
Ġovzdu Å¡ÃŃ
Ġa ko
Ġroz dÄĽ
ĠÄįlen stvÃŃ
Ġdve ÅĻ
ger s
ĠÅ¡ um
Ġzapo tÅĻebÃŃ
Ja roslav
Å¾ nÃŃch
Ġtem po
prav du
Ġne sti
ĠUrb an
Sou pe
Ġk nÄĽ
Ġtu r
Ġre produ
Fot balistÃ©
ĠscÃ© nu
Ã¡ vÃ¡
Ġtu re
ĠvÃ½ hry
nÃ¡m Ã½
ĠotevÅĻ enÃ½ch
ĠmyÅ¡ lenÃŃ
Ġob chodech
Ġkomu nÃ¡l
ĠMosk vÄĽ
Ġka de
Ġzvu k
Ġin tele
Ġru skÃ½
hod in
ĠBus h
ro l
Ġsoubor Å¯
Ġvy prav
PrÃ¡ ce
ST A
ĠÃºko lem
Ġnap s
Ġsest ry
ĠKarvin Ã©
cen y
a ch
teÄį nÃŃm
Ġna stÅĻÃŃ
Ġobra na
ĠRob er
son a
Z da
F ak
Ġde bu
Ġprogram em
ĠsvÃ¡ t
B i
Ġklu k
ĠpracovnÃŃ ky
stÅĻe dnÄĽ
ĠbÄĽ h
Ġzapo menout
Ġza sko
lu k
ĠdÃ¡ m
Ġkro kem
Ġkomi si
ĠÃºzem nÃŃ
ĠA lo
ĠkalendÃ¡ ÅĻ
Ġkro ku
ĠRad ka
Ġm Ã½m
ĠvÄĽ cech
ĠzÃºÄįast nit
Ġvrcho lu
ĠdÄĽt skÃ©ho
Ġdra hÃ©
ĠMo to
ra dÄĽji
ĠsvÄĽÅĻen ci
Ã½ vajÃŃ
kt ory
Ġdobr Ã½m
Ġ17 0
Ġv Ã©
Ġuz Ã¡
ĠpÅĻed vedl
Ġro p
ĠlÃŃ stky
Ġjestli Å¾e
ĠP ak
Ġne Å¡tÄĽstÃŃ
Ġroz dÃ¡
Ġpoz Å¯
Ġher ce
k ovala
Po ÅĻÃ¡d
ĠpÅĻi bÃ½
Ġpomo hla
ĠRe publi
Ġfun kÄįnÃŃ
Ġodsou zen
ĠJind ÅĻi
Ġrestau racÃŃ
Ġknihov na
ĠpÃ¡t rÃ¡nÃŃ
ĠpÅĻÃŃspÄĽ vky
Ġsig nÃ¡l
Äı a
z ory
ĠR al
ĠD I
Ġbrit skÃ½
prav nÃŃ
Ġle snÃŃ
Sta rosta
ĠzvlÃ¡ dli
Ġu kaz
Ġk men
lnÃŃ ky
ĠpromÄĽ nil
Ġfinan ce
ĠpÅĻi dat
St Ã¡t
Ġkuchy ni
ĠR E
ĠÄįÃŃ sel
Ġlid skÃ¡
i Å¡ti
ĠnÃ¡vÅ¡tÄĽ va
To ho
Ġch ovat
ĠTopo lÃ¡nek
Ġpodi v
Ġzaznamen ali
PÅĻe snÄĽ
Ġdlouhodob Ã©
Ġdoprav nÃŃho
z ovanÃ½
ĠnÃ¡ poj
Ġzji stila
ĠlÃ© kÅ¯
ĠvÃ½ her
Åĺ ED
Ġvy dali
ĠÄĮÃŃ ny
ĠdÄĽj stvÃŃ
ze la
ĠstÅĻe chu
Ġsamo zÅĻej
ĠuÄįi tele
Ġman dÃ¡
vidÃŃ me
ĠSlov an
Ġo Å¡etÅĻenÃŃ
Ġpolici sta
ĠLubo mÃŃr
K li
ĠÅ¡kol ky
Ġaltern ativnÃŃ
sed m
Poz dÄĽji
Ġuzav ÅĻe
Pou ze
Ġmo ÅĻi
ĠÃºvod nÃŃm
Ġnut nÄĽ
Ġzvo len
nu ta
Ġpivov aru
Ġz Ãº
Ġvedle jÅ¡ÃŃ
ĠprovÃ¡ dÃŃ
atÅĻi cet
Å¡ ovÃ¡nÃŃ
ÄĮ len
Mno zÃŃ
ĠPo slednÃŃ
ob a
ho l
ĠobÄįan skÃ©ho
Ġja b
Konce rt
ĠpÅĻe tr
ĠzÃ¡stup kynÄĽ
Ġob ÅĻad
Ġobraz u
c ovou
Ġboj uje
i lem
cen ou
Ġja blone
Ġstrate gie
ĠznÃ¡m Ã©ho
Ġfor mÃ¡
Ġpole dne
c any
ali ty
Ġpoku su
ĠOpa va
ri a
ĠvÃ½bor nÃ½
Ġdoporu Äį
L Ã¡
Ġveli kost
Ġka be
G ALERIE
ĠsvÄĽ dky
ĠjÃŃz den
ĠN ic
Ġdo hoda
ĠSta ro
Ġpenal ty
ner ovÃ¡
mnÄĽ li
ĠpÅĻi psal
Ġpoje tÃŃ
Ġvy sky
ho ÅĻ
ĠpotÅĻebu jeme
Ġpoliti k
ĠZa hra
A d
da cÃŃ
A r
c ovat
Ġza va
to ni
c ovÃ¡nÃŃ
emoc nice
ĠpÅĻe ve
Ch ci
Ġh Ã¡d
V Ãģ
ĠurÄįit Ã½
Ġtr vale
ĠdÅ¯ kazy
Ġpod nÄĽ
Ġza haj
Ġdemokra tÅ¯
Ġrov no
ĠRad im
ĠÃºspÄĽch em
L ze
rÃ¡ ly
Ġroz lo
Ġus nesenÃŃ
Ġmal Ã½m
ĠvÄĽ Å¾
ĠnÃ¡vÅ¡tÄĽvnÃŃ kÅ¯m
ĠbezpeÄįnost nÃŃch
ĠskonÄįil y
ĠsnÄĽmov nÄĽ
Ġnap sat
Ġh Ã½
Ġekonomi ka
ĠpamÄĽ Å¥
jez dem
J ste
Ġzastav enÃŃ
ĠprÃ¡zd nÃ©
mili on
Ġsportov nÃŃho
keji stÃ©
Ġvy ÅĻad
Ġe ko
Ġra j
ĠVysoÄį inÄĽ
ĠznÃ¡ sil
Ġza dr
ĠÄįlen skÃ½ch
1 00
ĠpÄĽ Å¡ÃŃ
Ġop av
ĠnÃ¡ro ky
Åł est
ĠpoÅ¾Ã¡d at
Ġdr ti
Ġsp la
Ġnad Å¡enÃŃ
ĠC Z
ĠsnÃŃm kÅ¯
hle dy
Ġzbra ÅĪ
ĠN ad
Ġhoke je
ĠzÃ¡ vislosti
kt orÅ¯
su r
ĠB re
Ġsil niÄįnÃŃ
Ġsto l
ĠuÅ¾ivatel Å¯
ĠvÃ¡ Å¾ÃŃ
ĠRe u
ĠvÃ½povÄĽ Äı
Ġukon Äįil
Ġre du
ĠvÃ½bor nÃ©
Ġzapo j
ĠvÃ½raz nÃ©
ĠzÃ¡kaz nÃŃci
Ġvla ku
stu jÃŃ
ĠjakÃ© koliv
Ġzkla mÃ¡nÃŃ
Ġt var
Ġvla j
Ġvari ant
T Ã½
ce s
Ġolympij skÃ©
Mla dÃŃ
stou penÃŃ
Ġdro gy
Ġsp Ã¡n
Ġluxus nÃŃ
ĠnÄĽ ÄįÃŃm
Ġve terÃ¡n
nes s
Äį ana
ĠÄįtyÅĻi krÃ¡t
en om
Ġrostli ny
kov u
Ġdo hled
Ġkoleg Å¯
To mu
r nou
c eno
ĠÃºvÄĽ rÅ¯
ĠvÃŃtÄĽzstvÃŃ m
Ġnespo koj
Ġdom ku
y ne
ĠCh elsea
Ġuspo ko
ĠsoutÄĽÅ¾ÃŃ ch
Ġpo razit
Ġmaji teli
is s
per to
ĠT eme
kÃ¡ ÅĻÅ¯
Ġne kom
Do sud
Ġvy pÃ¡
ĠRu mun
Ġopak ovat
Ġnahra dÃŃ
LA VA
sti ku
ĠTere za
ĠP at
Ġstou pÃ¡
ĠF ili
Ġnap Ã¡
Ġmez itÃŃm
Ġslavnost nÄĽ
ĠpapÃŃ ru
Ġvyboj oval
Ġkan clÃ©
ĠnÃ¡ moÅĻ
ĠvÃ½stav ba
Ġmodel Å¯
ĠodpovÄĽd nosti
ĠJ in
Ġpoch vÃ¡
ĠM it
Ġob novu
Ġneda ÅĻilo
ÅĻ te
k nutÃŃ
Ġvy hle
de ra
ra lo
Å¡ nÃ½ch
stra l
ĠnovinÃ¡ ÅĻÅ¯m
z ovanÃ½ch
Ġme ta
ĠsÃŃ dliÅ¡tÄĽ
PoÅĻad a
Ġarchite kt
Ġs or
Mluv ÄįÃŃ
Ġp ruh
Ġp sal
Ġa j
rÃ¡ la
ĠpotÅĻeb ovat
ĠsprÃ¡ va
Ġvy hnout
st or
ĠJiÅĻÃŃ m
ĠpÅ¯vod nÃŃho
Ġfotbali sty
ĠTÅĻe bo
t Ã¡lnÃŃ
Ġpsa nÃŃ
Mi chal
ch ali
Ġextrali ze
stou pili
Ġsob oty
Ġvi dÄĽla
Ġpo slech
Ġkoru nu
Ġkou sky
Ġre port
Ġmo ste
Ġm asi
ĠOrli cÃŃ
ĠPod ÄĽbra
AÄį koli
ĠaÄį koli
Ġex o
AÄį koliv
sahu jÃŃ
ĠÃºvÄĽ ru
ĠK lo
Ġpovin nÃ©
Ġ ÃŃ
mo Å¾
ĠÅĻe z
Ġu pe
ĠÄį te
ĠMU ZEUM
ĠvyrÃ¡bÄĽ t
ĠmoÅ¾ nÃ½ch
ĠÅĻe Å¡enÃŃm
ci Ã¡lnÃŃ
le li
ch ovan
ĠpÅĻedstavi telÅ¯
ĠsouÄįas nÃ¡
ĠtÃ©m atu
ĠB M
P rÃ½
Ġdemokra tickÃ©
ĠzÃºÄįast nilo
Ġmal Ã©m
Äį eny
Ġb Ã¡t
Ġ9 8
ĠÄįtenÃ¡ ÅĻe
z Ã¡n
ĠsoutÄĽ Å¾nÃŃ
Vy plÃ½vÃ¡
Ji hlava
ĠÄįaso pis
Ġna prav
es lo
D Äļ
inou t
ĠM r
RA N
Ġva Å¡em
Ġbar u
Ġosob nÃŃm
Z ejmÃ©na
v ist
p sala
ĠF ri
Ġmot oru
Ġpova Å¾ovat
Ġkon ala
ĠBe Äį
Ġm lu
Ġa teli
ĠutrpÄĽ l
L Ãį
Ġu ÄįenÃŃ
Ġauto ÅĻi
ĠrozÅ¡ÃŃ ÅĻit
Ġnepo mo
dor f
Ġm Ã©m
prÃ¡ va
Ġdo rostu
Ġdra matu
Ġp les
Ġsled ovÃ¡nÃŃ
Ġobjev uje
9 5
V Y
Ġc a
Ġkomuni stÃ©
ĠÄįtvrt Ã©m
ĠtÄĽ hoten
Ġza blo
stud oval
z ovÃ¡
Ã½m a
Ġu kraj
ĠHav la
ĠpÅĻiz nÃ¡nÃŃ
Ġo ka
H C
Ġ lat
Ġpivov ar
tel nÃ½m
ĠpodÃŃ lel
Ġmrt vÃ½ch
ĠpodÃŃ let
Ġdi a
Ġti to
ĠcÃŃ til
ĠlegendÃ¡ rnÃŃ
ova telem
Ġvod ovod
Ġfon dy
Ġvyz val
vÄĽ ta
Ġv lo
men tuje
A kci
Ġpou hÃ©
ĠÅ¡e desÃ¡ti
Ġvy ko
Ġchvil ku
Ġsni Å¾uje
ĠzÃ¡vod nÃŃkÅ¯
jÃŃÅ¾ dÄĽt
Ġli ber
tiv nÃŃm
Ġde ska
ĠpÅĻedstav y
ĠsvÄĽt ovou
Ġlabora to
tÃŃ me
ĠvÃ¡l ku
ĠPet rem
Å¾e jÃŃ
Ġtaj nÃ©
ani ce
zku m
ĠAnge les
Ġtele komunika
Ġ15 00
it ky
Ġzji Å¡tÄĽ
ĠkrÃ¡t kod
ĠU l
Ġvstup enky
Ġza znÄĽ
Ġspe kt
ĠÅ¡ aty
ĠvÃ½Å¡ ce
ĠJ on
ĠÄįe s
cÃŃ mi
Ġpozem ek
ĠH ude
ĠvlÃ¡ dou
Ġdo sahuje
Ġdisk otÃ©
ĠnepÅĻÃŃjem nÃ©
Ġza m
ĠKom erÄįnÃŃ
Ġan ke
ĠÄįa j
ĠpodÃŃ lu
stav enÃŃ
Ġka pli
Ġprocen to
Ġsed ad
Ġeli tnÃŃ
ĠpÅĻedmÄĽ tem
Ġpoku sÃŃ
Ce lÃ¡
Ġzdravot nÃŃm
ĠnejnovÄĽ jÅ¡ÃŃ
ĠvÃ½bÄĽr ovÃ©
Ġzap lav
ĠcestÃ¡ ch
ĠÃºÅĻednÃŃ kÅ¯
de b
Å¡ ova
Ġslav nosti
ĠMar ka
ĠnÄĽkter Ã½m
Ġplo ch
Ġnom inaci
an ÄįnÃŃ
ĠpoÅ¡ ty
Ġuniverz itÄĽ
Ġnejsil nÄĽjÅ¡ÃŃ
ĠzvÃŃtÄĽ zili
ĠPo kor
Ġoch rÃ¡n
ĠukÃ¡z ky
men tem
n nÃ©
Å¾ em
Ġrekla m
pu l
Sou tÄĽÅ¾
Ġto tÃ©Å¾
Ġnep at
ĠzdÃ¡ n
ĠAfghÃ¡ni stÃ¡nu
BR NO
Ġtitu lÅ¯
ĠprostÄĽ jov
Ã½ t
Ġcent rem
ru jÃŃ
ĠdÅ¯sled ky
ĠSt re
Ġrevolu ce
ĠzpÅĻÃŃ stup
Ġpacha tele
ĠlÃŃ ÄįÃŃ
ur t
Ġ0 1
ĠpÅĻedse d
Ġza jÃŃm
il le
ĠnevÄĽ ÅĻÃŃ
Ġu Äįili
Ġtr Å¾nÃŃ
Ġne cÃŃ
ĠVysoÄį iny
ĠsvÃ¡ tky
Ġkole ktivnÃŃ
Ġte ku
ĠÃºstav y
ĠmyslÃŃ te
ov skÃ¡
Ġte pli
ĠpracovnÃŃ k
ĠPÅĻe sto
Ġolympij skÃ½ch
Ġstar tem
J istÄĽ
rov skÃ½
ĠÅ¾Ã¡d at
am atu
Ġfotografi i
Ġsloven skÃ½
6 5
stÃ¡ n
ĠvÃ½stav bÄĽ
Ġprodu cent
Ne jde
ĠdÄĽt skÃ½
jÃŃcÃŃ mi
Ġvstou pÃŃ
ĠumÄĽ lÃ©
Ġu c
Ġhy per
ĠinÅ¾enÃ½ r
ĠÅ½i Å¾kov
rov o
AR T
ĠspoleÄį nÃ½
ĠOb Äįan
ĠdÃŃ ly
Ġteplo ta
Ġfavor ita
Ġdo pravÄĽ
Ġli du
Ġdvoji ci
d ing
O DS
ĠpÅĻÃ¡ telÃ©
St Ã¡tnÃŃ
Po tvr
Ġdouf Ã¡
ĠK av
Ġslav nÃ©ho
ĠmiliÃ³ ny
ĠDiva dla
Ġmlad Ã©ho
Ġpav ilo
Ġal ba
ĠkÃ¡ men
re d
ĠEgy p
ri zon
ĠPrÃ¡ vo
van Ã½m
PÅĻi po
t vo
Ġvy kou
ĠpohÃ¡d ky
lem ent
Ġtr Å¾by
Ġnev in
di vu
ĠpÃ¡d em
ĠJed no
Ġzastupitel stvu
Ġod chÃ¡zÃŃ
Ġdat um
Ġoh nÄĽ
ĠpÅĻed pisy
ĠS un
Ġbe se
ĠÄį el
Ġu tra
Ġvla sti
pi i
Ġmla di
Ġse Å¡li
u f
Ġzabez peÄį
K lu
Ġpremi Ã©ÅĻe
ĠtÃ©ma tem
ck e
ĠpÅĻed vedli
ĠN ada
M Å¯j
Ġohro m
tel ka
Ġnevy hov
Ġpaci enti
ĠSever nÃŃ
Ġko lÃ¡
ĠLÃŃ pa
nÃ¡ lnÃŃ
ĠRe gion
Ġta hle
Ġfrancouz skÃ½
in Å¯
bez peÄį
nu tÃ½
NÃ¡ Å¡
D avi
ĠvzÃ¡jem nÄĽ
Ġsoubor y
Ġdom em
ĠnÃ¡ po
ĠkrÃ¡ snÄĽ
ĠcÃŃ tÃŃm
ĠÃº st
Ġpostup em
ĠstÅĻe tu
Ġneop rÃ¡v
Ġkompe ten
jÃŃÅ¾ dÄĽjÃŃ
Z ÅĻejmÄĽ
Ġu kaza
ĠâĢ Ŀ
OR T
Ġnemoc nÃ½ch
M at
Ġf re
Ġkal ho
ĠmuÅ¾ em
Ġtvr dÃ©
Ġlo b
Ġodpo ÄįÃŃ
Ġ8 7
k vÃŃ
Ġvytvo ÅĻÃŃ
Ġz dÄĽ
ĠkancelÃ¡ ÅĻÃŃ
mÃ¡ k
ĠjakÃ© koli
Ġkontro lou
k ri
Ġsr b
Ġom luv
Ġnavr hl
w ard
Ġs lep
Ġsta rat
ĠspoÅĻitel ny
Bu deme
ĠvyÅ¾ Ã¡d
ĠpÅĻed nÃŃch
en tem
Ġk av
ZÃ¡jem ci
Ġne rozu
Vel kÃ¡
Ġtelef ony
Ġ8 4
Ġza bav
ĠtÃ½d nem
Äįe la
Ġpo za
Ġkonzu l
Ġelektro nickÃ©
Ġod dÃŃl
ĠB ri
ĠKrum lov
ĠÃº de
Ġfinan ÄįnÃŃho
Ġpodob nÃ¡
A vÅ¡ak
ĠV Åł
Ġpravidel nÃ©
Ġzku sit
Ġrela x
Sa mot
ĠD ar
hÅ¯ ru
ĠNed vÄĽd
Ġch Å¯
ĠpoÄįÃŃta Äįi
Ġrece pt
Ġrekor dnÃŃ
Ġna ÅĻÃŃzenÃŃ
st aly
ĠÅĻÃŃ kali
Ġhekt arÅ¯
t ru
LE D
ĠÄįtvere ÄįnÃŃch
ĠLitvÃŃ nov
V ÃŃm
ĠV Y
vÃŃ nov
Ġzlo dÄĽji
ĠÅ¾ivo tu
ĠpÅĻehlÃŃ dky
ĠJe se
Ġra dÄĽ
Ġnejm ladÅ¡ÃŃ
Ġrevolu ci
Ġna dÃ¡
bo ok
Ġob klo
jÃŃ zd
ĠÄįÃ¡ stech
ari s
Ġreha bili
Ġintele ktu
Ġsob ota
Ġlo s
ĠpÅĻin ejmenÅ¡ÃŃm
ĠP rav
ĠPoslane ckÃ©
Ġkonce pce
ĠzÃŃsk aly
ĠvÃ½tvar nÃ©
ĠO B
Ġpo ezi
ĠstÃ¡t nÃŃm
ĠV ÃĿ
me Äįek
Ġod nÄĽ
P u
ĠJ as
Spar ta
PÅĻÃŃ Å¡tÃŃ
ĠBo Å¾ÃŃ
ĠmanÅ¾e lem
ĠsbÄĽ r
ĠÄĮ M
* *
er ce
Ġsamostat nÃ©
g el
pl ÅĪ
Ġ8 9
adva cÃ¡t
Ġplo cha
Ġpokle su
ĠK ni
Dob rÃ½
ĠpoÄįÃŃta ÄįÅ¯
Ġde leg
n in
Ġko leÄį
Ġjez dec
Ġi ma
zna my
Ġevrop skÃ½
Ġbohat Ã©
ĠkrÃ¡s nÃ¡
Ġprv kÅ¯
ĠzÃŃska jÃŃ
Ġvhod nÃ½
Ġtem ati
ĠstÄĽ ny
ÄĮe Å¡i
Ġne hrozÃŃ
Ġpodle hl
Ġk Ã½m
0 5
ĠMa ch
Ġdi vu
C y
ĠDoma Å¾li
Ġdo pla
Mla dÃ¡
en cÃŃ
ĠmuÅ¾ stvu
Ġh nÃŃ
Ġpali va
di ÃŃ
Ġh li
Ġnechy bÃŃ
Ġdohod li
Ġva jÃŃ
Ġslune ÄįnÃŃ
ĠZem ana
ĠJablo nci
ni ckÃ©m
Ġ8 3
ĠOpa vÄĽ
Ġfotbal ovÃ½ch
ĠznÃ¡ me
Ġnapad l
Ġlitera tury
g l
Ġli dech
Ġpopu la
Ġabsolv oval
ĠSpoj enÃ©
Ġra du
Ġdi kt
P at
klost ez
ĠuÄįi telÃ©
Ġvy ma
Ġprav Ã½
ĠIn tern
ĠdÄĽ lÃŃ
Ġspl nit
Ġener giÃŃ
ĠuspoÅĻÃ¡ dÃ¡nÃŃ
wa gen
Ġjedno mu
Ġautor em
Ġpodnika telÃ©
Ġme tra
Ġs razil
Ġlu pi
Ġpro tÄĽ
ĠmÃŃ Äįe
c ovÃ½
Ġdobr Ã©m
Ġf lor
Ġp lÃŃ
Ġb lesk
Ġpr sty
Ġnapad lo
ĠH ad
Ġpar kovÃ¡nÃŃ
por tu
Z A
ĠzÃ¡ pis
ĠpÅĻÃŃ chodu
ĠuvÄĽdo mit
ĠpÅĻipo j
Ġkra tÅ¡ÃŃ
Ġtroji ce
ĠV Å¾dy
ĠchrÃ¡ nit
de ctvÃŃ
Ġvol nÃ½ch
K lad
Ġan kety
ĠÄĮer ven
Ġdu Å¡i
Ġlid ovÃ©
ĠzÃ¡j mÅ¯
v ÄįÃŃ
ĠÅ¾i vÃ©
Ġzvy klÃŃ
Ġpoku sy
Ġsp ory
ĠJe den
ĠS I
bÄĽ r
Ġkonzer v
ĠpÅĻÃŃ nos
Ġni zozem
Ġv nÄĽjÅ¡ÃŃ
ĠBul har
Ġnesk on
ĠpÅĻekon at
Zlo dÄĽj
ĠI ve
Ġsez nÃ¡mit
Ġpilo t
la mi
ĠdospÄĽ lÃŃ
Ġdota zy
Ġdovo z
ĠMo stÄĽ
St ÅĻÃŃ
Ġ8 6
ĠnechÃ¡ me
ĠNi sou
Ġpo stu
ĠdÃ¡ me
Ġte orie
Ġvstup nÃ©
T ER
Ġkli enti
ĠotevÅĻ eno
Ġpl nÃ©m
ba la
Ġve dlo
m rt
ĠHD P
ci ÃŃ
Ġinscena ce
Ġse dÄĽl
Ġme teoro
ĠpÅĻÃŃ stav
Ġs jezdu
J ez
Ġso chy
ĠblÃŃ Å¾e
B er
Ġkur zu
n Å¡tÃŃ
mÄĽr nÃ©
Ġpodpo ÅĻe
Å¡ Ã¡k
N Y
Ko lem
Ho kej
Ġde pre
Ġnez vy
li ch
ĠGa b
ĠzÃ¡ bra
Ġza hrÃ¡l
ri ÃŃ
ĠJan u
KaÅ¾ do
U Åł
i i
Ġdoporu Äįuje
Ġz ÅĻÃŃzenÃŃ
ĠC ol
Ġzave den
Ġla m
ĠFran k
ge ra
ĠhlÃŃ dka
g on
ĠzÅ¯ stali
ĠÃºstav nÃŃ
Ġd ni
Ġprezen tace
Ġdisci pli
Ġch ovÃ¡
ĠporÃ¡Å¾ ky
se y
ĠstÃŃ Å¾nost
ĠdveÅĻ mi
ĠÄĮeskosloven ska
Ġmezi roÄįnÄĽ
ĠzÃ¡ ku
Â ´
Ġzna Äįku
s vÄĽd
D lou
Ġte plÃ¡
Ġpo stava
le ni
ĠlÃ¡ sku
Åł e
Ġpo lÃŃ
ĠS tr
Ġbrig Ã¡
Ġodhad uje
ĠpÅĻiz nat
ĠzÃ¡ mÄĽru
Napo sledy
Ġoprav it
ce r
K OVÃģ
pÃŃ Å¡
ĠpÅĻÃŃ mÃ½
Ġdopad lo
mon o
Ġre perto
ĠBro dÄĽ
ĠFrÃ½ dku
ĠTepli cÃŃch
Ġpar ta
Ġvyso kÃ½m
ĠÅ¡et ÅĻÃŃ
Ġna dÄĽj
Ġali ance
Ġkost Ã½m
ĠSobot ka
ĠprobÃŃ hat
Ġsle du
Ġb el
Ġry tÃŃ
ĠE m
ĠsouÄįas nou
ĠnÃ¡hra du
Ġkab ine
Ġma p
Ġodhad Å¯
Ġna hlÃ¡
ĠÄĮer no
rÃ¡ tit
ĠpenÄĽ zi
Ġkultu ru
ĠpÅ¯vod nÃŃch
loÅ¾ ka
ĠpÃ¡ teÄįnÃŃ
ti ckÃ½m
Ġve dly
Ġrozhod ÄįÃŃch
k dy
v ory
Ġplat nost
Ġkom pon
ĠKo stel
Ġkonfli ktu
Ġprav ou
ks wagen
ĠÅĻÃŃ m
ĠMinister stva
Ġsamot nÃ½
metr ovÃ©
ĠvÃ½ lu
Ġkom pen
Ġobchod nÃŃm
ĠobrÃ¡ zky
mÄĽ ÅĻice
ĠtÃ©m ata
âĢ ¦
Ġk avÃ¡
Ġpas Ã¡
ĠznÃ¡m ky
Ġob orÅ¯
ĠSchwar zen
ĠÄĮ SA
Ġfil harmo
Ġpot la
sta lace
zd rav
Ġver nisÃ¡
Ġly Å¾ÃŃch
en skÃ½
Ġpolici ÃŃ
ho p
ĠM I
Ġnez tra
Ġpat ÅĻila
Ġkon tex
stup ovat
ĠSt Ã¡t
t kou
ĠJiho morav
ĠVÃŃ ce
Ġma ga
Ãģ LO
ĠSo kola
Ġko sti
ĠmimoÅĻÃ¡d nÃ©
Ġos ma
Å¾ Äı
ĠlÃŃ dra
ĠotÃ¡ zce
Ġp ta
h Ã¡d
P rovoz
Ġcel kovÃ½
Ġinten zivnÃŃ
Ġpou Å¥
Ġkonstat uje
A t
ĠpravdÄĽpodob nÃ©
ujÃŃcÃŃ ho
Dne Å¡nÃŃ
Ġz men
ĠAngli e
ĠÄįe sky
ĠRÅ¯Å¾i Äįka
ĠpÅĻi hlÃŃ
ĠchybÄĽ l
Ġnepo chybnÄĽ
ĠstÃ¡ tem
Ġod chy
Ġ7 9
k tech
Äį o
g as
ĠlÃŃ to
ĠpoÅ¾adav ek
Ġzach ovat
ĠnÃ¡ stupu
Ġnef ung
Ġdo hlÃŃ
rÃ¡ nu
ĠJi Å¾
Ġoprav d
ĠL ed
ĠÃºzem nÃŃho
ĠEvro pu
Ġome zit
ÅĻÃŃ Å¾e
ĠveÄįe ÅĻi
Ġsled oval
Ob Äįas
Ġvy Ãº
Ġarg ument
Ġk ÅĻ
Ġjak mile
DÅ¯leÅ¾it Ã©
Ġop ery
att ri
ĠnÃ¡ro da
sk Å¯
Ġs leÄį
p ani
Ġpit ÃŃ
Ġpotrav inÃ¡
Ġn ud
ĠvaÅ¡i ch
Ġstro jÃŃ
ĠbÃ½val Ã¡
Ġnemu sel
Sed m
ĠtÄĽÅ¾ kÃ¡
Ve Äįer
ĠrozpoÄį t
ĠtrÃ¡ vÃŃ
Ġkou pel
Ġta len
Å¡ eni
Ġse tr
Ġban ce
vak u
ĠnedÃ¡ vnÃ©
Ġin stala
Ġkau ze
Ġam bice
Ġodp Å¯r
ĠÅ¡pat nÃ¡
Ġbilan ce
Ġpat ro
Ġutek l
m ity
Ġzaji stil
b rod
ĠKlad nÄĽ
ĠIntern ational
ĠcÃŃ sa
Ġreprezen ta
Ġminist rynÄĽ
ĠschvÃ¡ lenÃŃ
ĠmÃ©di ÃŃch
ĠDu kly
By ly
S D
ĠI va
ĠzÃ¡chra nÃ¡ÅĻi
VÃ½ sledek
Ġk art
Ġre d
Ġmeda ilÃŃ
Ġje li
Ġpracov nice
S LAV
Ġob drÅ¾ÃŃ
ĠdÅ¯chod ce
ĠVÃŃ dni
g in
ovo l
k el
Ġvy rost
Ġkraj skÃ©m
ĠÅ¡ko lou
ĠArg ent
ĠvÄĽ Å¾e
ĠpÅĻiprav eny
ĠobrÃ¡ zek
ĠG am
Ġvra cet
ĠdevÃ¡ tÃ©
Ãģ T
d anÃ½
Ġne chod
Mu Å¾i
Ġdoprovod u
ĠremÃŃ zu
Ġtisk ovÃ½
Ġ9 6
K lub
qu a
Ġra dÃŃ
Vel kÃ½
ĠÃļÅĻad u
Ġk va
Ġsva te
ĠVero nika
ĠovlÃ¡ dÃ¡nÃŃ
Ġho rizon
le jte
ĠÅ½ ÄıÃ¡
Ġre por
ĠmezinÃ¡ rodnÃŃm
ak cÃŃ
Ġkraj Å¯
Å¡ ovice
Ġglob Ã¡lnÃŃ
st ily
Å¾i vo
A b
ĠN es
Ġhra jÃŃcÃŃ
j o
ĠnÃ¡ la
ĠpÅĻedstav ila
ĠdozvÄĽ dÄĽl
ĠpÅĻ Ã¡l
Ġdo razil
spÄĽ ch
ĠÃº raz
Ġpro chÃ¡zÃŃ
ĠpronÃ¡ sled
ĠÃºdrÅ¾ bu
Ġpra men
V r
Ġnapro ti
Ġodbor nÃ½ch
ĠprohlÃ¡ sila
bÃŃ rat
chod nÃŃ
Ġn Å¯Å¾
ĠRo si
Ġzdrav Ã©
ĠA kadem
ĠposÃŃ lenÃŃ
Ġby dliÅ¡tÄĽ
ĠZ u
Ġvarian ty
ĠnÃ¡sled ovat
Ġle sÅ¯
ĠscÃ© na
Ġlete ckÃ©
ĠDu Å¡an
NÃ¡ vrh
Ġu ch
ĠpodmÃŃn kou
stou pila
ĠBohu slav
Ġfrancouz skÃ©ho
Ġprodu ktiv
Ġpostup ovat
pa cit
Ġkontak ty
f tu
ĠzmÄĽ nilo
ĠG alerie
ĠsÃŃ dlo
Ã¡ teÄįnÃŃ
Davi d
ĠprohlÃŃ dky
v ra
Ġpodpo rou
v enÃ©
ĠzprÃ¡ vÄĽ
Ġodbor nÃŃky
Ġpon dÄĽl
Ġuchaze ÄįÅ¯
ĠuspÄĽ t
Ġprost itu
Ġnesp l
Ġex port
NedÃ¡ vno
ĠpÅĻiprav enÃ©
ĠvÃ½ sad
ĠdÃŃ vek
Ġmaji telÅ¯
ĠS vÄĽ
ĠM alÃ©
Ġvznik ly
ĠTi mes
Ġ0 2
ĠdevatenÃ¡ cti
Ġk ori
Å¡ ta
ĠtrÃ¡vnÃŃ ku
3 4
ĠnÃ¡ ladu
sf al
ce lku
Ġspar Å¥an
Ġse tu
l ovÃ¡nÃŃ
Ġale r
ĠLo komo
ĠschvÃ¡ lili
ĠPÃŃ sek
cion ali
Ġs nÃ¡
Ġne ve
Ġkam ery
ĠsvÄĽ ÅĻil
ĠtÃ© hle
Odbor nÃŃci
u ri
ĠpÅĻedcho zÃŃm
S ez
Ġpostav ili
Ġhra cÃŃ
ĠprÃ¡ vem
bÃŃ ral
ĠMo stu
Ġosla vÃŃ
Ġhra dÄĽ
ĠÅĻÃŃ dil
VÅ¾dy cky
Ġra dosti
ĠnÃŃz ko
Ġrad Å¡i
vÃ© zt
Ġna Å¡t
Ġp ul
ĠS kÃ¡
mo der
ĠHavÃŃ ÅĻ
Ġsna Å¾ÃŃm
Ġzpravodaj stvÃŃ
Ġ6 1
Ġzdravo tnÄĽ
Å¥ ast
Ġpotvr dili
Ġsta Äįil
cen Ã©ho
Ġvy nÃ¡
Ġkont rover
ĠJan em
Ġtou Å¾ÃŃ
Ġodbo rÃ¡
Jak Ã¡
ĠT lu
Ġinform ovat
Ġnejob lÃŃb
ho n
Situa ce
Ġslav nÃ½
3 8
Ġna stal
Ġkole na
Sou ÄįasnÄĽ
ĠÅ¾i jÃŃcÃŃ
Ġu tÃŃ
ĠnedÅ¯ vÄĽ
Ġprivati zaci
Ġv inu
Ġko pÃŃ
ĠtrenÃ© rÅ¯
ĠnechtÄĽ li
K ÃĿ
ĠÃºÄįe lem
enÃ¡ ch
ĠVi etna
Ġch rÃ¡nÃŃ
O st
ÅĻ ovÃ¡
ĠzÃ¡bav u
Ġporo du
sk ovÃ©
ĠdÄĽlÃ¡ m
ĠÅ¡e desÃ¡tÃ½ch
ĠplÃ¡n ovanÃ©
Ġuz nÃ¡nÃŃ
pi ce
Ġg ig
ĠD ne
A P
kov skÃ©
Ġnaro dila
ĠM inisterstvo
Zem ÄĽ
Ġkle sl
Ġpat ÅĻe
Ġfar mÃ¡
Ne vy
Ġzvo lit
ĠhrÃ¡ ch
ĠpÅ¯j dou
Ġsp Ã¡t
h Ã½m
ĠÄįist ÃŃ
S vou
ĠpÅĻe mÄĽ
ĠpÅĻeno su
alÃŃ k
ĠvÃŃtÄĽ zem
ĠzÃ¡Å¾it ky
ĠMan ch
Ġpla kÃ¡
Ġexper ti
ĠvÄĽ ÅĻi
ĠV arÅ¯
Ġob ez
m Å¯Å¾e
ji lo
dÄĽ jÃŃcÃŃ
ĠstÃ¡ tÄĽ
cho zÃŃ
Ġru skÃ½ch
Ġku cha
Ġvyda vatel
ĠvÃ½ hled
ĠA utor
Ã¡ ni
ĠstÃ¡ ÅĻÃŃ
Ã© rem
ĠusmÃŃ vÃ¡
Ġho lky
ĠpÅĻesvÄĽd ÄįenÃŃ
ĠVese lÃŃ
Ġfa ul
Ġcelost Ã¡tnÃŃ
Ġsna Å¾ila
ĠpÅĻi pravÃŃ
ĠodmÄĽ nu
Ġc ountry
ĠelektrÃ¡ ren
Ġs ve
ĠzÃ¡slu hou
Ġkom erÄįnÃŃ
Ġex hi
rov stvÃŃ
Ġefek tiv
d anÃ¡
Ġle ta
mysle l
Ġvysoko Å¡kol
ĠztrÃ¡t ou
Otev ÅĻeno
sp er
Ġpe Äįi
ĠpomÄĽ ry
Ġopra va
Ġpro hra
Ġsto le
Ġnedo kÃ¡Å¾e
ĠN Ãģ
Ġekologi ckÃ©
ĠprÃ¡zdn inÃ¡ch
Ġvoli Äįi
Ġ194 8
ĠWashing tonu
S lavi
Ġro bo
ĠKo hou
ĠnÃ¡z vu
Ġpocho pit
ĠdesÃ¡t Ã©
Ġbud ovÃ¡nÃŃ
jde te
ĠÅ¡kol nÃŃho
mÃ¡ hÃ¡
Ġ15 8
Ġgene raci
Ġner vy
Ja ro
Ġotev ÅĻela
ĠnezamÄĽstnan ost
Ġkur zy
ĠPar la
ĠsprÃ¡ vu
ĠÅłkod y
ĠJan ou
Ġpodob nou
Å¾e lo
ĠVese lÃ½
chop il
ĠzÃŃ tÅĻe
ĠA rt
ĠzÃ¡vi sÃŃ
Ġho ld
ĠK re
ĠpÅĻÃŃ Å¡tÄĽ
Ġpod r
ĠvÃ½znam nÄĽ
Ġabsolu tnÄĽ
kla da
tÃ¡ k
rÅ¯ stÃ¡
N emo
Ġdo Äįas
Ġnaj deme
nes li
ĠvidÃŃ te
Ġzdro jem
Å¾ dÄĽnÃŃ
m as
ĠuÅ¡et ÅĻit
Ġpu stil
Ġ0 8
Ġautomob ily
ĠdokÃ¡z at
Ġpol skÃ©
ĠÄįa rodÄĽj
ĠmÄĽst skÃ½
Ġod jel
ĠB Å¯h
toch vÃŃ
O proti
ent Ã¡lnÄĽ
Ġsch rÃ¡n
Ġostrav skÃ©
Ġpodob y
Ġo mÃ¡
Ġobrov skÃ¡
ĠnovinÃ¡ ÅĻÅ¯
ĠmlÃ© ko
ra k
Ġpad l
Ġzt vÃ¡
ĠH N
ĠzÃ¡ dech
Ġinvest orÅ¯
Ġjednoduch Ã½
mo stÃŃ
Ġvy razÃŃ
Ġvod Ã¡
Ġroz voji
3 6
nÄĽ nÃ½m
Ġhra jeme
ĠotÃ¡ z
ĠLÃ¡ znÄĽ
ĠÄįe lÃŃ
ĠKlad na
Ġza drÅ¾
ku py
ĠFran cou
ĠnÃ¡d voÅĻÃŃ
ĠdÅ¯leÅ¾it ÄĽjÅ¡ÃŃ
ĠvÃ½da jÅ¯
Ġza o
ĠSvobod y
L ou
Ġchla pec
ĠLu Å¾
Ġp lic
Ne s
Ġvla ky
Ġzmi zel
Ġte stu
Ġkoru pce
Ġosm desÃ¡tÃ½ch
tah uje
ĠzÃ¡ hy
Ġtom hle
Ġvy chut
Ġle du
Ġhudeb nÃŃho
ĠdÅ¯leÅ¾it ou
ĠlÃ©Äį bu
Ġlavi Äįce
Ġcho rob
Ġvl ny
ov ec
Ġves mÃŃru
bu lan
Ġvy jÃŃt
ĠdokÃ¡Å¾ ou
ĠzmÄĽ nÃ¡m
ĠvyÄį le
IN G
Ġex plo
ĠÃºsmÄĽ v
ĠvzpomÃŃn ky
ku jeme
Ġsly Å¡el
ĠnepÅĻe tr
Ġkomuni stickÃ©
Ġsto procent
Ġod poÄį
Ġse Å¡lo
Ġr ene
ĠmÄĽst skou
T re
Ġvyrov nanÃ©
Ġvy razit
ĠdÅĻevÄĽ nÃ©
Ġuveden Ã½ch
Ġmamin ky
Ġpro slav
ĠUni ver
ĠuÄįitel ka
Ġv livu
ji Å¡tÄĽ
Ġ0 5
Ġzastupitel stvÃŃ
Ġevi dent
Ġstar tuje
Ġtradi ÄįnÃŃch
Äįet l
ĠjejÃŃ mu
ĠO tak
ĠzvÃŃtÄĽ zila
Ġstud ovat
Ġmas Ã¡
Ġuzav ÅĻÃŃt
ĠÃºÄįin ky
ĠVeli kono
Ġrezer vy
ĠB BC
ZÃŃ tra
re dak
ĠMosk va
Ġne hoda
enÃŃ k
ĠÄį lena
ĠL I
R odiÄįe
Ġpro mÃŃ
ĠLeto s
ĠÄįi li
let Ã½ch
Ġsamot nÃ©ho
ĠprovÃ¡ dÄĽt
ĠzÃ¡kaz nÃŃk
Ġuni for
ĠspoleÄį nou
Mo st
ĠuÄįi telÅ¯
J ana
ĠpÅĻi dali
Ġsto p
Ġoko lnÃŃ
NÄĽ co
rÅ¯ v
Ġkra bi
ĠvÃ½ pla
Ġradi o
Ġpro bÄĽhla
Ġpara metry
ĠpÅĻÃŃ chod
O sm
Ġne zÃŃ
ĠpapÃŃ ry
ĠpoÅ¾ad uje
ĠK lÃŃ
T CE
dÃ¡ n
Å¾ nÃ©ho
lov ice
Ġosob ÄĽ
Ġost rovÄĽ
ĠaÄį koliv
ĠA P
ĠletoÅ¡ nÃŃch
Ġpozor nosti
ĠsloÅ¾it ÄĽjÅ¡ÃŃ
ĠÅ¾en skÃ©
mÃ½Å¡le l
ĠO DA
ĠpokraÄį ovala
Ġzre konstru
ĠnÃ¡ lez
ĠJi sk
f fe
ĠneuvÄĽ ÅĻitel
ĠsvÄĽd kÅ¯
ĠHla vÃ¡
ĠmÃ¡ Å¡
ova nÄĽjÅ¡ÃŃ
Ġspo ÅĻenÃŃ
Ġvz hÅ¯ru
tÃ½ kÃ¡
3 2
Ġkonce p
ĠromÃ¡ nu
n iny
u ju
bor y
ĠT es
ĠT re
ĠdÃ© Å¡Å¥
ob or
ko stÃŃ
ĠmoÅ¾ nÃ½
Ġkr vi
Ġzare gist
ĠurÄįit Ã½ch
ĠzranÄĽ nÃŃm
t aly
ĠpÅ¯ du
ÅĻ enÄĽ
k ant
av o
ĠVe le
E ST
p Ã©
J ÃŃ
Ġzim nÃŃm
ĠtÃ¡ bora
ka r
ĠvÄĽz nice
Ġs ad
ĠvÃ½povÄĽ di
Ġob ory
Mi roslav
Ġpod veÄįer
Ġroz mezÃŃ
Ġhistori ckÃ©ho
ĠW ar
Ġw e
Åł tÄĽ
ĠÃºvÄĽ ry
Ġve ÄįÃŃ
Ġmi len
Ġtep lÃ©
Ġd rÃ¡Å¾
ni ckÃ½m
ĠpÅĻÃŃspÄĽ vku
ĠA ne
Ġbrit skÃ©ho
K r
ĠTi p
Ġuzav ÅĻena
ĠsÃŃd liÅ¡ti
ĠzakÃ¡ zek
Ġa spe
ĠsnÃŃ Å¾ÃŃ
ĠzmÄĽ nou
Ġprinci p
ĠmladÅ¡ÃŃ ch
Ġdefini tivnÃŃ
Ġlou pe
Ġbez peÄįÃŃ
Ġfol klo
ĠF I
Ġkilomet ru
Ġb onu
Ġknihov nÄĽ
ĠF ra
Ġzep tat
ĠvÃ½ch ovy
ĠMarkÃ© ta
Ġvz dÄĽla
Ġmo rÃ¡l
ĠpÅĻes Ã¡
Ġta xi
Ġak cÃŃch
teÄį nÃ½ch
Ġpat ÅĻi
ĠuÅ¾i vatele
ĠM Äļ
ĠpÅĻispÄĽ l
Ġo stu
ĠpÃŃse ÅĪ
r ÃŃ
Nej Äįa
Ġd ou
a Å¾
Ġdne Å¡ka
Ġvl na
Kar lovy
Fran ti
Ġ18 9
ĠÄįe kalo
lo ga
Ġobyvatel stva
ĠzÃ¡kon odÃ¡r
je lo
ĠI T
Ġh tt
Ġp alu
va Äįe
ĠDani ela
ĠReu ters
Ġzaslou Å¾enÄĽ
Ġgym na
Ġvyrovnan Ã½
Ġleta del
R Y
Ġopat rnÄĽ
VAD LO
Ġprojev uje
V O
Ġsil nou
ĠpÅĻes nÃ©
Ġupozor nit
ĠS ovÄĽt
ĠM UDr
Ne bylo
hÃ¡ nÄĽt
Ġmo tivy
Ġa sfal
Ġbezpro stÅĻednÄĽ
ĠpÅĻije la
Ġpsychi cky
ĠFe de
ĠÄĮS OB
Ġod o
ĠvÃ½jim ky
Ġspoj uje
Ġs enÃ¡
ĠH ory
ter nÃŃ
Ġhosp ody
ĠPol sko
dÄĽla la
li ny
ĠvÃ½mÄĽ nu
Z Ãģ
ĠnemÄĽ nÃŃ
ĠtÄĽhoten stvÃŃ
UD ÃģLO
Ġsoubo je
K vali
ĠS mo
Ġlid skÃ©ho
Ġm ÅĻÃŃÅ¾
Fe stival
ĠvraÅ¾ du
tor Å¯
Ġkoord in
ĠpÅĻÃŃ kladem
Ġinf lace
ĠZ ub
Å¡ eny
ĠkancelÃ¡ ÅĻi
Ġza te
ĠpoÅĻÃ¡ dajÃŃ
Ġuzav ÅĻela
ĠÄįerven ou
ĠvytÃ¡ hl
ĠzÃ¡ dy
Ġnez bÃ½vÃ¡
Ġspeci Ã¡lnÄĽ
ĠUniverz ity
ĠnenÃ¡ pad
Ġsta Äįit
Ġtelef oni
G ene
ĠstÃŃ hÃ¡
Rov nÄĽÅ¾
Ġli n
Ġreali ty
LÃ©ka ÅĻi
ĠpÅĻÃŃ no
Ġrozu mÃŃ
rÃ¡ ty
Å½ eny
an ky
Ġklu ky
ĠnevÃŃ me
ĠB rou
ĠL ang
Ġveli kono
Ġd ovÃ¡
ĠzÃ¡ bava
Ġben zin
ran Ã½ch
Ġdo lnÃŃ
ĠnÃ¡ strojÅ¯
Ġze Äı
ĠbÄĽÅ¾ nÃ½ch
Vladi mÃŃr
S peci
ĠW olf
Ġautomobil ky
Ġobsa hem
bra la
ĠpÅĻiprav eno
Ġpo ta
ĠAn der
Ġparlament nÃŃ
Ġi r
on em
Ġekonomi ckÃ½ch
ĠmÃ¡ la
Ġpravo moci
Ġvytvo ÅĻila
Ġ12 5
Ġz vaÅ¾
ĠD al
Ġbran ka
B ÃŃ
ĠnejtÄĽ Å¾Å¡ÃŃ
Ġhtt p
Ġco koliv
C ent
ĠJaku ba
Ġbar vu
ĠnechtÄĽ la
Ġneda lek
Ġroz sudku
ĠÄĮ u
In formace
Ġno hu
ĠpÅĻÃŃtom nosti
ĠzpÅ¯sob it
ĠrozhodnutÃŃ m
Ġzem ÅĻela
Ġro st
Ġobsa zenÃŃ
ĠHavÃŃ ÅĻov
Ġopti mÃ¡lnÃŃ
Ġst ÅĻi
Ġp et
ĠvÃ½ bav
Ġod dÄĽle
Ġvolan tem
h nÄĽ
ĠdrÃ¡ ze
ĠVyso kÃ©
Ġspad l
Ã¼ ck
Ġru bri
Ġkabine tu
Ġpad Ã¡
Ġzkou Å¡ka
ĠÄįist Ã½
Ġz moc
ÄįtyÅĻi cetiletÃ½
Ġzapo jit
ĠRak uÅ¡
ĠsoustÅĻe dit
Ġtole ran
do m
ĠjakÃ© si
n skou
me ÅĪte
Ġenerge tickÃ©
Ġkomplika ce
letÃ© mu
Ġmag ne
Ġmobil nÃŃch
ĠobvinÄĽ n
ĠDy na
ĠklÃ¡ ves
Ġin vali
ĠsprÃ¡ vÄĽ
Ġne hodu
k nou
ĠpotÅĻeb oval
ĠniÄįem u
zna jÃŃ
Ġna bit
lÃŃ kovÃ¡
Ġtrest nÃŃho
Ġnetra diÄįnÃŃ
Ġod kaz
ĠC al
Ġo heÅĪ
ĠS na
ze li
ĠzmÃŃ nil
ĠVlt avou
ĠpÅĻij at
Ã© rou
Ġpodstat nÃ©
Ġus nad
Ġzby tky
S et
livÃ½ mi
Ġz hot
ĠpÅĻÃŃzniv cÅ¯
ĠMi ke
Ġzje vnÄĽ
Ã¡r ny
ĠÄĮ NB
Ġekonomi ku
Ġtra sa
Ġhosp it
Ġbohat Ã½
Ġkape l
Ġpreven ce
SpoleÄį nÄĽ
Ġvznika jÃŃ
Ġk inÄĽ
ĠzahÃ¡ jila
ĠB l
Ġpro Å¾ÃŃ
ĠJ I
Pr emiÃ©r
ĠpodÃŃ lÃŃ
Ġvar uje
ĠmÃŃ ra
ĠÄįe kala
Ġpovod nÄĽ
an eme
M ist
Ġmo ji
Ġtechni kou
ĠNe uman
Ġro lÃŃ
4 7
Ã© ma
Ġjednodu Å¡Å¡ÃŃ
Ġok no
Ġpru dce
ĠÅ¡Å¥ast nÃ½
ĠzÃ¡ stav
ĠvojÃ¡ ky
Ġztra tili
ÄĮ T
Ġpro tÃ¡
Druh ou
ĠvÃ½chod ÄĽ
ĠumÄĽl ci
ĠtÃŃ s
ĠÄįer nÃ½
Ġnastou pili
Ġcizin cÅ¯
3 7
Ġschop na
F OTBAL
Ġchod il
ĠnabÃŃze t
Ġkomuni stÅ¯
Ġhistori cky
S la
3 1
Ġpro dava
Ġpomo hlo
ĠpÅĻiprav ovat
ĠKo men
ĠM Ã¼l
Å¡e lo
Ġnedo sÃ¡
ĠpÅĻi ta
ĠÅĻÃŃ kala
Ġcent r
ĠpÃ³di u
ĠproblÃ©m Å¯m
Ġves mÄĽs
ĠlÃŃ ÄįenÃŃ
c Ã¡
Ġadminist rativnÃŃ
ĠnÃ¡ vy
T er
b Å¡ÃŃ
ĠM otor
ĠAl b
ĠoÄįekÃ¡ vajÃŃ
sk ak
Å¡en Ã©ho
j me
ĠnÄĽkter Ã½
lÃŃ z
Ġod stÃŃ
N ICE
ĠstÃ¡ je
ĠvÄĽt ru
Ġobli Äįej
Ġadvo kÃ¡
ĠSpar tu
Ġ8 2
Ġpam Ã¡tku
j nÃŃch
ĠsmÅ¯ lu
Ġorchest r
ĠpÅĻÃŃ jezdu
Ġprodu ktu
kÃ¡ me
Ġkonfli kt
ĠÅ¡ ik
Ġod star
Ġp um
ĠÃº le
a fri
ĠÄįe skÃ½mi
ĠÃºn or
Ġada p
Z hruba
s nou
ĠpÅĻi slÃŃ
Ġz nojem
Å¥ a
Ġa ro
Ġpou Å¡tÄĽ
Ġcy klostez
ĠpÅĻed stava
Ġdokumen tace
S le
ĠklÃŃÄį ovÃ©
ĠvÃ½znam nÃ½
ĠÅ¡ ÅĪÅ¯
Ġt ari
Ġpr Ã©
ĠzÃ¡ jezd
ĠodmÃŃt li
Å¡ nou
ĠÅ¡ pin
ĠVÄĽ tÅ¡
Ġnerv Ã³znÃŃ
Ġepi dem
Ġsk rom
Åł lo
Ġk ob
Ã¡ tu
ĠZ la
Ġpl nit
ĠTa chov
Ġjednot ka
komu ni
en skÃ©
ĠÃº pravu
ĠpÅĻi dÃ¡me
v ci
ÄĮ NÃį
Ġbez peÄįnÄĽ
Ġodhad nout
Ġse dÄĽt
Ġpe vnÃ©
d skÃ©
Ġza me
Ġho stÅ¯m
Ġroz sah
Ġchla pci
Ġvo zem
ĠpÅĻede Å¡
Ġpotenci Ã¡l
ĠMÄĽ stÄĽ
Ġupozor nila
Ġplane ty
Ġci rku
Ġpoku ta
d kou
Ġvla kem
n cem
vod nÃŃ
men a
ĠutkÃ¡ nÃŃm
Ġpa peÅ¾
M F
B Y
Ġexpozi ci
Ġinteri Ã©ru
Ġv celku
Ġneji sto
Ġjim Å¾
lo w
Ġvez me
Äį ar
dy ch
Ġp asi
Ġvy lÃ©
ĠnabÃŃd kou
Ġmil Ã¡
li vosti
Mo je
c om
Ġzla ta
Ġlibere ckÃ©
Ġbra tra
Å¾ ce
ĠS D
Ġka pacit
ved lo
Ġpoznamen ala
ĠDiva dle
Tak ovÃ¡
ĠÅ¡o ku
ĠR am
Ġ18 8
Pod rob
v kami
Ġnej za
ĠreÃ¡l nÃ©
ĠVikt orie
at ra
sÃ¡ no
Ġprode jnÃŃ
ĠpÅĻÃŃslu Å¡nÃ©
Ġnedostat ku
ĠUni ted
Ġshodu jÃŃ
Ġblo ku
kti vu
hod nÃ¡
Ġra ket
ĠÅ¡Ã©f em
Ġzak lada
H y
Ġperson Ã¡lnÃŃ
ĠnÄĽme ckÃ¡
Ġtransp ar
sla nci
---- ----
ĠnÄĽjak Ã½ch
Ġpropo jenÃŃ
Ġtra su
lov Ã½m
ĠBla Å¾ek
Ġex klu
ĠV ej
ĠmÃ¡lo kdo
Ġu kli
ĠAnto nÃŃna
ĠStan ley
ĠV Å¡ichni
ĠE du
f fi
ĠobliÄįe je
Ġty Äįi
ĠVÃ½ bor
ĠobrÃ¡ tit
ĠvÃ½ nos
let Ã½m
ĠÅĺ ez
Å¾ nÃŃho
dle ch
ĠV ino
ĠzdÃ¡ t
P ri
ĠF ord
Ġhud bou
Ġkontro lnÃŃ
Ġnejrych leji
ĠveÅĻej nou
Ġna ruÅ¡
d nou
s vÃŃ
Ġsou dy
ĠKalou sek
ÄĮe Å¡tÃŃ
Ġf as
O de
ĠTÄĽ Å¡ÃŃ
Ġam bulan
Ġpo no
ĠodbÄĽ ra
Ġskla da
ĠM P
ĠHe ÅĻ
Ġkdyby chom
Ġs Ã¡lu
as o
Ã¡l ky
ĠA li
Ġw ith
ĠdrÃ¡ hu
ĠF ar
ĠsvÄĽt le
Ġparadox nÄĽ
Ġsor ti
Ġztra tila
u ra
Ġop on
Ġmini mum
Ġnor my
Ġstatisti ky
rÃ¡t Å¯
Ġnedosta li
bo ar
ĠJapon sku
Ġvi di
ĠsluÅ¾ bÃ¡ch
ver po
ĠvÄĽ r
ĠpÅĻÃŃ znak
a mi
em ori
ĠB et
Å¾ ba
Ġmen u
Ġnej slav
ov iny
ĠvysvÄĽt loval
Ġcestov nÃŃho
ĠzakÃ¡ zku
Ġvstou pit
UDÃģLO STI
Ġvy chy
Ġ er
f oni
tel skÃ©
Ġpomo hli
Ġren om
hov or
ĠnemÃ¡ te
ĠpÃ¡ te
ĠpÅĻedvo lebnÃŃ
Tak y
ĠtÅĻi cÃ¡t
ĠhÅ¯ ÅĻ
Ġroz vÃ¡
Ġeu roz
ch t
Ġk rav
ĠvytvÃ¡ÅĻe t
je r
Ġna i
ĠpÅĻivÃŃ tÃ¡
rov Ã½m
ĠâĢ ĺ
ĠHo ÅĻe
ĠG ALERIE
ĠÅłpanÄĽl sku
ĠT ato
kÃ¡z alo
Ġjezd ci
Ġje vÃŃ
S lov
ĠÃº kon
ĠromÃ¡ n
ĠnalÃ© zt
p ti
Ġti skÃ¡
Ġob zvlÃ¡
Ġnedostat ky
ĠK INO
Ġe vaku
Ġdobrodru Å¾stvÃŃ
Ġpotvr zenÃŃ
chÃ¡ m
Ġcharak teru
ĠsezÃ³ nu
ĠolympiÃ¡ dÄĽ
ĠpÅĻi vÃ¡
Ġu klÃŃ
ĠVy Å¡kov
Ġhmo ty
ĠJo han
T P
Ġprinci pu
ĠvymÄĽ nit
s nu
Ġzna Äįka
ĠjÃŃm Å¾
Ġza jÃŃmat
Ġinfrastruktu ry
zi i
ÅĪ skÃ½
p rÅ¯
Ġkap sy
rÃ¡ Å¾i
Ġlokali ty
Ġpodpo ÅĻÃŃ
ĠHra diÅ¡ti
ĠmÃŃst nost
Ġprakti ckÃ©
Ġvzrost l
h art
ra ly
Ġsni Å¾ovÃ¡nÃŃ
pu stila
ova teli
Ġdiplo mati
Ġsy stem
Ġpochval oval
ĠÃºsp ory
ĠvyjadÅĻ ovat
Ġsta bilnÃŃ
Hod no
Ġch ro
Ġob sta
sle m
Ġro dÃ¡
ĠvyprÃ¡vÄĽ nÃŃ
Ġinten zivnÄĽ
Ġt alÃŃ
ĠpÅĻedse dkynÄĽ
ĠnÃ¡sled nÃ©
tÄĽ Å¾e
Ġpan el
ĠpÅĻipo menout
ĠpÄĽt advaceti
ĠWashing ton
lo Å¾ili
Ġci tro
ste vnÃŃ
Äļ J
ĠT roj
ĠpodÄĽ kovat
rozu mi
chÃ¡ zenÃŃ
hla Å¡uje
Ġben z
Ġsil ou
ĠMu sÃŃme
ĠProstÄĽj ovÄĽ
ĠA p
Ġte be
rov anÃ½
Ġu jÃŃt
zÃŃ t
al ovÃ¡
ĠcelkovÃ© m
Ch tÄĽli
ĠsvÄĽ tem
C a
Ġpolov i
Ġkapit Ã¡na
Nej vyÅ¡Å¡ÃŃ
Ġnesta Äįil
19 9
Ġkom er
Ġboj ovali
Ġzapla til
ĠpÅĻÃ¡ teli
Ġpla vÃ¡nÃŃ
ĠsbÃŃ rku
ĠT vr
Ġnemuse li
ĠZ im
ĠprodÃ¡ vajÃŃ
Ġpro dal
ĠzÃ¡pad nÃŃch
Ġhez kÃ©
Ġp ilÃŃ
Ġdozor ÄįÃŃ
Ġob novi
Ġvy lu
lÃ¡ me
Ġz mrz
Ġhandica p
ĠdÃ¡l nic
Ġd aly
Ġten ist
ÅĪ ovala
ry ho
Ġvz dal
am pi
ĠpÅĻÃŃrodnÃŃ ch
Ġzdravot nÃŃho
Ġzahra da
Ġpolici stÅ¯m
ĠzvyÅ¡ ovÃ¡nÃŃ
Ġkontro lovat
z nÃŃch
Ġpohla vÃŃ
Ġkoment ovat
ĠZ i
Ġletad lo
ĠMÄĽ li
ni ÃŃ
Ġode hraje
Ġa rÃ©
Ġko pce
Ġnemo cÃŃ
Ġlo dÄĽ
Ġposkyt ovÃ¡nÃŃ
Ġpad ÄĽ
Dob ÅĻe
ĠnÃ¡mÄĽst ka
n aly
tej te
ĠÅ¡ er
ĠvÃ½znam nou
ĠspoluhrÃ¡ Äįi
Ġspeku lace
Ġameri ckou
Ġnad chÃ¡zejÃŃcÃŃ
Ġkontro la
su s
va b
F or
F C
ĠP P
tu ÅĻe
ina ÄįnÃŃ
ĠuskuteÄį nit
ĠspotÅĻe ba
ĠnevÄĽ dÃŃ
ĠK el
nÃŃ kovi
pa ce
Ġdostane te
ĠnÃ¡ bytek
ĠmalÃŃ ÅĻ
ĠkrÃ¡tkod ob
ĠK ultu
ĠnÃ¡ ru
Ġro du
Ġsen Ã¡t
bu jeme
da m
Ġspolu Å¾Ã¡
mÄĽr nÃ¡
pad ne
Ġhlas ovat
ĠpÅĻe ruÅ¡
v nice
Ġza drÅ¾eli
li ckÃ©
ĠKu bÃŃ
Ġpra sk
TÄĽ Å¾ko
ĠzÃ³ nÄĽ
ĠV av
Ġdobrovol nÃ½ch
PÅĻe kva
morav skÃ©
ĠA tÃ©
Ġrezi gn
Z denÄĽk
Å¡Å¥ Ã¡l
ĠBro du
Ġpardubi ckÃ©
P er
ĠÅ¾ivo to
Ġp ovÃ¡
ĠStani slava
ĠpoptÃ¡ vka
Ġvy pÃŃ
ĠMo Å¾nÃ¡
ĠA sociace
ĠrozdÃŃ lem
ĠnovÃ© mu
Å¾ ovali
ĠS ku
Ġsko k
Ġodbor Å¯
Ġroz tr
Ġkon ajÃŃ
Ġprac ovala
ĠsÃŃ ni
ĠÃº kor
Ġcel kovou
Ġvaz bÄĽ
ĠLa be
Ġpe st
ci a
Ġvoleb nÃŃho
nÃŃ me
Ġzak a
dÃ¡ vna
Ġjuni orÅ¯
ĠzahÃ¡ jili
Ġstan ovÃŃ
Ġ. .
stav il
Ġta h
ĠzajÃŃmav ou
sto jnÃŃ
Ġzkou Å¡ku
le nÄĽ
ĠpÅĻÃŃ kaz
dr Ã½
Ġdu chov
ĠM ak
ĠpÄĽ sti
ĠE liÅ¡
Ġpod lÃ©
ĠmyÅ¡len ka
ĠzÃºÄįast nil
ĠSpart ou
ĠvÃ½hod nÃ©
Ġcen ter
Ġsr dci
Ġpodle hli
Ġameri ckÃ©m
tel nost
Ġsezon ou
h as
Ġz mat
Ġv on
Ġro dÃ¡k
R I
ĠstÅĻe la
Ġpodrob nosti
ĠpÄĽt advacet
Ġfotba le
Ġchod ce
ĠRoz hod
ĠP y
rob lÃ©m
m Ã¡l
Ġnada ce
ĠcÃŃrke v
O pÄĽt
ĠPri ma
Ġpu stit
ti vu
Ġjubi le
NÄĽk do
van ge
ZÃ¡ leÅ¾ÃŃ
ĠmanÅ¾el ky
ĠspÃ¡n ku
Ġroz hled
ĠobhÃ¡ jce
ĠpotÃŃ Å¾ÃŃ
ĠpozdÄĽ jÅ¡ÃŃ
Ġbra l
f un
tÃŃ k
ĠÃº klid
ĠvÃ½ znamu
Ġpodob nÃ½m
Ġvybra la
ĠbrnÄĽ nskÃ½
Ġmet ry
ĠzÃ¡bav y
Ġtram vaj
ĠvÃ½ pad
Ġnep ova
ĠpÅĻÃŃ tele
ĠnepÅĻÃŃ liÅ¡
V er
ĠBa ro
Ġvlou pal
lan du
Ġod ra
ĠnÄĽme ckÃ©m
3 9
O s
ĠpÅĻed povÄĽ
Ġdosa Å¾enÃŃ
Ġvyj men
Ale spoÅĪ
Ġsy nem
j du
ĠMora va
kÃ¡ ÅĻe
ĠzamÄĽstnan ec
ĠskrÃ½ vÃ¡
Ġdo ne
Ġk var
Ġpoh lav
ĠvybÃŃ rÃ¡
Ġkomu nÃ¡lnÃŃ
Ġbyzny s
Ġochot ni
skÃ¡ ch
Tak hle
ĠV V
ĠÅ½i Å¾
v Ã©m
ou Å¡tÃŃ
ĠvytÃ¡ pÄĽnÃŃ
Ġrozhod nou
Ġ0 6
ĠnÃ¡rodnÃŃ ch
ĠB ori
nÃ¡ ÅĻÅ¯
Ġvy tÄĽ
Ġzru Å¡il
Mi lan
tern ber
la bÃŃ
ĠpÅĻe ci
ĠsvÄĽ dectvÃŃ
ĠzÃ¡ko nÃŃku
Ġ7 1
Ġnej radÄĽji
Ġstrate gii
ĠnÃ¡rod nÃŃm
ni a
ĠvlÃ¡ dne
Ġolomou ckÃ©
ky nÃŃ
ĠpoÅ¾adav kÅ¯
ĠodmÃŃ tajÃŃ
Ġf enom
Ġv li
re r
Ġsamostat nÄĽ
Po l
S ice
n ovÃ©m
Ġrekla mu
Ġne ur
Ġot cem
Po kraÄįovÃ¡nÃŃ
ĠvÃ½kon nost
ĠbÄĽÅ¾ nÃ½
Ġsp a
ĠuskuteÄį nil
k ÅĻÃŃ
ĠstrÃ¡n ku
ĠM ali
Ġcel kÅ¯
Ġnece lÃ©
C hla
Ġsloven skÃ½ch
Ġobvy klÃ©
ste in
ĠA ra
ĠnÄĽmu Å¾
it ro
Ġminist rÅ¯
Ġus ly
ĠC ena
Ġhokej ovÃ½
Ġe ste
Ġf ut
Ġfin ali
Ġst res
Ġre stitu
mi i
pr ÃŃ
Ġovo c
Ġvarian tu
Ġod Å¯vod
nÃ¡ t
Ġpo pel
g et
ĠBa bi
Ġfil ma
Ġko tnÃŃ
Ġdo razÃŃ
Ġh attri
Ġf it
Z Å¯
Ġco si
Z ji
ĠD ruh
Ġprove de
Ġtram va
lice jnÃŃ
Ġekonomi ckÃ½
ĠT ich
ĠdÃŃ lu
Ġslu Å¡nÄĽ
Ġbu ÅĪky
Ġuve denÃŃ
ĠD ali
ĠzbÃ½ vajÃŃcÃŃ
d nÃ½
Ġprac ovali
Ġprozra dila
o o
ĠdÅ¯leÅ¾it Ã½ch
ĠzÃ¡kaz nÃŃkÅ¯m
ÅĻÃŃ cÃŃ
Ġfir mÃ¡m
x ÃŃ
Ã¡t ra
Ġnedo kon
Ġpalub ovce
ĠT ru
ov na
ova jÃŃ
Ġpad la
hl Ã½ch
Ġra ke
ĠzÃ¡le Å¾et
Ġhra ni
Ġzlo dÄĽje
Äį tu
Ġsouse dnÃŃ
d enÃ©
ĠMa reÅ¡
ĠLi bu
Ġzdravot nickÃ©
Ġch eb
Ġab sur
ĠKrÃ¡lovÃ© hrade
ĠnÄĽj Å¾
Ġfa jn
ĠlÃ©Äį by
Ġm ld
ĠdÄĽ de
Ġp ej
Ġvystou pil
ĠIn di
bo ÅĻ
Ġser vi
Ġlo Å¾
Ġzastav ila
Ġte da
Ġjin am
Ġau dit
ĠSt rÃ¡Å¾
Bu Äı
Ġst vo
pe la
ĠÅ½ Ã¡d
ĠpÅĻÃŃjem nÄĽ
Ġvylou Äįit
Ġjak si
Ġz ata
ĠvÃ½ tr
Ġjedna tel
ĠMatÄĽ j
4 4
Ġabsol ven
ĠvnÃŃm Ã¡
Ġroz sudek
Ġma il
ĠtragÃ© die
Ġdi rig
ĠtÅĻÃŃ du
ĠI l
ĠvzdÃ¡le nost
Ġde Å¡ti
rov nÃ¡
ĠdneÅ¡ nÃŃch
ĠpraÅ¾ skÃ¡
ĠBerou n
r z
ĠRom Å¯
Ġrej stÅĻÃŃ
Ġpenal tu
Ġhomo sexu
s son
ĠM etro
Ġkriti ky
ĠM O
ym nÃ¡zi
Ġmohu t
ĠdÅ¯klad nÄĽ
Ġzaji stili
kov skÃ©ho
m no
zd vi
Ġdr Å¾i
lo gy
ban k
Ġpod ali
Ġroz to
fin Ã¡l
ori i
Ġpoz vÃ¡
Ġne stojÃŃ
ĠnavÃ¡ zat
ĠutkÃ¡ nÃŃch
ĠSlov in
ĠMo ste
Bo j
Ġneroz hod
Ġvybra nÃ©
Ġplat by
ĠnavÃ½ Å¡enÃŃ
Ġneo me
len Ã½m
zo lu
ĠnavÅ¡tÃŃ vÃŃ
ĠvÃŃ t
Ġvhod nÃ¡
c on
Ġza b
Ġobchod ÄĽ
ĠdaÅĪ ovÃ½ch
ĠMÃŃ stku
Ġpoz drav
Ġciga ret
ĠH ÅĻe
ĠpÅĻi mÄĽÅĻ
ĠkonkrÃ© tnÃŃch
Å¾e h
ĠM el
Ġnej as
Ġnechce me
Ġochra na
F i
Ġs dÄĽlenÃŃ
ĠzÃ¡ tÄĽÅ¾
Ġpublika ce
ĠpÅĻihlÃ¡ sit
Ġzi skem
ra di
Ġvstup nÃŃ
Ġned odr
ĠdÄĽj iny
In ter
ĠÅ¡ÃŃ ÅĻenÃŃ
Ġdohod nout
h is
Ġuz nal
Ġautobu sÅ¯
itÃ¡ rnÃŃ
Ġbla ho
S tro
S vÅ¯j
ĠS V
ĠpÅĻÃŃÄį iny
MÃŃ stnÃŃ
Ġkabin et
ar ch
ĠzÃ¡ had
Ġom lu
ĠVa Å¡e
s liv
ĠDÄĽ t
Ġtvo ÅĻit
ĠPÅĻe rovÄĽ
N ovin
ĠM B
ĠHodo nÃŃn
Ġsou rozen
ĠA B
Ġh ad
Ġo kou
man ovÃ¡
ĠpÅĻed al
ĠnÃ¡ drÅ¾e
Ġ Å¾ÃŃ
Ġjednodu chÃ¡
ma la
Ġvy povÄĽ
Ġvy pr
Ġnedo stane
Ġho stu
slav y
ĠnÃ¡ sko
Ġpro hrÃ¡la
ĠpÅĻiprav enÃ½
Å¯Å¾e k
ĠnÃ¡ rÅ¯
ĠovlÃ¡ dÃ¡
Ġdobrovol nÄĽ
Ġi muni
Ġpostup y
ĠvÅ¡em u
ĠvÃ½z vu
ĠUher skÃ©m
Ġspo lku
Ġpoklad ny
ĠpÅĻedpoklÃ¡ dat
ĠjÃŃ Å¾
ĠpÅĻe poÄįtu
Ġopat r
ovnÃŃ ka
Z D
t av
Ġstudi i
ĠdodrÅ¾ ovÃ¡nÃŃ
Ġdo mech
Ġturi stickÃ©
Ġna chÃ¡zejÃŃ
Ġsportov nÃŃm
ĠPa ul
ĠuÅ¾ÃŃ vat
ĠCel sia
ĠmanÅ¾e lÃ©
Ġop ÃŃ
ĠpÅĻibli Å¾uje
ti ckÃ©m
Ġnalez nete
Ġu Å¡
s hi
t kami
Ġkle sla
ĠRan gers
Ġau stral
ĠsÃŃ le
Ġdi vit
Ġbilan ci
Ġplat nÃ©
ĠNÄĽm cÅ¯
ĠKromÄĽ ÅĻÃŃÅ¾
ĠvÃ½ Å¡ka
ĠpÅĻÃŃ zemÃŃ
Ġt rav
ĠotevÃŃ rÃ¡
ĠÅ¾ enÃ¡m
Ã¡t ko
t iny
ĠÃºÅĻad ÄĽ
L ÃįN
ĠZnoj mo
Ġmlad Ã½m
Ġstra chu
stand ar
Ġho re
stav ÃŃ
ĠanalÃ½ zy
Ġco koli
Ġpot Ã½
ko brod
u ge
ta va
Å¾i votnÃŃ
h ovÄĽ
Ġko ÅĻeny
ĠnÃ¡ por
ĠpÅĻesvÄĽd Äįi
t oval
ĠvÃ½stav nÃŃ
ĠBy st
Ġvyrob it
7 7
ĠpÅĻij ali
ĠMu sic
or ka
Z ato
ĠstÅĻÃŃ bro
Ġnavrh uje
Ġsm lu
Ġs mo
me j
Ġarchitek tury
Ġtra tÄĽ
Ġmi se
Ġves mÃŃr
ti kÅ¯
Ġpor ce
Ġfilozo fi
Ġpo c
ĠnaÅ¡em u
tu s
Chce te
ĠLi b
Ġral lye
leb rit
Minu lÃ½
Ġpohod l
_ _
h neme
Ġ3 000
Ġproti Ãºto
Ġop lo
Ġodh al
ĠP OD
vo stÃŃ
ĠkrÃ¡ lovÃ©
ĠpÅĻed loÅ¾
ĠNe po
ĠnebezpeÄį nÃ½
ĠrybnÃŃ ka
ĠmÄĽsÃŃ cem
ti m
Ġdrob nÃ½ch
ĠlÃŃ p
Ġty Äįe
Ġs on
Ġsk lÃŃ
Ġprav di
Ġsamosp rÃ¡
Ġopu Å¡tÄĽ
ĠprobÃŃ hajÃŃ
Ġinf o
ĠkÅĻiÅ¾ovat ce
Ġkomuni smu
tivnÃŃ ch
Ġosla b
Ġcerti fi
Ġvy sa
Ãģ Z
Ġra z
ĠpÅĻemÃ½Å¡ let
ĠD el
Ġper man
Ġvojen skÃ½ch
Ġvyhov uje
Ġtvr dÃ½
Ġtechni ckÃ©ho
Ġin dex
mu nd
Ġchle ba
Ġnap sala
tÄĽ Å¾ek
Ġkriminali stÃ©
Äį kÃ¡ÅĻ
rÃ¡ Äįek
ĠA R
Podob nÃ©
ĠbÅĻe vno
Ġexper tÅ¯
Ġobchod ovÃ¡nÃŃ
Ġkonkuren ÄįnÃŃ
Vstup nÃ©
Ġod vod
ĠK ul
ĠDÃŃ ky
ĠKra us
ĠodehrÃ¡ vÃ¡
Ġni ÄįÃŃm
Ġsna hy
Åł TÄļ
ĠzdÃ¡n livÄĽ
ĠM alÃ¡
Ġoh ÅĪ
zÃŃ me
ĠzÃ¡sob y
ĠvÃ½ hodou
ĠM ou
bo ard
ĠMorav skÃ©
ĠR ena
ĠHra de
ĠzÃ¡klad nÃŃm
ÅĻen Ã©ho
Åł ko
Ġsloven skÃ©ho
ĠobrÃ¡ z
stupu jÃŃcÃŃ
ĠKra tochvÃŃ
Ġangli ckÃ©
S ko
inÃ¡ sob
Ġramen y
Ġjedna d
ĠkÅĻÃŃ dla
Ġvi sÃŃ
ku pe
Ġprovoz ovatel
ĠhÅĻbit ov
Ġdeta ily
VÃ½sled kem
Ġty hle
C D
Ġkonzerv ativnÃŃ
ĠpotÅĻeb ovali
Ġd Å¾
Chy bÄĽ
t Ã©ho
Ġod chovan
ĠÄĮÃŃ na
R Ã¡d
ĠbrÃ½ le
Ġpoz nal
Ġs un
lo Å¾ila
Ġza vÄĽ
Ġty pÅ¯
j my
Ce sta
wy or
ĠS mr
ĠÅĻe ce
Ġnemo Å¾nÃ©
Ġza sÃŃ
ĠÃºto kÅ¯
ĠpÅĻirozen ÄĽ
Ġnesp rÃ¡v
Maji tel
ov it
Ġinforma ÄįnÃŃch
Ġvelk Ã½mi
ĠOnd ÅĻe
Ġu le
Ġsedm desÃ¡tÃ½ch
ĠÅĻad ÃŃ
ĠDu kla
Ġkamen y
Ġdop lnÃŃ
ĠMÃŃ stek
B en
Ġz hu
Ġle tu
ĠC O
ĠhvÄĽz dou
Ġhla sem
ĠÅ¡ ok
ĠvyuÅ¾ÃŃ vÃ¡nÃŃ
Ġproje vÃŃ
In ve
ĠvÃ© vod
ĠkrÃ¡lov stvÃŃ
la stnÃŃ
Ġhez ky
Ġh ek
Ġse stup
.. ..
ĠS le
Ġuli cÃŃ
Ġnekon ÄįÃŃ
ĠPro ti
Ġza pl
ĠsvÄĽt ovÃ¡
Ġdo jel
ĠÄį iny
ti cÃŃch
Ġb on
Ġob r
ĠSou kup
ĠzÃ¡klad ny
Ġzvo lili
ĠT ÅĻinec
h ovat
ĠvÄĽ dy
Ġpora zila
Slavi a
Ġtre sty
Ġinvesto ÅĻi
Ġnahra dil
ÅĻÃŃ z
ĠstrojÃŃ ren
Ġspeci Ã¡lnÃŃch
ĠpÅĻÃŃtel kynÄĽ
Klad no
ĠjÃŃ st
rÃ¡ Å¾ek
ĠstÃŃ ha
ĠsprÃ¡v nou
ĠspotÅĻe by
ĠuzÃ¡ vÄĽ
ĠNi co
ti Å¡tÄĽ
ĠÄįer nou
M ilo
ĠT rutnov
ĠporÃ¡Å¾ ce
ĠpÅĻehlÃŃ dka
Ġpropa g
Ġhy dro
ĠLet nÃ©
Ġpot ru
Ġb ato
Ġvys lou
ĠpÅĻe rov
Ġvnit ro
cho hrade
avÃŃ ÅĻov
ĠsvÄĽ tu
Å¾ eni
Ġdob Ã¡ch
Ġbi ologi
ĠP oru
ĠformÃ¡ tu
ĠodnÄĽ tÃŃ
Je likoÅ¾
av is
Ġfilm ovÃ½ch
Nech ci
Ġpedago g
ĠÅłvÃ½car sku
Ġvod nÃŃch
w it
Ġdo pisy
ĠzaÄįÃŃ nal
ĠZ emi
ri j
d roj
wa y
ĠÅ¾ivo ty
Ġnaf ty
S vÄĽ
Ġa strono
hra nÃŃ
ĠO FS
Ġdoda vatele
Å¾ lice
Ġkonf ron
ĠRo ck
Ġver dikt
Ġset kal
ĠK er
ĠÅłtÄĽpÃ¡ nek
zÃŃ nu
P atÅĻÃŃ
ProstÄĽ jov
' s
" .
ĠvÃŃ n
Ġklient Å¯m
Ġproz raz
ÄĮ tÄĽte
ĠvÃ½bÄĽ rovÃ©ho
Ġprofe si
Ġzi my
ĠSu ch
ig ur
Ġrepubli kÃ¡
Ġob drÅ¾el
Ġnepo ÄįÃŃtÃ¡
Ġdiag nosti
Ġt ance
ĠJ ez
O ÄįekÃ¡
ĠF on
ĠBM W
Ġhodno tit
ĠBohem ia
je jÃŃ
ĠAfri ky
ing a
mÄĽr nÃ½
Kon krÃ©
Ġkame ra
ĠnÃ¡vr hÅ¯
B I
Ġsto procentnÃŃ
inu s
M Ã©
Ġbli Å¾Å¡ÃŃ
ĠplzeÅĪ skÃ©ho
ma ch
Ġnedo kÃ¡Å¾
Ġnove ly
Sa mo
ĠzvlÃ¡Å¡t nÃŃho
6 6
ĠTak Å¾e
Ġs ur
ĠzpÅ¯sob ilo
Ġzdrav Ã½
ĠklÃŃÄį ovÃ½ch
ĠobÄĽ d
ĠpÅĻÃ¡tel stvÃŃ
ĠpÅĻi pouÅ¡tÃŃ
ĠRa j
ct avi
klÃ¡ dal
Ġzas vÄĽ
ĠumÄĽl ce
Ġ/ /
ĠB UD
ĠG al
Ġreali zovat
se la
ĠdÄĽj inÃ¡ch
Ġpostav u
ĠlÃ¡ sce
ĠMicroso ft
Ġpocho penÃŃ
Ġodvez li
ĠK en
Ġuplynu lÃ©m
ĠO E
Ġa pa
Ġru ÄįnÃŃ
ĠzÃ¡kro k
ZE Åĩ
ĠÄįÃŃ nskÃ©
Ġhromad nÃ©
t alo
ĠdÅ¯ stojnÃŃ
Ġg ran
Z ak
Ġklo bou
St alo
Ġpsycho logi
Ġpro naj
Ġt rÅ¯
ĠdÃŃ lÅ¯
Ġvi zu
ĠpÅĻi znala
hlÃŃ k
o log
ĠPatri k
rÃ¡ ÅĻ
Ġb ale
c m
ĠD ej
os m
Ġkli enta
NÃ¡ klady
ĠÃº plat
Ġzare ag
Ġrychlo stnÃŃ
M lad
ĠBÃ¡r ta
Ġdlu Å¾nÃŃ
Rad nÃŃ
Ġkandi dat
nost mi
Ġa vi
Å¡tej n
Ġaplika cÃŃ
dÄĽl ovÃ¡nÃŃ
Ġargu menty
Ġkri z
ĠDo stÃ¡l
Äįa la
ĠvÃ¡no ÄįnÃŃch
ĠD ie
ĠLu dÄĽk
Ġru ko
J as
Ġkapaci ty
Ġpod pis
ver nÃ©
Ġfron ty
ti s
Ġkome dii
Ġut kajÃŃ
Ġz bytku
Ġangli cky
Ġpo prav
ĠnÄĽkter Ã½mi
Ġk vÄĽ
sla vÄĽ
VÃŃ te
Ġfung ujÃŃ
ĠTepli c
ĠzahrÃ¡ d
Postup nÄĽ
ĠM ur
ĠvÃŃce mÃ©nÄĽ
ĠDole Å¾al
per k
L it
Ġdlu Å¾ÃŃ
zu jeme
ĠpÅĻedse du
ĠV E
ĠHra d
ĠnÃ¡boÅ¾en stvÃŃ
ĠA s
Ġpozi tivnÄĽ
ĠP ho
ĠOp avy
Ġvy bere
Ġ0 7
Ġtr vala
rov y
ĠzranÄĽ n
ĠM lÃ½
Ġhle dal
chÃ¡ze jÃŃcÃŃch
li an
ĠL om
ĠpÅĻines lo
Ġnap lnÄĽ
ĠnÃ¡ro ÄįnÃ½
ĠjÃŃ delnÃŃ
ĠP elhÅĻimov
ĠdÃ¡ val
ĠvyhlÃ¡ Å¡ky
ch na
ĠotevÅĻ enÄĽ
Ġbi skup
Ġminu lost
Ġkou zel
Ġekonomi cky
ĠK va
Ġb ek
Ġli govÃ©
ĠB il
O pa
G Ã³
Ġnad sÃ¡
Ġpan uje
ĠpÅĻed ÄįasnÄĽ
sp oru
Ġzastav ÃŃ
ĠzvÃ½ Å¡enÃ©
ot ou
lo nu
Ġskla datel
Ġos vÄĽ
Ġprodu cen
Ġporo zu
ĠKo ste
ĠskvÄĽ lou
Ġpou Å¾i
Ġhor skÃ½ch
Ġle sy
z vu
Cel kovÄĽ
ĠW orld
Ġpo pisu
ĠNe vÃŃm
ĠY ou
Ġchu tÃŃ
Ġk as
Ġzap Å¯j
ĠFot bal
n kovÃ¡
ĠÅł vej
ĠkrÃ¡ sy
Ġtelefon Å¯
Ġvod o
ĠÅ¾lu tÃ©
ĠposÃ¡d ky
ĠprÃ¡vnÃŃ ho
emi Ã©ra
ĠumoÅ¾ ÅĪujÃŃ
ĠprokÃ¡z at
Ġinspe k
ĠzahÃ¡j ena
ĠvyjednÃ¡ vÃ¡nÃŃ
Ġpedago gi
Ġom lou
it ativnÃŃ
ĠnÃ¡vr hem
ĠzÃºÄįast nili
ĠzpÅ¯sob ila
ĠH anÃ¡
ĠMu Å¾
jÃŃÅ¾ dÄĽl
Ġna dÄĽjÃŃ
Ġprocen ty
ĠJablo nce
cion Ã¡lnÃŃ
ĠpÅĻedÄįas nÃ©
ĠÅ¡Ã©f redak
Ġvy nu
O K
ĠstÅĻedo Äįe
Ġ lav
an ovÃ¡
ĠMo nika
PoÅĻada telÃ©
stav ba
ĠobÄįan stvÃŃ
Ġuzav ÅĻenÃ©
ĠÅ¡et ÅĻit
ĠpotÄĽ Å¡ÃŃ
Ġradi kÃ¡
ste j
ĠÄįÃ¡st kou
ĠpokraÄį ujÃŃ
ĠotevÅĻ enÃ½
4 9
myÅ¡ l
z ovanÃ¡
Ġo Å¡et
ĠoÅ¾i venÃŃ
ĠstÅĻe dy
ĠP as
co s
Ġobsahu jÃŃ
Ġfilm ovÃ½
ĠSva zu
Ġ8 1
ĠpÅĻÃŃm Ã©m
ĠsnÃŃ Å¾ila
ĠstÃ¡ vajÃŃ
Ġnej po
ĠNav rÃ¡til
og le
S en
ĠnÃ¡ raz
Ġde le
ĠtvÅ¯r ÄįÃŃ
Cho mutov
Å¡ ovÄĽ
ĠzamÄĽstna vatele
Ġfot ky
Ġvoleb nÃŃm
noj men
Ġpau ze
Ġrodin nÃ½
Ġroz bit
ĠnedÄĽl nÃŃm
na je
rÃ¡ tora
Ġci zÃŃch
Ġhud bÄĽ
D enÃŃk
ĠpodezÅĻe lÃ½
Å¡ kovi
ÅĻ ovÃ¡nÃŃ
Ġne je
n or
ĠH ud
Ġkomplex nÃŃ
Stav ba
ĠstarÅ¡ÃŃ ho
4 6
sl Ã½ch
Ameri ckÃ½
ĠÅ¡ k
Ġkou ÅĻenÃŃ
Ġinvest ory
men o
Ġpan em
Ġv ÅĻe
Ġrad oval
ĠpÅĻedpo slednÃŃ
Ġmat ku
Ġspoluprac uje
ĠumÄĽ t
ĠF ace
ĠposÃŃ lit
ĠvÄĽ nujÃŃ
va telem
ĠF r
ovan ost
Ġku lat
Ġuved li
la st
met ri
ĠpÅĻÃŃ ko
ĠVol kswagen
Ġlicen ce
Ġin ze
he v
Ġrov novÃ¡
an Ã½mi
ĠvÃ½ hrou
Ġnoha ma
ĠLan ger
li Äįka
B ÅĻe
ĠpÅĻije dou
ĠH vÄĽz
Ġprode jem
Ġjist ou
Ġinteli g
g resu
ĠrÃ¡ m
Ro ky
ĠmladÃŃ ka
lnÃŃ ka
ĠF ol
c l
mysle t
Ġvenkov nÃŃ
Ġza chra
ĠsvÄĽt ovÃ©m
Ġzim nÃŃch
Ġau ton
hra dÄĽ
Ġmotocy kl
Pa nÃŃ
ĠSlu nce
Pro dej
Ġshod li
ho w
ĠPet ro
Ġm or
Ġne sku
Ġdo ÄįkÃ¡
dne y
Ġvrch nÃŃ
ĠsloÅ¾ ky
h ej
Sy stÃ©m
ĠvÃ¡ hu
ĠbÃ½val Ã½m
Ġreali zace
Ġemo ce
Ġnaz Ã½
Ġob lou
Ġta bÃ¡
Ġh ist
ĠJ A
t vÃ¡
t ina
ĠzastÃ¡ vky
Rom an
in stal
ĠcÃŃ saÅĻ
ĠV on
H ol
Å¾ Ã¡r
ĠKlu bu
ĠÄĮ i
ing s
Ġsi mu
D ÅĻÃŃve
ĠÅł ul
ĠKlat ovy
Ġle tÃ¡
ĠstÅĻe de
KRÃģ TCE
ali ce
Ġz organi
sti ckÃ©m
h m
Ġba lenÃŃ
ty ÅĻ
Ġodbor nÃŃk
ĠÅĻe tÄĽ
or k
dra Å¾Å¡ÃŃ
ĠAfri ce
Ġzne po
Ġbur ze
ty Å¡
k nu
Ġd Ã½
ĠAndre a
z nal
h alo
ĠÄįÃŃsle m
k ru
ĠpojiÅ¡Å¥ov en
Ġs enÃ¡tu
Ġ4 50
Ġst rou
Ġefek tivnÃŃ
v enÃ¡
Ġ0 3
ni cky
ĠmoderÃ¡tor ka
ĠsdÄĽli t
Vla stnÃŃ
Ġlah vÃŃ
ĠzÃŃskÃ¡ vÃ¡
Ġocit l
ĠR ot
Ġtechni ckÃ½
vis lÃ¡
H RAD
ĠB O
ĠM Ã½
Ġvy dÃŃ
j ci
ne bo
ĠM atu
ĠdÄĽlÃ¡ me
Franti Å¡ek
ĠobÅ¾al oby
ĠzdÅ¯raz ÅĪuje
Å¡ in
Ġli stÅ¯
Å® M
ĠKar vinÃ¡
Ġpo pra
Ġbar va
Ġvyso kÃ©ho
Ġukon Äįit
ĠpÅĻe padenÃŃ
Ġkapaci ta
ĠzÃ¡ kazu
ĠlÃŃ bilo
lÃ¡ ch
ra s
ÅĻÃŃ te
ĠnovinÃ¡ ÅĻ
Ġhistori ckÃ½
ĠJi zer
Ġj du
NÃį K
nÃ¡ rnÃŃ
konstru kce
Ġod kou
Ġtechni cky
lov anÃ©
Ġplate b
el ze
ub er
ĠÅł in
ĠÅłÃ¡r ka
Ġbarev nÃ©
Ġuve ÅĻej
Ġdlu hu
Ġodev zd
Ġkou pila
ĠMÄĽ sta
ĠÄįi Å¡tÄĽnÃŃ
Ġvar ovÃ¡nÃŃ
ĠvÃ½u ky
Ġne di
Ġna razÃŃ
ma ce
chod y
dÄĽ nÃ½
Te plice
ĠZby nÄĽk
ĠO D
ĠÅ¡ kÃ¡
Ġjmen ovÃ¡n
Ġsoft ware
v nÄĽjÅ¡ÃŃ
ĠpoÄįÃŃtaÄį ovÃ©
Å¡ ujÃŃ
ĠChrudi mi
j Ã¡d
ra ri
Nejd ÅĻÃŃve
Ġboj ujÃŃ
Ġnim Å¾
ĠsbÃŃ rek
ĠInter net
Ġpan u
Ja blo
mi ckÃ©
Ġsk ep
ĠK lub
Ġdo kÃ¡Å¾ÃŃ
w an
ĠpÅĻe ÄįÃŃst
Ġuva Å¾ovat
ĠdÄĽla la
ĠvÃ½jime ÄįnÄĽ
ĠjakÃ½ si
ĠkandidÃ¡ ta
Ġposte le
Ġvo lÃ¡nÃŃ
si ce
ĠoÄį kovÃ¡nÃŃ
ĠpÅ¯vod nÃŃm
in ik
Ġpotru bÃŃ
N ovÄĽ
ĠLondÃ½ na
Ġprost ran
Ġsportov cÅ¯
ĠGab rie
Ġmaji telem
ĠÅ¡ta fe
ĠkrÃ¡de Å¾
ĠnamÃŃ sto
b Ã¡t
ĠD rÃ¡
ĠÅł mÃŃ
ĠpÅĻÃŃzni vce
B OR
Ġeu ra
Ġprav il
c ova
ca ra
Ġkoru pci
ĠÅ¾al obu
ĠbÃ¡ je
Ġodvo lÃ¡
ĠHÃ¡ jek
Ġvy bu
Ġser vÃŃ
vi Äį
Ġh my
Ġsvobod ÄĽ
ĠmanÅ¾el ku
Ġdosava dnÃŃch
Ġpro Å¡la
Ġr itu
ĠlÃ¡ znÃŃ
ĠK RA
ĠÃºspÄĽÅ¡ nÃ¡
Man Å¾el
ÅĪ skÃ©ho
ĠnabÃŃ dla
Ġve pÅĻ
R Å¯
ĠB ak
M Å¯Å¾eme
rÅ¯ be
Ġa na
ĠÄįtvrt ka
Ġnejrych lejÅ¡ÃŃ
ZÃ¡stup ci
Ġklub em
ĠnovÃ¡ Äįek
H Ã¡
te ly
Ġu kry
dr en
eni ci
vi i
ĠjiÅ¾ nÃŃch
ĠprobÄĽh lo
tÃ¡ lu
ĠstÅĻel ce
Ġstatisti k
Å¡ÃŃ te
Å¥ Ã¡k
ĠzemÄĽ tÅĻe
Ġb le
ĠpÅĻiblÃŃ Å¾it
ze ly
VÄļ T
zÃ¡ k
Ġchy til
ĠMezinÃ¡rodnÃŃ ho
Ġzakon Äįil
ĠzÃ¡vod nÃŃci
Ġstoprocent nÄĽ
Ġsportov ci
Äį nice
ĠS mÃŃ
Ġde velo
Ġode Å¡li
ĠdÃŃ vku
ji Å¡tÄĽnÃŃ
Ġjih ovÃ½ch
lÃ¡ ÅĻe
ĠzranÄĽ nÃ½ch
Ġmez d
v kÃ¡ch
ĠkÅĻiÅ¾ovat ky
Ġodpad Å¯
Ġrakou skÃ©
ĠdoÄįka li
ĠprÅ¯vod ce
Ġsymbo l
Ġpro Å¾il
Ġkou pÃ¡nÃŃ
Ġcen nÃ½ch
Stu denti
Ġg lo
Å¾i Å¡tÄĽ
ĠpÅĻekva penÃŃm
rov anÃ½ch
lou p
Ġlogi cky
K y
Ġmoder nÃŃch
ĠvÃ½ voz
ĠÅĻÃŃkÃ¡ te
Ġa do
ĠLe a
Ġzahra dnÃŃ
ÄįÃŃ tal
eni s
Ġten i
Vy Å¡etÅĻ
Ġza bil
ÃĿ D
Fran couz
Ġchod ili
ĠAu gu
ĠBo sk
Ġnato Äįil
Å¾ ujÃŃcÃŃ
Ġmot ory
Ġovliv ÅĪuje
Ġformu le
Ġak ÄįnÃŃ
Ġweb ovÃ©
Ġinkas ovali
pad ÄĽ
Ġchu ti
St art
Ġsan kce
Ġch ov
Å¡ ci
Ġregion Ã¡lnÃŃch
C Ãį
stÄĽh oval
ĠvÃŃtÄĽz nÃ©
Ġrad ar
g Ã³
Ġh alu
Ġam bici
Ãģ R
Ġpoz val
Ġjevi Å¡ti
ĠporuÅ¡ ovÃ¡nÃŃ
ĠA I
Ġpat rnÃ©
Ġzmi zÃŃ
ĠFran ce
Ġkvali fi
ĠBer lÃŃnÄĽ
Ġsitua cÃŃch
Ġsoli dnÃŃ
ro tech
s my
ĠÄįekÃ¡ nÃŃ
ĠH asi
Ġli tr
B ru
Ġv Å¡ÃŃ
Äį kÃ¡m
Ġkraj in
ĠÄįer nÃ©ho
st kÅ¯
Ġvz dÃ¡t
ĠÅ¾i li
Ġdo pole
ĠnÃ¡ ÅĻadÃŃ
ĠlÃ© ÄįenÃŃ
ÅĪ anÃ©
Ġre cen
Ġposkyt ovat
ĠHu sa
Ġodbor y
ĠknÃŃ Å¾ky
ĠJ or
Ġkro kÅ¯
g ht
ĠzÃ¡va zky
Ġpr vÃ©
Ġg ar
sto p
ĠHlu bo
ĠMa re
Ho kejistÃ©
Ġpo hledem
Ġtradi ÄįnÃŃm
Ġagresi vnÃŃ
Ġde ko
ĠÅ¡ko lenÃŃ
ĠvzdÄĽlÃ¡ vacÃŃ
ĠkamarÃ¡ di
Ġkla de
Å¡en Ã½m
Ġpo chÃ¡zejÃŃ
ĠBar bora
Ġodev z
ĠSÃ½ kora
grafi i
ĠRakou sko
obo ta
Ġku sy
ĠPek ingu
Ġstej nojmen
Ġvypad ajÃŃ
ĠÅĻÃŃ Å¡e
Ġzelen iny
Ġli ne
Kdyby ch
ĠvÃ½ro ky
Ġvy hraje
H u
ĠfanouÅ¡ kÅ¯m
Ġpro boj
ĠÄĮer nÃ¡
Ġuprav it
ste ro
ĠnÃ¡ro ÄįnÃ¡
ĠzvlÃ¡ dl
PÅ¯vod nÃŃ
Ġzdra Å¾enÃŃ
Ġne rov
ĠÃºlo hu
Ġpodot kla
ĠvytvÃ¡ ÅĻenÃŃ
Ġredak ci
ĠÅ¡pat nou
ĠnovinÃ¡ ÅĻe
Ġdostup nÃ©
Ġod dech
Ġo cenÃŃ
ĠHo lub
zd ra
Ġjakou si
Ġpu stÃŃ
Ve ÅĻej
ĠnÄĽ Äįeho
Ġjezd cÅ¯
Po ku
ĠmanaÅ¾e ra
ÅĺÃŃ kÃ¡
Ġp sÃŃ
Ġkup nÃŃ
Ġvit am
ĠH art
L y
ĠB ol
Ġkom pak
Nem Ã¡
Ġsty ku
Ġtransp ort
Ġpoz vÃ¡nÃŃ
ra j
Ġtechnologi i
ĠbÃŃ lÃ©ho
Ġeta pa
Ġkar ta
ĠpÄĽk nÃ½
Ġce lebrit
ĠzÃ¡j mem
ĠstÃ¡ r
Ġh ard
Ġnaz Ã½vÃ¡
Ġroz liÅ¡
ĠnaÅ¡i mi
art ner
Ġpodporu jÃŃ
Ġko Å¡
ĠstÅĻe dnÄĽ
Ġf igur
Ġ198 8
ĠJan da
ĠnÃ¡sledu je
Ġjak Ã½mi
t ov
Ġhle dali
ĠprÅ¯mÄĽr nÃ©
Ġrekonstru kcÃŃ
ĠumÄĽle ckÃ½ch
ri sta
Ġhovo ÅĻil
Oby vatelÃ©
Ġob av
bu dou
ĠÄįe lit
Ġbarok nÃŃ
ĠDÄĽ ti
de o
ĠLi sa
Ġm ni
ĠnÃ¡rod Å¯
Ġokol nosti
ĠtÃ©m at
Tak to
c ujÃŃ
Ne chy
Ġst ri
Ġprostran stvÃŃ
ĠÄįtvrt ou
Ġo stra
rÃ¡l nÃŃm
Ġkontex tu
F L
Do kon
Ġne wyor
Ġzim nÃŃho
Å½Ã¡d nÃ©
ĠpÅĻi chy
Ġkilo metry
Ġmed vÄĽ
r ovali
ÄįÃ¡ ÅĻi
Ġjedno rÃ¡z
pod i
Ġpode psÃ¡
ĠG lo
Ġzahra d
S M
ĠpraÅ¾ skou
Ġset kat
Ġminist ÅĻi
ĠBÅĻeclav i
VÃ½ rob
Ġpla cenÃŃ
Ġar bit
Ġradi kÃ¡lnÃŃ
ha Äį
ĠpoÅĻÃ¡ dÃ¡nÃŃ
Ġmod r
ĠPraÅ¾ skÃ©
Ġdivi zi
Ġkonzu lt
ĠLadi slava
ĠM lad
Ġzakon ÄįenÃŃ
kt nÃŃ
ĠpÅĻedmÄĽ t
b as
ho j
ze nÃŃch
Ġher cÅ¯
ĠpÅĻehra dy
Ġjimi Å¾
Å¾e ly
Ġpodot Ã½kÃ¡
r ovÃ¡nÃŃ
ĠrÅ¯z nÃ¡
ĠS ka
ĠU SK
ĠtÃ¡ ta
ĠV rati
ova Äį
ovi Å¡tÄĽ
PO Z
ĠBÄĽ hem
ĠvyvolÃ¡ vÃ¡
Ġti cho
Ġjednot livÃ½mi
T U
ru Å¾
O ni
Ġrezer v
Ġpravo moc
sti slav
ĠnÃ¡vr hÃ¡
Ġzapla cenÃŃ
Ġ Ãģ
Ġkapit Ã¡lu
Rozhod nutÃŃ
Ġpropu Å¡tÄĽnÃŃ
Ġhlubo ko
Ġku ri
Ġpr ovin
Ġslu Å¾ebnÃŃ
Äį ci
z ovÃ¡n
Ġchod nÃŃku
Ġne in
mad ÄĽ
ĠT O
Ġporo ta
Ġori enta
ne l
ĠtvÅ¯r ci
be ra
ĠFrÃ½ dek
Ġpodeps at
Ġb razil
ĠM alÃ½
un da
Ġvy nalo
Ġli to
ĠDom ini
Ġs Ã¡d
Ġvol bÄĽ
no t
sti e
ĠV oda
B ene
Ġsurov in
ĠnÃ¡jem nÃ©
Ġarchitek to
Ġto ale
ÄįÃ¡ sti
ZÃ¡ vÄĽ
Ġmist rem
ĠislÃ¡ m
Ġinfor mati
ĠpÃ¡ ry
Ġu vi
za i
j men
Ġode Å¡la
ĠknÃŃ Å¾e
SK A
t Ã¡lnÄĽ
Ġkapaci tu
ĠB lÃ¡
ĠAu stra
Ġekonomi ckÃ©ho
K AR
Ġinvesti ci
z vÄĽ
ĠJa c
sÃŃ c
ĠS pi
ĠJed nÃ¡
ĠrozhodÄįÃŃ ho
Ġbal on
ĠV rb
Ġmoder nÃŃho
ĠkvÄĽt in
ĠÄįlovÄĽ kem
Ġjezd il
Mo hou
ĠProstÄĽj ova
ĠpÅĻÃŃ Äįky
ĠzÃ¡kaz nÃŃka
Ġforma ce
Ġnepo slednÃŃ
ĠnejkrÃ¡ snÄĽjÅ¡ÃŃ
ÃĿ N
ĠpalÃ¡ ce
Ġfinan ÄįnÃŃm
Ġdo ÄįasnÄĽ
Ġu hel
Ġspl nÄĽnÃŃ
Ġz nem
Ġeta py
Ġtr hÅ¯
Ġsrov nat
Ġpartner Å¯
Ġkomuni sty
Ġhra nÃŃ
ĠDvoÅĻÃ¡ ka
ĠZ den
ĠplÃ¡n ovÃ¡nÃŃ
Ġmo rÃ¡lnÃŃ
ĠK in
k na
Ġevrop skou
Ġmaj or
ĠÃºÄįa stÃŃ
Ġhrd ina
Ġza bit
Dob rÃ¡
Ġhro m
ĠdruhÃ© mu
Ġs ci
ĠpÅĻedchÅ¯ dce
ĠvlastnÃŃ k
Ġposla li
Ġhou by
Å¾ ovala
u jte
O kres
Ġsa zeb
ĠSu chÃ¡
Ġzkou Å¡ek
ĠÄįi sti
or ks
ĠmladÃŃ ci
Ġlidov ci
re a
ch ta
Ġle vnÄĽ
me ra
ved ly
ĠzÃ¡vÄĽre ÄįnÃ©m
am ber
ĠlepÅ¡ÃŃ mu
Ġadvo kÃ¡t
Ġdost aneme
ĠÅ¾Ã¡ dajÃŃ
Z pÅ¯sob
gy pt
ĠMa chÃ¡
su n
ĠodpovÄĽ dÃŃ
ĠpÅ¯l hod
ĠnÃ¡ pady
ĠkÅĻe h
ĠFrÃ½ d
ĠlÃŃ d
Z ra
ĠKa f
ĠpovaÅ¾ ovÃ¡n
Å¾ nostÃŃ
Ġtuzem skÃ½ch
Ġko ÅĻen
ĠKad lec
VÃ½ ji
Ġaktiv ita
Ġse g
ĠrÃ¡ ny
ĠpÅĻedstav ili
Ġzpo ma
Ġhla su
Ġs kladu
ĠtÅĻe m
ĠplÃ¡ nÅ¯
Ġanke tÄĽ
Ġod vÃŃ
Ġse s
Ġvol bu
PÅĻÃŃ bram
Ġpochlu bit
ĠCh alu
as ing
u dy
Ġrekre aÄįnÃŃ
Ġex pre
ri um
Ġpo hlÃŃ
ĠW est
Ġroz po
ĠNej vÄĽtÅ¡ÃŃ
Ġpas aÅ¾
Ġka ple
ĠpÅĻÃŃpad em
Ġkvali tnÃŃch
ÄįÃŃ ta
Ġfilm ovÃ©ho
lÃ© mu
an ti
Ġpro mluv
Ġreak cÃŃ
f Ã¡
Ġbrambor y
ĠKomen skÃ©ho
S I
ĠpÅĻÃŃ vÄĽ
Ġuveden o
Ġatmosf Ã©ÅĻe
var d
po ra
ĠzÃ¡kla dy
Ġnap ÅĻÃŃÄį
Ġnem luvÃŃ
lu vÄĽ
ĠMat ou
Ġimp rovi
Ġt rÃ¡v
ĠÄįerst vÃ©
ĠPala ckÃ©ho
Ġvoleb nÃŃch
ĠF ilm
ĠnÃ¡stup ce
ĠvÃ½bor nou
âĢ ¢
Ġjar mar
ovi ckÃ©
ĠF ren
Ġso c
ĠpremiÃ© rem
Ġpoliti cky
Ġobvin il
ĠIn die
Ġvz adu
ĠjinÃ© mu
Nej vÃŃc
ĠÃº niku
Z nÃ¡
Å½Ã¡d nÃ½
Ã©ho Å¾
Åĺidi Äįi
alo gu
ĠOkres nÃŃ
ali ta
ĠpÅ¯j Äįky
ĠZ dra
Pod mÃŃn
Ġvla sÅ¯
SS R
ĠEvrop skou
ĠdozvÄĽ dÄĽli
Ġnetra di
Prob lÃ©my
Ġi gn
Ġvo lÃŃ
ĠvÃ½ ta
dÄĽla jÃŃ
ĠpronÃ¡ jem
ĠÄįtvrt iny
Ġprezen taci
ĠAr sen
ĠBohu mil
ĠBru n
ĠAsi e
ĠvÅ¡im l
TÃ¡ bor
ĠmÄĽ sty
Ġbar vÃ¡ch
Ġnovin kou
Ġcivil nÃŃ
Ġi kon
Ġvy na
4 2
ĠprÅ¯bÄĽ Å¾nÄĽ
ĠskuteÄį nÃ½
ĠklÃ¡Å¡ tera
vÃ¡ k
ĠÄĮM FS
he b
Ġobnov it
4 3
ĠurÄį eny
lÃŃ ku
ĠJo hna
Ġposkyt l
le tu
Ġse jdou
Ġnut nost
ĠBe sky
Ġdce rou
TÄĽ ch
ÄįÃŃ te
ĠvÄĽtÅ¡ÃŃ ho
Ġseni orÅ¯
Ġu drÅ¾el
ĠzÃ¡kla du
ĠEuro pe
Ġzahrani ÄįnÃŃho
lec om
T UR
Ġob Ã½
k tivnÄĽ
ĠrÅ¯z nÄĽ
vÃ¡ tnÃŃ
Ġmiliar du
Ġdokon Äįit
ĠÅ¾Ã¡d nÃ½m
Ġbod em
Ġvolej bali
C K
Ġpro gn
ĠkritÃ©ri a
U vidÃŃme
ĠdoÄį kal
Ġrespe ktu
Ã¡k ist
Ġzpo Å¾dÄĽnÃŃ
ĠscÃ© nÃ¡ÅĻe
he im
ĠpÅĻev zetÃŃ
Vel kou
ka ce
Ġvy mÃ¡
ĠpÅĻij ala
Ġp si
ĠKo mÃ¡
pou Å¡tÄĽnÃŃ
m ovÄĽ
Ġodva hu
Ġpopu lÃ¡r
ĠvÃ½kon nÃ½
ĠpÅĻipomÃŃ najÃŃ
ĠÃºÄįe tnÃŃ
Ġm anÃ©
Ġmotor em
Ã¡ ru
Ġse ktor
KaÅ¾ dÃ©
je ly
Ġdva a
mÄĽ na
dÄĽ lat
Ġanaly tik
ĠstÃ¡ ly
voj nÃ¡sob
Ġzahra du
ĠBÄĽlo ru
ĠN ak
Ve doucÃŃ
ĠoprÃ¡v nÄĽnÃŃ
Ġdopl nit
Ġnov ÃŃ
ĠzpÄĽ v
da pe
ĠN u
ĠPo z
Ġcel kovÃ¡
ĠzÃ¡ku li
ĠvÃŃ tÃ¡
Ġku ÅĻe
Do poru
ĠnÃ¡ tla
ĠÅ¡ pe
Ġo pÄĽ
Ġpad lo
Exist uje
ĠdÄĽv Äįata
ĠspotÅĻe bu
ĠpoÅĻÃ¡ dek
ag o
ĠMar cela
Ġza h
Druh Ã©
ĠuÅ¾ÃŃ t
Ġvstou pili
Ġperfekt nÃŃ
ĠpÃ¡t Ã©m
ĠPo lÃ¡k
ĠMH D
KaÅ¾do pÃ¡dnÄĽ
Ġpracov nÃŃm
Ġobo ha
Ġkon ver
ĠAsi i
ĠpÅĻed loÅ¾it
R ada
Ġpotvr dilo
Ġv setÃŃ
ĠMil Ã¡n
Ġoby t
Ġh no
Ġpo Å¡le
Cel kovÃ¡
Ġuplat nit
Stra na
ĠvÄįerejÅ¡ÃŃ ho
Ġpro ku
Z by
Ġvz dÃ¡
Ġsk i
Ġrozhov ory
ĠzÃ¡ ÅĻenÃŃ
ĠBla ck
ĠchtÄĽ lo
ĠÅ¡iro kou
Ġvoz ovky
ĠnÃ¡ vod
ĠstÃŃ Å¾nosti
ĠdosÃ¡ hli
Ġsouse dÅ¯
av skÃ©
Ġkonstat ovala
Ġzele nÄĽ
Ġvoli Äįe
ĠvydÄĽ lat
vaz ad
Ġvypad al
le ct
Ġproje vy
nic a
Ġstruktu ry
ĠMa c
ĠdÃ¡ vek
Ġpora nÄĽnÃŃ
ĠpÅĻi rozenÃ©
Ġin tera
Ġnej h
Ġplat Å¯
Ġkonc ovce
Ġza vÃ©st
ĠL as
ĠP el
ĠSnÄĽmov ny
U N
ĠHlav nÃŃ
ÄįtyÅĻi cet
ÄĮ SSD
b oval
ĠS pe
ĠJi ze
Ġjeze ra
Ġpou Å¾il
ovÃ¡ vÃ¡
ĠB ub
Zastupi telÃ©
Ġpu stili
ĠodmÄĽ ny
Ġvy razili
R i
Ġpro sper
Ġhokeji sty
rou n
ni ÄįtÃŃ
T R
ĠpÅĻe stal
ĠzÃ¡chran nÃ©ho
V zÃ¡
Ġat let
ĠÄįin il
ĠÅ¾Ã¡d nÃ©ho
Ġcho mutov
Ġni kam
Ġto tali
em ato
ĠKan adÄĽ
Jenom Å¾e
Ġje st
ĠHo mo
ĠMaÄıar sku
ST AV
P ara
Å¾ Ã¡d
Ġposta rÃ¡
ĠBe ck
Ġra fin
Ġzkon tro
Ġodbor nÃ¡
ĠzÃ¡kladnÃŃ ho
Ġkriti ku
ĠzamÃŃ ÅĻil
Ġminu lostÃŃ
ÅĪ ujeme
ĠsluÅ¾ bÄĽ
ĠhavÃ¡ rie
be t
Ġpa ÅĻÃŃÅ¾
ĠpÅĻispÃŃ vÃ¡
Ġpomo hou
ĠbrankÃ¡ ÅĻi
ĠpÅĻÃŃ snÄĽ
ĠvÃ¡Å¡ ni
Ġzna Äįkou
ĠvÃ½ sky
Ġparlament nÃŃch
Ġstup ni
ro dil
j deme
Ġma py
Ġobe jÃŃt
ĠK ruÅ¡
Ġposou dit
Ġplo d
Ġcigare ty
tÃŃ te
c ovÄĽ
ĠtvÃ¡ ÅĻi
Ġman dÃ¡t
ĠstÅĻe deÄįnÃŃ
ĠKut nÃ©
ĠR ov
ĠÅ¡est Ã½
Ġjednotliv cÅ¯
di m
Ġko lÃŃn
Å¾ nÃŃm
ĠMosk vy
ĠkomunÃ¡l nÃŃch
ĠpovÄĽ domÃŃ
as lou
ĠtÄĽÅ¾ kou
Ġrestau ra
me di
Ġodstar tuje
ĠsluÅ¾ bou
ĠpÅĻestÃ¡ vky
ĠsmÄĽ s
Ġspoj it
ĠhavÃ¡ rii
VÃ½ bor
ĠprotÄĽ j
ĠBrati slavÄĽ
Ġre fle
Ġzakou pit
ĠzpÃŃ vat
Ġna ka
ro ba
Ġsle vy
ĠzachrÃ¡ nil
Ġpo klÃ¡dÃ¡
Ġpolicej nÃŃch
Å¯Å¾ u
Ġpopula rit
Ġregion Å¯
Ġpod ala
ĠÅł Å¥ast
E LE
Ġval nÃ©
Ġod raz
ĠhrÃ¡ ly
Te chni
Ġsp lnÄĽ
Ġnez mÄĽnÃŃ
n kÅ¯
Ġnedo t
v Ã³
ĠBu ri
Ġaktu Ã¡lnÄĽ
ĠNymbur k
ĠD op
ĠpÅĻÃŃro da
Ġnep rÅ¯
ĠnepÅĻÃ¡ tel
T Y
Ġd rÅ¯be
sÃ¡ nÃŃ
Ġpe tici
Ġvstup enek
ĠMad rid
Ġup ly
ĠvÃ½tvar nÃ½ch
van Ã©m
Ġvide a
Ġodp oru
Ġfavori tem
Ġz hlÃ©dnout
Äį kovou
Ġ201 5
Ġinscena ci
ĠnÃ¡ bytku
ĠumÃŃ stit
ĠnÃ¡ kupy
ĠÄįtenÃ¡ ÅĻ
Ġpo cÃŃ
PÅĻed poklÃ¡dÃ¡
Ġky t
Ġslavnost nÃŃm
ĠzemÄĽdÄĽl ci
kov anÃ½
Evrop skÃ¡
Ġslu Å¡nÃ©
ĠTak Ã©
ĠAustrÃ¡ lie
S pÃŃÅ¡
Ġnap ovÃŃ
z kovÃ¡
ĠR onal
ĠE u
O pravdu
p ÃŃm
Ġno sit
Ġost r
Ġ9 2
Ġvy chÃ¡zet
im ble
Å¥ te
ĠpÅĻi dÃ¡vÃ¡
ĠA by
Ġciz inci
Ġneob je
Ġsel hÃ¡nÃŃ
ĠMiku lÃ¡
ĠprovÃ¡ dÄĽ
Ġpoku sit
ĠÄįtvrt Ã©ho
ch ovÃ©
r nÃ¡ch
ĠDenÃŃ k
Ġbabi Äįka
Ġreag uje
Ġman u
Ġani m
Nej sem
ne ÅĻi
Ġnazna Äįuje
ĠvÄĽ zeÅĪ
ĠproblÃ© mech
sti ÄįnÃŃ
ZÃ¡ kaz
hra dy
Ġzneu Å¾ÃŃvÃ¡nÃŃ
My slÃŃte
fici Ã¡lnÃŃ
Ġhmot nosti
Ġzhodno til
liv Ã½ch
ĠhÅ¯ ÅĻe
ĠzodpovÄĽd nost
Å ¤
ĠzÃ¡vod nÃŃk
Ġope racÃŃ
Ġspoj enÃ½ch
Ġst atu
Ġnakup ovat
Ġkandidat u
Ġtuzem skÃ©
Ġrene san
ĠpÅĻedstavi tel
ĠKam il
N ov
ĠB lat
ĠstÅĻedi sku
Ġdeb ak
ĠdÃ© lka
ĠM Å¯Å¾e
Ġveli kÃ¡
Z vÃ½
Ġfun gu
ĠPet ru
s or
ven ÄįnÃŃ
PÅĻÃŃ bÄĽh
mÃ¡ nek
ĠnÃ¡jem nÃ©ho
ĠzpÃŃ vÃ¡
V lÃ¡
ĠA ha
Ġnast art
ĠzÃ¡sa hy
Å¾ te
Ġf u
Ġkre vnÃŃ
Mu ze
ĠD etro
Ġko tou
ĠschÅ¯ zce
Å¡ov skÃ½
Na Å¡i
ĠlÃ¡ znÄĽ
ĠvÄĽ dÄĽla
kupe ctvÃŃ
Ġilu stra
am Ã¡t
ĠdÃŃtÄĽ ti
ĠchybÄĽ lo
Ġle sk
Ġstudent ka
ĠupÅĻes nila
ĠOkres nÃŃho
ĠvÃ½mÄĽ na
ĠpÅĻÃŃ pra
Star Å¡ÃŃ
ĠÅłpanÄĽl ska
ĠzvÃ½ hod
ĠvÄįerej Å¡ka
Ġodpad nÃŃch
Ġsv i
ĠtovÃ¡ rny
boo ku
ĠuÄįin it
ĠMasary kovÄĽ
bi a
Ġhmot nost
ĠzÃ¡vÄĽ ry
Ġobec nÃŃho
Ġobyvatel Å¯m
en Å¡ÃŃ
Ġkon dici
p lnÃŃ
N IC
ĠprÅ¯myslov Ã½ch
Ġob leÄį
ĠVÅ¡e chny
Ġzahra jÃŃ
lÅ¯ v
Ġkr Ã©m
bo hat
ĠpÅ¯ vab
hod nou
Ġo hodno
Ġs now
dent Å¯
ĠS N
ĠbrÃ¡ nu
TÅĻe bÃŃÄį
Ġproje ktem
ĠpÅĻedpo klady
Pr vnÃŃm
Ġzlat ou
ĠJ el
Ġdu cha
Ġtvr dit
ĠzranÄĽ nÃ©ho
Å¡ skÃ©
V oda
Ġsouvise jÃŃcÃŃ
Ġtr vÃ¡nÃŃ
ĠSvit av
Ġhlou b
ĠobtÃŃ Å¾nÄĽ
stup oval
ĠnÃŃz kÃ¡
ĠpÅĻe hledem
ĠnÃ¡po je
Ġuvol nÄĽnÃŃ
ĠroÄįnÃŃ kÅ¯
Ġekonomi ckou
M ezinÃ¡rodnÃŃ
DÄĽ ÄįÃŃn
ĠvidÃŃ me
Ġre spon
Ġdr Å¾enÃŃ
Ġpravi dlo
ta m
ĠkrÃ¡t kÃ½
ĠSevero Äįe
ĠblÃŃ Å¾
Ro k
Ġka li
Ġposu n
ĠnÃ¡zor Å¯
ĠtrÃ¡ vÄĽ
ver u
ĠtÅĻe bÃŃÄį
ĠpÃ¡ smu
ĠStra ka
Ġho lo
ĠzÃ¡jem cÅ¯m
ĠzÃ¡zra k
Ġch or
Ġcyklu s
ĠRat h
lynu lo
ĠrozmÄĽ ry
ĠZÃ¡ me
ĠCh tÄĽli
ĠC ou
b rav
Ã½ Å¡
ĠkrÃ¡s nou
Tvr dÃŃ
in er
ĠpÅĻÃŃ Äįin
Ġkonce pci
Ġro u
Ġpoli to
Ġdr Å¾eli
ka cÃŃ
Ġbaz Ã©
ÅĪ me
ĠpÅĻi vedl
ĠpronÃ¡ jmu
Ġvy chovÃ¡
Ġva ÅĻenÃŃ
Ġzele nou
Ġdi v
ĠlÃŃ stek
Ġkle sa
k rov
Ġrespekt ovat
VÃ½ raz
Jablo nec
ÃļÄįa stnÃŃ
pa dek
vi ze
Dom nÃŃ
dol fa
ĠstÃ¡ li
8 5
Ġusil ovat
Ġkole kce
ĠmyÅ¡len ku
Ġslav it
ĠtvÅ¯r ce
Ġo l
ĠnÃ¡ stro
Ġkapit ali
Ġbo lÃŃ
ĠK de
ĠpÅĻe vlÃ¡
ĠHo rÃ¡k
ĠzemÄĽ mi
Ġte pl
Ġvy ÅĻi
ĠÃļ stavu
Ġprod lu
D Å¯m
ĠPav lem
Ġuj al
ĠO li
O na
Ġpop ÅĻÃŃ
ĠsÃŃ dla
mÃŃ me
ĠbÄĽÅ¾ nÃ©ho
r kou
ĠvysÃŃ lÃ¡
Ġtvor ba
ĠprÃ¡vnÃŃ k
Ġjmen ovat
ĠpÅĻÃŃ bram
ĠJo se
ĠstrÃ¡v it
ĠplÃ¡ Å¾
ze c
Ġkru hu
Ġp ani
Ġsig nali
Ġjas nÃ¡
Ġpoznat ky
ĠD ouf
Ġnut nÃ¡
ĠÄįeskÃ© mu
Ġv ul
ĠÃºspÄĽch Å¯
ĠÄįas Å¯
ĠJo ze
Ġpo rno
Ġvstup em
ĠF ir
ĠRou d
ĠpadesÃ¡t Ã½ch
U dÃ¡
Ġpostou pit
ĠNÃ¡ rodnÃŃm
Ġrefor ma
ĠRad ho
Â °
ĠcÃŃ lÅ¯
ĠnezamÄĽstnan Ã½ch
Pa cha
Ġdov ez
ÃŃ n
Ġolympij skÃ½
Ġj mÄĽnÃŃ
ĠÅ¡tÃ¡ bu
t Ã¡t
ÅĪ at
Ġupozor ÅĪujÃŃ
Ġvy skyt
in s
Ġo tro
Ġvy kra
ĠVla sta
Ġmotiva ci
Ġpa pri
ĠzÃ¡sad ÄĽ
Ġsto per
ĠVy Å¡
ĠvÄĽ zni
Ġtr Ã©
li ka
Ġupe v
jez dech
G a
Äį inou
U SA
ĠPrÃ¡ vÄĽ
Ġs chÃ¡zÃŃ
ĠPraÅ¾ skÃ©ho
P lÃ¡
Z ad
Ġvylou Äįen
ĠvÃ½raz nÃ½
Ġbr zd
Ġob sadila
D M
ÅĻ skÃ©m
Ġzastou p
Ġklasi ckÃ½ch
ÅĪ any
Ġodpole dnÃŃ
Ġna chy
Ġse kce
so li
ĠpopÅĻÃŃ padÄĽ
ĠpÅĻÃŃÄį inu
Ġochut nÃ¡
ĠmnoÅ¾stvÃŃ m
ÅĻ inÃ¡
lÃŃ te
Ġautom at
ĠGam br
Äį ist
Ġar ci
ĠmalÃŃ ÅĻe
Ġfakul tÄĽ
ĠzasÃ¡ hla
h nul
Ġprav dy
ĠNÄĽm ce
Ġblo k
Ġg ril
Pod a
lit ou
ĠZÃ¡pad oÄįe
ĠÄįer nÃ¡
ĠLi verpo
ovÄĽ zÃŃ
AN A
Ġvojen skÃ©ho
Ġpo stÅĻe
Ġe dit
Ġbrat ÅĻi
Ġne kou
ts burg
Ġni Äįeho
ĠvyÅ¡etÅĻ ovatel
Kone ÄįnÄĽ
ĠpÅĻi bylo
Ġkres by
Ġku ÅĻÃ¡
Ġdeb at
ĠzahÃ¡ jenÃŃm
ĠnaÅĻÃŃ dil
ĠKovÃ¡ ÅĻ
Ġjedni Äįka
ĠS ar
Ġpos ily
Ġport fo
Ġprofe so
ĠdÃ¡ my
rod ovÄĽ
Ġregu lace
Ġocho ten
Ġinci den
ĠPan ny
ĠBa uer
Ġz ka
Ġidenti fi
ĠG ymnÃ¡zi
ĠstÃ¡ nÃŃ
ĠW ood
Ã³ zu
mÃ© no
ĠA rno
Ġag ent
ĠI m
ĠBo le
x a
tÄĽ jÃŃ
ro ste
ĠpÄĽ Å¡ky
ĠzpÅ¯sob uje
Ġpro p
z ovaly
ĠJe lÃŃnek
ĠchrÃ¡ mu
ĠzÃ¡mo ÅĻÃŃ
Ġperson Ã¡l
li vnÃŃ
ĠJaro mÃŃra
Ġter m
Ġ Äİ
ĠslÃ¡ vy
Ġhuman itÃ¡rnÃŃ
Ġvrace jÃŃ
an skÃ©
ĠÃº spo
Ġde sce
Ġnejza jÃŃmavÄĽjÅ¡ÃŃ
Ġpoliti ckÃ½m
ĠobrÃ¡ til
Va Å¡e
ĠG alerii
Ġzp rovoz
ĠStrako nice
Ġsekre tÃ¡ÅĻ
ke Å¡
Ġf arma
ĠuÅ¾ÃŃ vÃ¡
Ġmari hu
Ġsilni ÄįnÃŃho
Ã ¬
Ġst ovku
ĠVz hledem
ĠsklÃ¡ dÃ¡
Ġve le
in ovÃ½
vajÃŃcÃŃ m
Ġv iny
ĠpÅĻÃŃ strojÅ¯
ĠÅ¾ena mi
U B
Äįlen nÃ©
ĠvÅ¡eobec nÄĽ
ĠpoÄį ty
teÄį nost
ĠZatÃŃm co
6 8
Ġodbor nou
Ġnehod lÃ¡
ĠS kal
bu ji
Ġpla tu
ven ci
sÃŃ k
Ġo hla
Ġh eslo
Ġfin i
Ġprosa zovat
ĠU K
ĠpoÄįÃŃta jÃŃ
Ġkomo ra
Ġnemuse jÃŃ
Ġkata stru
ni or
m ova
Ġnavr ch
Ġza vola
Ġsoci Ã¡lnÃŃm
ĠM no
ĠU r
ĠvÃ½ hoda
ĠzamÄĽstnan cÅ¯m
B ud
Ġorgani smu
ĠÃºÄįastnÃŃ k
Ġzkra ch
ĠNÃ¡ mÄĽ
Ġli nka
Mo rav
Å¡t iny
Ġno Å¾em
ĠÅĺe ditel
ĠL ovo
Ġjmen oval
ĠPo p
ĠÅĻe mes
Ġposti Å¾enÃŃ
ĠnejÃºspÄĽÅ¡ nÄĽjÅ¡ÃŃ
ĠPra hou
Kni ha
ĠprvnÃŃ mu
ĠvyÅ¡ Å¡ÃŃm
Ġkultu ra
Ġorgani zaÄįnÃŃ
ĠProto Å¾e
Ġhokej ovÃ©ho
gi ckÃ½
Ġvar oval
x t
VÃ½ znam
s vÄĽ
e Å¡
Ġsebev ra
teÄį nÃ½m
Ġmusli m
Ġsla bo
dÄĽ te
lov e
Ġuniverz it
Ġo ny
Ġtisk ovÃ©ho
ĠuskuteÄį nila
ni Äįku
Ġra si
ĠD ro
vod a
D louho
ĠTÅĻebÃŃ Äįi
Ġjazy kÅ¯
Ġposte li
Ġkonkurence schop
Ġle da
Ġmist ry
Ġstud enÃ©
ov ci
Ġaplika ci
Ġnepo tvr
Ġhot ovÃ©
Ġpoz mÄĽ
U vedl
vat o
ĠneÃº spÄĽÅ¡
struktu rali
ĠCent rum
Ġzalo Å¾ena
Ġma z
Å¡t inÄĽ
Äįan Å¯
ovanÃ© mu
Ġlicen ci
ĠBa yer
Ġdiplo ma
ÄĮ t
Ġmimo chodem
Ġposto je
ĠÃºÅĻad em
ti slav
Ġne hraje
NÃ¡ sledu
hlÃ© dli
ki a
en er
o prav
ĠkÅĻe slo
ĠK ada
E lekt
Ġza vo
ĠF ry
Ne vÄĽ
ĠÄįt k
ĠprÅ¯mÄĽr nÃ½
Ġse k
Ġpochval uje
Å¡i c
LO M
ĠpoÅ¡kod il
ĠvlastnÃŃ mi
Ġ5 000
Ġe roti
j d
Ġtex ti
l na
ĠBu deme
ĠdÄĽ lnÃŃci
hÃ¡ k
ĠpÄĽt krÃ¡t
tel nÃ©ho
Ġob al
Ã¡n skÃ½
ĠVÃŃt kovic
Ġhra Äįky
ĠzÃ¡ plav
Ġpa pr
Ġpoji Å¡tÄĽ
ĠD Å¯m
Ġotev ÅĻeli
Ġur ÄįenÃŃ
Ġzave de
Ġtan ec
ak espe
Ġne bav
en skÃ©ho
ĠVl Äįek
Ġsta letÃŃ
ĠpÅĻivez l
mÃŃ rem
Ġna tr
Ġna la
Ġl ho
ĠO tro
Ġkomi sa
Ġut rÃ¡
rÃ¡ toÅĻi
Ġvy stupuje
Ġnez le
ĠpÅĻivez li
Ġko tel
it t
MÃ¡ lo
O r
ĠneÅ¾ Ã¡
Ġhlad inu
rÃ© n
Ġsk vr
Ġost rova
dren ali
Ġna stÃŃ
Ġres ortu
ĠMi rek
Ġposkyt ne
Bu du
ĠvÃŃtÄĽ zi
ĠD Å¯
Ġparkovi Å¡ti
e stru
ĠkrÃ¡t kou
Ġklasi ckÃ½
ĠP il
ĠskvÄĽ lÃ¡
ĠBr Ã¼ck
Ġo ranÅ¾
Ġkdy koliv
Ġjist Ã¡
ĠprÅ¯mÄĽr nÃ¡
ĠpÅĻev zala
ĠpÅĻe h
ĠneÅĻe kl
Ġjednad va
Ġbrit skÃ½ch
Ġt or
Ġdomluv it
Ġdorost enci
z anÃ½ch
ĠD is
F anou
Ġz vedl
Ãļ da
ĠzvlÃ¡ dne
ĠpÅĻednÃ¡ Å¡ky
Ġnemoc nÃ©
Ġproce du
u e
pis uje
Ġchy t
Ho st
ĠGre en
S em
Ġku ku
ĠkÃ³ d
Ġporov nÃ¡
je c
Å½i vot
ĠzÃ¡vod nÃŃ
M ag
Ġsk lenÃŃ
mÄĽ rem
ĠvyÄįÃŃ sle
J ind
Ġza vin
Ġex pe
Z pÄĽ
Ġschop nostÃŃ
Ġneu ro
ĠC hem
ĠtrÃ¡vnÃŃ k
Ġpod pisu
ĠtÄĽ s
L Y
sk ot
Ġau ten
lÃ¡ tor
Li to
ĠzvÃŃtÄĽz it
ĠorganizÃ¡tor Å¯
ĠpÅĻekva pil
Ġst re
j ou
Ġc enÃ¡ch
Mode rÃ¡tor
ĠvÃ½ skyt
Ġkr va
ĠmuzikÃ¡ lu
ĠsbÃŃ rka
StrÃ¡Å¾ nÃŃci
ĠzvyÅ¡ ovat
Ġbohat stvÃŃ
Ġkontra kt
Ġkomuni kovat
ĠSlavi ÃŃ
ĠpÅĻÃŃ jezd
ĠV ZP
Ġsam Ã©m
Ġkape lou
Ã¶ r
ĠlÃ© k
ĠveÅ¡ke rou
hod it
Ġevrop skÃ©m
Ġkuchy ÅĪ
Ġpohon nÃ½ch
Ġkvar te
ra nu
Ġhlad iny
ĠvyhlÃ¡ Å¡en
Ġvy ni
Ġcykli sty
Ġvyd alo
ĠjednÃ¡ nÃŃm
ĠkandidÃ¡ ty
ĠsebevraÅ¾ du
Ġcel Ã½m
Ġa tom
ĠdodrÅ¾ ovat
Ġro kÅ¯
Ġabsolv ovat
Ġzaslou Å¾il
Ġdi s
slane ctvÃŃ
OST RAVA
ĠKraj skÃ©ho
Äį na
Ġod volal
ĠVÃŃ deÅĪ
Ġkonstru kci
ĠÃºÄįin ku
ĠniÅ¾Å¡ÃŃ ch
ĠlÃ©Äį bÄĽ
burg u
ĠkaÅ¾doden nÃŃ
Ġzi sky
M nÄĽ
Diva dlo
Ġdiplo mat
Ġz ÅĻiz
ĠÄįa st
ĠpÅĻiprav ilo
Ġob sadili
ch et
ĠSvÄĽt ovÃ©
Ġex pon
ĠÅ¡kol nÃŃch
Ġad res
Ã¡tor Å¯
ĠHon za
ĠBru ntÃ¡l
ĠodpovÃŃ dat
ĠurÄįit Ã¡
den Ã½
Ġb lÃ½
S prÃ¡v
Äı ka
j nÃŃho
c ovÃ©ho
ĠnÃ¡z nak
Ã¡ ÅĻe
Ãį R
Ġautobu sem
ĠVel kÃ½
ĠPut in
ka ÅĻ
ĠS prÃ¡vy
ĠIn stitu
ĠzÃ¡ chy
ĠvyhrÃ¡ ly
Ġs ing
Ġle sÃŃch
ĠPolici stÃ©
ra va
ĠS C
sa va
Ġtex tÅ¯
Ġnep Å¯jde
Äįe li
ĠkÅĻÃŃ Å¾e
H OD
Ġd vÅ¯r
Ġnut nosti
c zi
Ġnene chÃ¡
kor ej
Ġbu nÄĽk
ĠMiku lÃ¡Å¡
Ġde Å¡tÄĽ
Ġjas nou
Ġsoukrom Ã©ho
ÅĻ ou
ĠnÄĽjak Ã©m
to to
Ġbyd let
ĠzÃ¡bÄĽ ry
ĠSt B
nov Ã½m
Ġvy rÅ¯
Ġneo de
Ġg ale
ĠnemÅ¯Å¾e te
ĠprohlÃŃ dku
MÄļ ST
ĠU n
hra diÅ¡Å¥
Ġkre dit
N or
Ġrezi gna
PÅĻe rov
ĠTo y
ĠB oru
der s
ĠÅłvÃ©d sku
ĠstÃŃ nu
Ġt Ã©hoÅ¾
Ġskla deb
Ġtypi ckÃ©
Ġ rÃ©
ĠÅ¡ lÃ¡
ĠlÃŃ bit
Ġobra tu
ĠVel kou
Ġo xi
ĠpovÃ¡ leÄį
ĠRus ovÃ©
hy b
Ġvi ditel
ĠP ec
ĠumoÅ¾ nit
Ġs om
So ciÃ¡lnÃŃ
Ġobje vilo
Ġne oby
ÅĻa dech
Ġru ÄįnÄĽ
Ġ7 50
Tro chu
Ġ ÄıÃ¡
va nÄĽ
Ġp ada
Ġple ti
Ġdefen zi
Ġslu ch
Ġfotbal ovÃ¡
Ġdesig nu
Ġzaznamen Ã¡
Ġst anou
ĠtÄĽ hot
Ġpra ch
Ġzlo m
OtÃ¡ zka
Ġvrst vy
teri ÃŃ
ĠCh tÄĽl
Ġkab iny
Ġch aty
RO D
Ġbul vÃ¡
ĠRober ta
Ġobec nÃ©
Ġpartner stvÃŃ
Ġuspo koj
ĠpeÄį ovatel
Ġmysle li
Ġfirem nÃŃ
Ġmi si
Ġbeze sporu
ch en
Ġtroj nÃ¡sob
Ġ22 0
Ġvy znamen
Ġsp od
Ġkore spon
Ġko Å¡i
kova cÃŃch
ĠzmÃŃ nÄĽnÃ½ch
ĠzaÅĻÃŃ zenÃŃm
bur k
ct vo
ĠK RÃģ
ĠvystÅĻÃŃ dal
ĠÅ¾i vÃŃ
Ġroz hranÃŃ
onÃ¡ ty
ĠvÄĽ ÅĻil
y a
ĠÄįtvrt inu
stu pek
ĠG ala
ĠpÅĻÃŃ telem
ZaÄįÃŃ nÃ¡
ĠbÃŃ lÃ½
Ġosm desÃ¡ti
Jedno t
p amat
ro kra
ĠMÃ¼l ler
Ġpo ÄįÃ¡
ĠzahÃ¡ jit
Ġin je
Ġome zenÃ©
ĠnÃŃ zkou
Ġb eru
v l
Ġin stalace
ĠR ol
Ġdvo ra
s ily
Ġko Å¡ÃŃ
ĠnejvÃ½ Å¡e
ĠBo huÅ¾el
Ġos ad
ĠÅ¡pi Äįky
Ġnev rÃ¡
ĠÅĻe Å¡ili
ĠbezpeÄį nÃ©
ob ÃŃ
ĠzemÄĽdÄĽl skÃ½ch
R ed
ĠobrÃ¡n ci
ĠpÅĻe dali
ĠvÃ½znam nÃ½m
Å¡t ina
Ġnava zuje
Ġode hrÃ¡li
Ġrozhod ly
ĠRoky can
ji ÄįÃŃn
Ġto ÄįÃŃ
Nem Ã¡m
p lenÃŃ
ĠN ynÃŃ
lev nÄĽjÅ¡ÃŃ
Ġspis ovatele
nost em
Ġle ck
ova ce
Ġsti hl
B rnÄĽ
ĠvteÅĻ iny
ĠtÃ½ kajÃŃ
ĠvÃŃtÄĽz nÃ½
ĠBo ha
ĠzÃ¡bra dlÃŃ
Ġem a
Ob dob
ĠobÄįan skÃ½ch
Ġvol nÃ©m
ĠmlÃ¡ Äı
Ġsamot nÃ©m
Ġin zer
Ġpro jde
Ġoto Äįil
Ġsli bujÃŃ
S ÃŃ
ko s
ĠÃºko lÅ¯
be rou
Ġpreven tivnÃŃ
P Ã¡r
Ġpo tu
Ġsestav u
ĠDo mu
P ÅĻÃŃklad
Po lo
Ġsubje kty
I de
U pozor
Ġs nu
ĠD NE
T Ãį
ĠÃºtu lku
Ġmanagem entu
Ġsr de
Ġjapon skÃ©
va nÃŃ
Ġnemy slÃŃm
ĠtÄĽÅ¾ kÃ½ch
ĠpÅĻe kÃ¡Å¾e
ĠCh lu
ĠstÃ¡ nku
ĠLud mila
ÄįÃŃtÃ¡ nÃŃ
ĠzamÄĽÅĻ enÃ©
ĠvÄĽz ÅĪÅ¯
Ġli mity
ĠpÅĻev zÃŃt
ĠvÄĽde ckÃ©
ĠotevÅĻ enÃ¡
Ġu n
Ġsle dujÃŃ
ĠzabÃ½ vajÃŃ
ĠHe in
ĠK no
ĠM ana
Ġsu ch
. "
ĠBa g
ĠH il
Ġvy m
ĠskuteÄį nostÃŃ
ĠtisÃŃci letÃŃ
s Ã©r
K Äį
Ġzneu Å¾itÃŃ
T S
Ġzak ladatel
Ġpneumati ky
Ġpro prac
Ġima ge
Ġobnov enÃŃ
je te
4 1
ĠzÃ¡ pisu
ĠpÅĻed Ã¡nÃŃ
ĠmateÅĻ skÃ½ch
O z
Tra diÄįnÃŃ
ĠZlat Ã©
di um
Ġzmize la
OV A
Ġozna Äįuje
j skÃ½
Ġvyrov nali
ĠFakul tnÃŃ
ĠTe lecom
ĠV Å¯
ĠpÃ¡ novÃ©
ĠpÅĻÃŃspÄĽv kÅ¯
Ġob divu
ĠvÃ½u ku
rov nÃ¡nÃŃ
F OTO
ĠL ub
Ġne stÃ¡
Ġroz mÄĽr
ĠbÃŃ l
ĠschÅ¯ zku
ĠvÃ½hod nÄĽjÅ¡ÃŃ
ĠstÅĻe dnÃŃho
Ġpali v
Ġpodpo ÅĻil
Ġarchi v
V V
Ġg ala
In form
ĠmÄĽst skÃ©m
ĠplzeÅĪ skÃ½
Ġroz pad
Ġf lo
ĠC hÃ¡
ĠvÃ½ro bek
ĠzaÄį le
an ty
len ky
Ġzdob ÃŃ
O sobnÄĽ
ĠspoleÄįen skÃ½ch
ku r
Å¡ any
ĠvÃ½z va
ĠMer ce
ĠprÃ¡vnÃŃ ch
Ġho sti
Ġzvo lil
ĠrÃ¡ z
E X
Ġminu s
Ġmen Å¡ÃŃm
Ġb Ã¡l
Ġmeto di
ĠRych nov
nÃ¡ rodnÃŃ
ĠAlo is
ĠDra ho
d ovali
k rou
ĠSlov anu
ĠkamarÃ¡ da
ĠdÃ¡l ky
VÄĽ tÅ¡ÃŃ
Ġosvobo zenÃŃ
Ġpoji stnÃ©
Ġho no
Ġperfekt nÄĽ
ct or
ĠzkuÅ¡e bnÃŃ
Ġne ov
Ġhlubo kÃ©
Ġnom inace
kov anÃ¡
ne tu
Ġsp lat
Äį ova
S obot
ĠsvÄĽ ÅĻila
ku ment
ĠvÃ¡l kou
Ġdisku t
Ġneza jÃŃmÃ¡
Ġly Å¾e
Ġko hou
ma z
Ġnemo hlo
Ġim pul
o kra
Ġsr deÄįnÃŃ
ĠvÄĽ nu
Ġnap odob
J A
advaceti letÃ¡
Ġz lev
na m
Ġjed nal
vÃŃ me
Ġdisku tovat
Ġstudent Å¯m
Ġz hrou
Ġobyva teli
ĠvÃ½ po
ch emi
Ġreprezentan ti
ĠD on
Ġposou zenÃŃ
ĠMe Äįi
ĠvÃ½mÄĽ nÄĽ
Ġnov ela
Ġz mÃŃr
Ġdokumen taci
ĠobrÃ¡ zku
hr n
n ing
ĠÃºva hy
Å¡ tu
nut Ã½ch
si s
ĠsÃ³ li
ĠsÃŃ dli
Ġpora dil
Ġdruh Ã½ch
Ġcelost Ã¡t
Ġu to
Ġe vange
ĠPaÅĻÃŃ Å¾e
Ġt lou
Ġcuk r
ĠvÄĽd cÅ¯
Åĺ ek
i telÃ©
ĠP ET
ĠnemusÃŃ te
Ġvy drÅ¾et
Ġpro nesl
ĠodliÅ¡ nÃ©
p kovÃ¡
VÃ½ kon
ĠzÃ¡klad em
ĠublÃŃ Å¾enÃŃ
Ġocen il
ĠP on
Ġpo mysl
Ġkomplet nÄĽ
cent rum
vyÅ¡ Å¡ÃŃm
ĠLe on
bod ovÃ½
Ġnepoved lo
va Äįka
Ġinvesti ÄįnÃŃch
Ãļ ÅĻad
ĠvÃ½ pravy
Po Äį
ĠpÅĻÃŃ Äįce
ĠK ova
ĠÄįer nÃ½ch
ĠÅ¾ lou
Ġvy sta
ze lo
Ġmou ky
Ġt hat
Ġakce pt
Ġdola ru
ĠAlb rech
Ġin g
ĠpÅĻÃŃprav ky
emo kra
Ġkom od
ĠCent ra
Ġmob ili
ĠHo ÅĻ
Ko lÃŃn
ho ny
ob i
Ġot ci
Ġzak ot
ĠoblÃŃb enÃ½
Ġprovoz ovat
ĠÄįa stÃ©
Ġza vazad
Ġmno hÃ½ch
Z novu
Ġpark ovacÃŃ
Ġre zolu
Ġkur s
ĠpÅĻi tÃ¡
ĠreÅ¾i e
tvr tÃ©
Ġzd at
Ġu krÃ½
ĠJe an
Ġproblemati ku
ĠÅła f
Ġhygieni ckÃ©
Ġo c
ĠzasÃ¡ hnout
Ġorch estru
Ġsymbo lem
Ġna klo
ĠskÃ³ roval
ĠzemÄĽtÅĻe senÃŃ
Ġproto ko
on cÅ¯
Ġre ci
ĠneuvÄĽÅĻi telnÄĽ
ĠTa dy
ĠTÃ¡ boÅĻe
Ġdlu hÅ¯
ĠS ti
ĠvÃŃ deÅĪ
ĠpapÃŃ rÅ¯
ĠM rÃ¡
Ġvice pre
Ġkolegy nÄĽ
ĠSt ro
ob ile
Ġza jÃŃmajÃŃ
lnÃŃ ku
Ġkrimin Ã¡lnÃŃ
ĠZa jÃŃ
ĠpÅĻÃŃ dav
ĠzranÄĽ nÃ½
ĠextrÃ©m nÄĽ
Ġplo Å¡
Ġbit vÄĽ
den u
ĠstÅĻÃŃ dÃ¡nÃŃ
Äį ovÃ©
Ġreg ene
ĠÃºÄį ty
ĠBro Å¾
Ġautobus ovÃ©
Ġvytr val
ÅĻ ujÃŃ
Ġmot ori
Ġkan Ã¡l
Ġmno h
Ġz ÄįÃ¡sti
Ġk rÅ¯
ĠCh ovan
ĠSil ve
ĠStaro mÄĽst
ĠvÃ½le ty
rost ka
ĠtÄĽ snÃ©
Ġf ou
Ġzvy kem
ĠB lesk
Ġsa dy
ĠbÃ½val ÃŃ
Ġdva cÃŃ
ĠpÄĽst ovÃ¡nÃŃ
Ġv inou
ĠPa ÅĻÃŃÅ¾
Au tom
ĠKo z
ĠÅ¡ ly
ĠnejznÃ¡ mÄĽjÅ¡ÃŃ
lo na
ĠÅ¡per ky
Ġst rÃ½
Ġznalo st
Ġne hrÃ¡l
w in
ĠJu li
Ġameri ckÃ½m
Ġdru zÃŃ
ĠnezÃ¡visl Ã½ch
Ġd anÃ©m
Ġspl nil
T M
ĠnovÃ¡ Äįka
Ġle Å¾et
Ġkou pe
ku ren
ĠdÃŃ le
Ġner voz
Ġvy chÃ¡zejÃŃ
ĠpÅĻizpÅ¯sob it
ĠneuvÄĽÅĻi telnÃ©
Ġbyt ovÃ©
ĠÃº pravÄĽ
ĠCho tÄĽ
OV ÃĿ
Ġkon alo
men ut
ĠtÃ¡ boÅĻe
Ġako rÃ¡t
Ġzaznamen ala
Ġusil uje
Z cela
ĠÄĮ tyÅĻi
is er
ĠÅ¡ kr
Ġkanon Ã½r
Ġre strukturali
Ġvi cemi
ĠvlÃ¡ dnÃŃch
ĠvÃ½z vy
ĠstÄĽ Å¾ujÃŃ
m eme
mo st
Ġon line
ĠnÃ¡ro ÄįnÄĽjÅ¡ÃŃ
Ġvypo ÅĻÃ¡d
Ġpo jem
Ġb re
Vla stnÄĽ
logi i
ĠvÅ¯ nÄĽ
ĠuvÄĽdo muje
Ġatra kce
ĠpÅĻetr vÃ¡
ĠÄįerv enÃ¡
Ġza plnÄĽ
ĠÄĮer nÃ©
ĠnahrÃ¡ vky
ĠKu bi
ĠÃºste ckÃ©
ĠschvÃ¡ lit
ĠÄį o
d anÃ½ch
ĠB ill
ĠÅł tra
Ġba terie
ĠA NO
pro de
ĠvytvÃ¡ÅĻe jÃŃ
Ġsou stavy
Ġst resu
ĠpÅĻe jÃŃt
ĠAlexan dr
o logovÃ©
Ġsekun dy
, -
ĠdÃŃtÄĽ tem
Ġte stÅ¯
ĠmuÅ¾ stev
ĠC hrÃ¡
ÄįÃŃ cÃŃ
B M
ĠschÅ¯ zi
Ġvyz ved
Ġplat for
ĠzakÃ¡ zÃ¡
ĠvÃ½ klad
Ġne jed
Ġpo nech
Ġatra ktiv
o lu
Ġposkyt nutÃŃ
ĠIP B
Ġex ce
Ġkdy koli
ĠT ony
Ġky se
Ġinfor muje
Ġz byt
A ktu
ĠSy dney
ĠkÅĻe sla
ĠpÃ¡s ma
ĠobÃ¡ vajÃŃ
ĠPrÃ¡ va
b lÃ¡
p ru
Ġsoused stvÃŃ
ĠmÃ¡ sla
PL ZEÅĩ
Å¡to f
si vnÃŃ
sko hradiÅ¡Å¥
Ġlidov cÅ¯
va cÃŃho
met rovÃ½
ĠA K
Ġhistori k
Ġh us
Ġka Å¡
Ġekonomi ckÃ¡
Ġkomi sÃŃ
Ġhor kÃ©
ĠD em
Ġjader nÃ½ch
Ġsvat Ã©
Ġmeto da
dob y
ĠNada ce
dÃŃ cÃŃ
ber ger
ĠpÅĻe Å¾itÃŃ
ĠÄĮ SL
ĠFe stival
Å¡e ÅĪ
ĠklÃŃ Äįe
Ġobchod nÃŃci
mi r
for d
Ġostrav skÃ©ho
ĠolympiÃ¡ dy
chÃ¡ zÃŃm
hod li
nu ty
st ovi
Ġslu Å¡nÃ½
Ġse ster
ĠT rut
O sob
Ġokres nÃŃch
ce ÅĪ
ĠzÃ¡sa dy
en cÅ¯
ĠN Ã¡d
ĠpÅĻipo jit
Ġvystav uje
ĠM et
Ġna poj
Ġkup ovat
Ġmlad oboleslav
Ġk lat
Ġkonzer vati
Ġopera ÄįnÃŃho
a j
Ġbit vy
Ġlo komo
Ġsa teli
ĠbÃŃ lÃ¡
lov u
mat ur
ĠHavlÃŃÄį kovÄĽ
Ġvo ze
Ġhodin ky
te lÃŃch
Ġvyboj ovali
ĠZ ad
Ġto penÃŃ
Ġhle diÅ¡tÄĽ
Ġu stav
Ġciz inÄĽ
tÄĽ Å¾ÃŃ
Ġchor vat
S v
u da
vi zi
ĠÅ¡ t
Ġob ilÃŃ
ĠBlu e
ĠtrÃ© nuje
Ġmat kou
I tal
Ġl Å¯Å¾ek
jat Ã©
ĠdivÃ¡ k
Ne bude
ÄįÃŃ ho
" ,
li nu
ĠB and
Ġposky tujÃŃ
Ġdo pady
Ġza snÄĽ
ĠKlÃ¡ ra
Ġboj oval
ĠzatÃŃ Å¾enÃŃ
Ġide ologi
Ġsport ovce
ĠP le
ĠKana dy
ĠkvÄĽt iny
ĠvÃ½sled cÃŃch
Ġzna ÄįenÃŃ
Ġus mr
ĠvlastnÃŃ kem
Ġprodej ce
ĠkandidÃ¡ tky
Ġpochyb nosti
ĠpoÅ¾Ã¡ rnÃŃ
ĠvÃ¡p na
ĠPokor nÃ½
kov anÃ½ch
Å¾ kou
Ġna padenÃŃ
to le
ĠA gen
Ġteplo tu
Ġkra jem
cha j
i de
gi ckÃ¡
Ġd av
ĠPÅĻe rova
ĠvÅ¯ d
Ġvy tÃŃ
bÃ½ t
ĠstÄĽ Å¾ÃŃ
ĠduÅ¡e vnÃŃ
Ġmy sliv
ĠJ avor
Ġkop anÃ©
ĠBÄĽ le
at Ã©
ĠpÅĻed loni
ba uer
Ġo ÅĻe
lo t
ĠhÅĻe b
Ġvelko lep
ĠT or
Ġ10 5
Od povÄĽÄı
ĠpÅĻÃŃjem nÃ½
Ġs hroma
Ġteleviz nÃŃho
ĠvÅ¡e dnÃŃ
Ġnov odob
Ġvypo ÄįÃŃtÃ¡
Ġvyt la
Ġsou dnÃŃho
at h
Kraj skÃ½
ĠnÄĽk Ã½m
ĠnÃ¡vÅ¡tÄĽv nost
Ġzkla man
Ġpat ÅĻilo
Ġzkou Å¡ce
6 7
Ġob mÄĽ
ĠÅ¾i la
ĠstÃ¡ hnout
ĠAustrÃ¡ lii
Ġbez moc
ĠIn vest
Ġtra p
lÃ¡ ci
Ġsil nÃ½m
Ã¶ n
ĠpÅĻi jÃŃmat
Ġpat ra
ĠByst ÅĻice
Ġpotvr zujÃŃ
del Å¡ÃŃ
Ġrodi Äįov
il ler
Ġzvo lenÃŃ
Ġhokeji sta
mi c
Ġhodno til
Ġ198 6
Ġinteli gen
Ġtune lu
Ġka ros
ro di
ĠZ nojem
Ġplo t
ĠpÅĻev zali
Ġo hra
Ġstav bou
Ġhlu k
ĠlÃ©Äį ba
Ġob vi
NÃ¡ mÄĽ
ĠuspoÅĻÃ¡d at
Ġvz oru
y slÃŃm
Å¾ emi
ĠP S
ĠprÅ¯ jezd
ĠSpart ak
Ġprofesion Ã¡lnÃŃch
ĠMartin em
Ġlo ka
ĠdÃ¡ vali
Ġtrval Ã©
nu ly
Ġtakz vanÃ½
Ġne dali
Ġteleviz nÃŃm
ĠpÅĻe mo
ĠpÅĻ inu
Soupe ÅĻ
ĠposÃŃ lat
Ġk ory
Ġdostup nÃ½ch
Ġpot kal
ĠAkadem ie
ho spodÃ¡
ĠJi ÄįÃŃnÄĽ
Ġkone ÄįnÃ©m
bÄĽ Å¾nÄĽ
Ġohro zit
ĠukÃ¡z ali
ĠschÅ¯ zky
Ġkam pani
Ġpo pla
ĠzlÃŃn skÃ©
ĠpÅĻedchozÃŃ ho
ĠpodÃ¡ vÃ¡
ĠRe al
Ġzle va
Ġ198 0
Ġmo zek
tu re
Ġnena padlo
on s
ĠB lo
Ġvol bÃ¡m
ĠzabÃŃ t
ĠS ez
ĠÅ¡panÄĽl skÃ©
sti va
ĠpÅĻÃŃsluÅ¡nÃŃ kÅ¯
Ġvo lant
H LAVA
ĠÄį le
Ġposu nul
Ġsled ovali
ĠodÅ¡kod nÄĽnÃŃ
M ez
p Å¡ÃŃ
Ġs nÅ¯
Ġze snu
ĠÄįerst vÄĽ
Ġdivi znÃŃ
Ġsoukro mÃ½
Ġtlu mo
ĠdosÃ¡ hne
Ġosa mo
Ġmanagem ent
Ġvr stva
ĠdosÃ¡ hly
ĠstÅĻele cky
ĠKo lÃŃnÄĽ
ĠA V
ĠMaÄıar ska
Ġorg Ã¡nu
sÃŃ te
Ġpora dÃŃ
ĠzamÄĽ ÅĻenÃŃ
ĠpodÃŃle li
ĠÄĮ D
P I
ĠÅĻek nu
Ġtren dy
sk lÃ¡
ĠsouÄįas nÃ©m
ĠpÅĻekvapi lo
Ġpro ta
Ġul tra
G B
Ġza jÃŃma
Ġpod tr
Ġko pa
Ġzauj al
ĠÅ½ÄıÃ¡ ru
ce ly
di c
b rou
Ġarchi vu
Ġ196 9
ĠpÅĻes nou
c to
Ġpo e
Ba sket
ĠvÃ¡ ze
Ġpon dÄĽlnÃŃ
ĠÅ¡ÃŃ ÅĻÃŃ
ĠN ig
Ġevident nÄĽ
ĠMo j
ĠM lÃ¡
ĠvyÅĻa zenÃŃ
Ġse stÅĻi
Äįlen nÃ¡
Ġtuzem sku
ĠspoleÄį nÃ½ch
ĠRu skem
Kon ec
men ou
fi eld
Ġakci ovÃ©
Ġzdravot nickÃ½ch
Ġroz dÄĽlÃŃ
Ġznalo stÃŃ
Ġvojen skou
Ġnovin ka
ĠplÃ¡nu jÃŃ
ĠvyhlÃ¡ sil
LU B
Ġne vo
ÄįÃŃ ka
ĠD es
a jÃŃcÃŃ
ĠKri stÃ½
ĠnevÄĽ dÄĽli
Ã³ nÅ¯
Ġdoj mem
ĠKu Äįer
po t
Ġode hrÃ¡la
Ġvy f
ĠE lekt
Ġpam atu
N ymbur
Ġpovin en
Ġvyvo lat
Ġozna Äįit
ĠnepotÅĻe buje
ĠnepÅĻi ja
ov em
Ġmajet kem
ĠzkuÅ¡e b
Ġro mskÃ©
Ġnou ze
Å¾it Ã©
Ġch ore
ĠP Ã¡kist
ĠnejvyÅ¡Å¡ÃŃ ch
ĠÄįes ne
ĠÅ¡iro kÃ½
Ġpostav ila
ĠkrÃ¡t kÃ©m
ĠspotÅĻe bnÃŃ
ĠÄĮeskosloven sku
Ġspo je
Ġru mu
VÃŃ t
Ġangli ckÃ©ho
ĠLu ka
Ġvzta zÃŃch
Ġdo klad
Ġni Å¾
Ġu pÃŃ
ĠzveÅĻej nÄĽnÃŃ
Ġko len
Ġposte skl
Ãģ N
Kla us
ĠpÅĻÃŃsluÅ¡nÃŃ ci
Ġmladi st
ĠvelkÃ© mu
ĠÅ¡pat nÃ©ho
ĠpÅĻekon Ã¡
Ġdeseti tisÃŃ
ĠvÄĽn ovali
Ġpro zkou
Ġneo ÄįekÃ¡
Ġky slÃŃ
Ġp tal
standar dnÃŃ
ti tu
ĠZnoj ma
Äįi Å¡tÄĽ
Ġdo hledem
Ġost ÅĻÃŃ
rov anÃ©ho
Ġza pÃŃ
ĠNejvyÅ¡Å¡ÃŃ ho
Ġkau zy
ĠVa Å¡ÃŃ
Ġprezident skÃ©
ĠMu sil
Ġti py
Ġnech te
ÅĻi cha
Ġnesk rÃ½
Ġdisk rim
ĠSmet an
rÃ¡ rnÃŃ
ĠÃºdrÅ¾ by
Ġby s
Ġklasi ckou
Ġhro zilo
ĠspoÅĻitel na
ĠAn dr
Ġsedm desÃ¡ti
Ġobsah ovat
Ġot vÃŃ
ĠÅ¾idov skÃ©
Ġz ez
Ġna instal
Ġh av
vi ditel
ĠsÃŃ dlem
ĠneuspÄĽ l
Ġch ovajÃŃ
Ġdo pustil
Ġvze stup
ĠbÃ¡s nÃŃk
ĠÃºpl nÃ©
ĠprostÅĻe dek
ĠpÅĻe pad
ĠZÃ¡ bÅĻe
Ġnezi sk
Ġmod u
h ovÃ¡nÃŃ
ĠpoÅ¾ad ujÃŃ
nic ku
ĠvyuÅ¾it ÃŃm
ur tu
Ġdosta teÄįnÃ©
Ġpok ÅĻ
Ġlid skÃ½
Opa va
ĠtatÃŃ nek
Ġdramati ckÃ©
ĠpoÅ¾ad ovat
Ġpro bÄĽhl
Ġsum mitu
ĠÃºtoÄįnÃŃ ci
ĠJan y
ĠB avor
Ġ0 4
Ġolympij skÃ©ho
ĠPÅĻesto Å¾e
Ġinvesto ra
Ġje la
ĠveterinÃ¡ rnÃŃ
Ġg eni
LA N
Ġnor mali
ĠMo c
te rou
Ġg yne
ĠBarto Å¡
sku tku
Ġnau Äįil
ĠtrÃ©nin ky
bo li
ĠnezÃ¡ kon
ĠzveÅĻej nil
ĠHo leÅ¡
Ġdivadel nÃŃch
ĠpomÃ¡ hal
ĠdostÃ¡ nÃŃ
Ġzde jÅ¡ÃŃch
ĠpÅĻi vola
Ġpalu bÄĽ
Ġtri at
r nÃ¡
Ġnena Å¡el
Ġtro fe
Ġhor skÃ©
Ġsubje ktÅ¯
ĠN avÃŃc
Ġstej nÃ½ch
pÅĻÃŃ jem
Ġos o
Ġau di
Ġjazy ky
ĠRak ovnÃŃk
ĠChomut ovÄĽ
ĠnevidÃŃ m
Ġital skÃ©ho
Ġchy st
ĠD vÄĽ
oÅ¾ ur
Ġopra vÄĽ
Ġ9 3
Ġd no
ĠV ik
ĠhlÃŃ dky
ĠzasÃ¡ hl
N elze
Ġstaro stou
Ġo ÅĻÃŃ
ta vÄĽ
Ġkoncent race
ĠD vor
Ġlegen dy
Ġna cionali
Ġkriminali ty
Ġper vit
ĠzÃ¡ chod
Ġpo stÄĽ
Ġnemoc nicÃŃch
Ġpreven ci
5 2
Jed nÃ¡nÃŃ
Ġchod ÃŃm
Ġti Å¡e
Ġnesp ra
Ġz vaÅ¾uje
OU C
Ġvr chu
ĠpoptÃ¡ vky
ve ÅĻej
ĠchybÄĽ la
ĠvÄĽ znÄĽ
Ġsna hou
ĠvyprÃ¡vÄĽ l
Ä ĩ
ĠPa ra
ĠspotÅĻebi tel
ĠÅł ternber
o evrop
Ġa stro
Ġcivili zace
K rÃ¡l
ĠukÃ¡z aly
ĠelektÅĻ inu
ĠZ DE
Ġsouhlas it
Ġobjed nat
Ġstaveb nictvÃŃ
ĠL Ã¡z
Ġslu nÃŃ
ĠBÃŃ lek
Ġrozli Å¡enÃŃ
ĠpÅĻe Å¾ÃŃt
Ġmi zÃŃ
ĠÅł eb
Ġse stava
Ġtro pi
ĠvyloÅ¾ enÄĽ
Ġhra bÄĽ
Ġpoezi e
Ġuni kÃ¡
ĠMar ta
ĠSa ra
it ÃŃ
ĠpoÅ¡ko zenÃ©
ĠnechÃ¡ vÃ¡
dÃ© le
ĠDob rÃ½
ĠdÅ¯stoj nÃŃk
ĠD er
ĠpoÅĻada telÅ¯
ÅĻ ovat
ĠPro kop
ĠzaÅĻad it
ĠJ ur
Ġosu dy
ps anÃ©
Ġhosp odÄĽ
tu jÃŃcÃŃ
w aru
ĠpÅĻed at
ĠRadho Å¡tÄĽm
ji Å¡Å¥ov
ori ÃŃ
5 7
Ġlet nÃŃm
fer ence
Ġdo kazuje
Kon cem
se ÅĪ
ĠÃļste ckÃ©ho
ÄĮ EK
ĠstÅĻe ly
ĠvÃ½jime ÄįnÃ½
C heb
Ġchore o
M B
Ġcel kovÃ½ch
Ġko Å¡e
ST O
dem okra
Ġde vi
Äı me
ĠpÅĻiblÃŃ Å¾ila
Ġprote sty
Ġpohro madÄĽ
ĠT em
ĠDom inik
dÄĽ n
to k
ĠK lÃ¡Å¡
Ġdetek tiv
di cÃŃ
Ġmnoho krÃ¡t
i tel
me ran
F R
ĠStra ny
Ġvy ne
ĠnÃ¡dher nÃ©
NÄĽ jak
ĠParou b
ĠangliÄįt inÄĽ
Ġnetu Å¡ÃŃ
6 4
Ġporu chy
Ġsc Ã©n
i er
me Å¡
ĠPit tsburg
Ġce le
b ari
F OR
ĠVlt avy
Ġproved li
ĠolympiÃ¡ du
tÃ¡ Å¾e
leÅ¾ito st
S LO
h Ã©ho
Ġve terÃ¡
ĠuÅ¾i vateli
f al
ĠÅ½elez nÃ½
liv Ã½m
Ġokou z
Ġnena bÃŃ
Ġnev Å¡im
Ġpolovi ÄįnÃŃ
Ġporaden stvÃŃ
Ġs dÄĽl
ĠzÃ¡ pla
mi lo
Ġpop ÅĻe
ĠO H
ĠÃºÄįet nictvÃŃ
Ġb ob
Klu ci
hlÃ¡ sil
ra da
Ġce du
Ġopa ÄįnÃ©m
Ġbez Ãº
Ġpozor ovat
My sle
sahu jÃŃcÃŃ
Ġpro lo
ĠzÃ¡vod em
Ġ198 5
Ġ9 1
Ġbezpro stÅĻednÃŃ
Ġvy zdvi
ĠBy stÅĻi
Ġneza Äį
ĠtakovÃ© mu
ĠtragÃ© dii
Ġprovi zor
Ġk asÃ¡
ĠÄįlÃ¡n kÅ¯
Å¾ Ã¡k
Ġnegati vnÄĽ
Ġhyper mar
AL I
ĠspoluhrÃ¡ Äįe
Ġza pad
Ġobnov y
ĠIzrae le
Ġnedostat kem
ĠÄĮe cha
ĠVsetÃŃ na
Ġ9 4
Ġnad ÅĻÃŃ
Ġuzav ÅĻen
ĠTo ron
T C
ĠTes co
ĠÄįlen skÃ©
ĠtÃ¡ hne
ĠDou brav
se s
Ġvz ruÅ¡
ĠSe i
Ġza sti
Ġdopl ÅĪky
ĠO pat
ck oncÅ¯
ĠpÅĻi ve
ĠlÃ¡ skou
ske v
ĠsnÄĽ hovÃ©
m ovÃ¡
ĠpÅĻesil ovce
in skÃ©ho
Ġneb rÃ¡nÃŃ
ĠpÅĻekva pit
Ġple Å¥
Ġs rozumi
ĠÅłpanÄĽl sko
Ġpo ÅĻi
Ġvo lÃ¡
Ġprezident ovi
ĠneÄįek al
ent Ã¡lnÃŃ
ri k
ĠpÃŃ t
Ġchar itativnÃŃ
ĠPr emi
Ġkriti ka
H er
ĠrÃ¡ zem
de la
ĠK rem
ĠzÃ¡kuli sÃŃ
ĠpÅĻi jet
Ġkoncer tnÃŃ
pu Å¡tÄĽ
Ġla i
Ġver zÃŃ
ĠÃº stÅĻednÃŃ
Ġod vy
Ġaktiv itu
Ġpro h
ZvlÃ¡ Å¡tÄĽ
ĠH anu
6 9
ĠJu ventu
o la
v iny
Kri min
Ġlou t
ĠnÄĽÄįem u
Ġblu es
Ġza volal
De set
Muze um
ved enÃ©
ĠzamÄĽ ÅĻit
fin anc
ĠO tev
Ġpo lep
Ġnu tÃŃ
ĠarmÃ¡ dÄĽ
Ġexist ovat
ĠtÃ½ kat
ĠbÃ½val ou
Ġpro s
TÃŃm to
ĠpÅĻi sti
Ġexp an
t Å¯m
ĠV ra
ĠÃºvod nÃŃch
Ġpozor ovÃ¡nÃŃ
ĠF il
m ovat
Ġtu ku
m Ã¡t
Ġcest ovat
ĠrozvÃŃ jet
NÃ¡ rodnÃŃ
ĠudrÅ¾ ovat
ĠÄįerno bÃŃ
chÃ¡ze jÃŃcÃŃm
Ġkole ktiv
Ġzlo Äįinu
Ġhotovo sti
ĠIr ena
ĠMi mo
Ġciz ince
ĠpÅĻÃŃprav ou
ĠR enÃ©
ĠdrÃ¡ ha
Ja pon
ĠsmÄĽÅĻ uje
O nd
ĠK ob
ĠvyÅ¡etÅĻ uje
ĠD NA
ke v
Ġposta ral
Ġnaz vanÃ©
ĠsouÄįas nÃ½m
V Ã½ch
ĠvÃ½kon Å¯
ĠloÅĪ skÃ½ch
Fin anÄįnÃŃ
ĠÄįin it
Ġste re
kli du
Ġprav Ã©m
ĠAmeriÄįan Å¯
Ġpoje dou
AM U
Ġminister stvem
Ġsta Å¾enÃŃ
ĠstÃ¡ lÃ©
ĠpodÃ¡ vat
Ġsoud ci
ĠÄį lu
ĠzaÅĻa zenÃŃ
v entnÃŃ
Ġza dÃ¡nÃŃ
Ġvedou cÃŃm
ho ÅĻÃŃ
ĠÃº myslu
ck ovÃ¡
Okres nÃŃ
lad it
dÄĽli l
ĠHra nice
Ġsty lem
ĠF ul
Zna menÃ¡
Ġztra tit
Ġkri zÃŃ
ĠpÅĻÃŃ chodem
Ġpe pÅĻ
Ġa pli
ĠbrnÄĽ nskÃ©m
ĠÃºc ty
ĠÅ¾ivot nÃŃm
ĠSedlÃ¡ Äįek
ĠIn dii
C hru
ĠR Ã½
Ġnesta Äįilo
ĠnÄĽme ckou
ĠkÃ¡ vy
leÅ¾ito sti
an da
ĠVÃ¡no c
> >
ĠpÅĻesvÄĽd Äįeni
Ġpad ne
Ġbyt ovÃ½ch
don Ã©
Ġpro na
Ġzahy nulo
Ġdopad la
ĠprohrÃ¡ vali
Ġnav Å¾dy
ĠC am
D NES
Sa ma
Ġin va
Ġjo g
So kolov
Ġdo bÃŃ
am czi
ĠptÃ¡ kÅ¯
Ġpodrob nÄĽ
Ġkr vÃ¡
Ġpropaga ci
Ġd rav
ĠpÅĻÃ¡ tele
ĠvÃ½hra dy
Å¾i ce
ĠnenÃ¡ vi
ĠdoÄį kat
Ġpo ÅĻÃŃzenÃŃ
Ġsystem ati
vÃŃ n
ĠzveÅĻej nit
Ġpokro Äįil
Ġodvez l
ĠS ÃŃ
ĠuÅ¡et ÅĻÃŃ
ĠMuze a
Ġasist ence
Ġne ut
Ġvy ha
ĠVÃ¡clav em
Ġposti Å¾enÃŃm
nÃ¡ lu
Ġgene racÃŃ
Ko mu
h vÄĽz
Ġrefor mu
Ġz tro
Ġkon gres
Ġri val
Ġvstou pila
NÃ¡sled nÄĽ
K lÃŃÄį
Ġeta pÄĽ
Ġkvali t
VÃŃ c
ĠzvÄĽd av
Ġ18 7
u li
Ġbo ho
ĠtÃ½ denÃŃ
men i
Ġspoj Å¯
Ġneza pla
ĠUS B
ĠJize rou
Ġodstup em
Ġa de
Ġs dÄĽ
Ve Å¡
R ob
Ġby rokra
ĠrÃ¡ mec
ĠtehdejÅ¡ÃŃ ho
Ġkraj skÃ¡
Ġobchvat u
Ġf le
Ġost rÃ©
ĠP A
Ġinf ar
Ġnas lou
jÃŃÅ¾ dÄĽli
Ġreali tnÃŃ
ĠK rou
ĠÄĮ lovÄĽk
ĠprÃ¡zd nou
ĠbÄĽ lo
Ġpose zenÃŃ
ĠSt ÅĻel
Ġstou pa
ĠstrÃ¡n ka
Ġod chodem
ĠGo ogle
Ġo Å¡
h ard
Ġkou pili
ĠzÃ¡klad nu
Ġspo lek
ti mnÃŃ
ĠChomut ova
Ġna mÄĽ
Ġ- -
Ġven kova
ĠspÃ¡ chÃ¡nÃŃ
ĠpohledÃ¡ vky
Ġpohod lnÄĽ
bo l
ĠpenÄĽÅ¾en ku
Ġsp r
Ġku dy
Ġposlou chat
ĠBy li
Ġposta rat
Ġnovin ku
ĠÃºrov nÃŃ
ĠnÃ¡ bÅĻeÅ¾ÃŃ
u ti
Ġna kupu
ĠnepÅĻe kva
Ġign or
v oru
Ġs alÃ¡
ĠprÅ¯ mÄĽrnÄĽ
Ġznem oÅ¾
Ġnebo jÃŃ
ĠvnÃŃm at
ĠB K
ĠP ort
Ġko ni
ĠÃº der
ĠC N
Ġpole dni
Ġfilharmo nie
Pa ci
ĠuvÃ¡ dÄĽjÃŃ
Ġdo l
val u
ĠvÃ½ro k
ĠÅ¡o f
Ġne rad
ĠJa mes
B Ãį
y ho
Ġma leb
Ġbra li
ĠhÃ¡ jÃŃ
ÄįÃŃ nskÃ©
Po licejnÃŃ
tÃŃ na
Ġtramva je
ĠÅĺec ku
bu lu
Ġdemonstra ce
ĠFi ala
Ġmali Äįko
ku lov
Ġlegisla tivnÃŃ
Ġsou Å¾itÃŃ
Ġsouhla su
Ġital skÃ½
Å¡ ujÃŃcÃŃ
ĠsmÄĽ si
ĠVÃŃ dnÄĽ
0 9
st nÃ½
ĠV or
Ġinstala ci
Ġned alo
ĠzÃ¡lo hy
ĠÃŃ rÃ¡n
Ġprofe se
I van
ĠnÃ¡ hoda
ĠPlzeÅĪ skÃ©ho
Ġle vnÃ©
ĠspolÃ© hat
Ãģ K
ĠpÅĻÃŃbÄĽh Å¯
at ur
ove du
Ġtradi ÄįnÃŃho
H ude
i ra
ĠpoÅ¾Ã¡ dala
Ġreferendu m
Ġh ity
ho ÅĻe
ĠzpÅ¯sob enÃ©
Ġpart neÅĻi
Ġko ÅĻenÃŃ
ĠÅĻetÄĽz ce
Ġko k
Ġiniciati vy
ĠvÃ½ jezd
Ġosa mÄĽ
Ġvypo ÅĻÃ¡
Ġpod nÄĽt
Ġh el
Ġde fi
de z
G RA
Ġokres nÃŃm
Ġstanov enÃŃ
Ġmotor Å¯
ĠW el
j ovÃ©
ĠAu di
Ġu Å¡i
Ġnej draÅ¾Å¡ÃŃ
sp oda
Ġpr sa
Ġ198 7
Ġpostou pÃŃ
Ġsto lnÃŃ
E va
K lat
ĠnÃ¡ lada
Ġhod it
Ġkade ÅĻ
ĠPri x
Ġfin Ã¡lovÃ©
ĠvÃ½raz nÄĽjÅ¡ÃŃ
ĠKa p
Ġban ku
ĠvÃ½chod u
K Ã¡
Ġkou zlo
d rÃ¡t
ĠzÃ¡ li
ĠMÃŃ sto
ĠGambr inus
5 8
f ej
Ġhlad ce
Ġra dostÃŃ
Ġgu vernÃ©
Ġsv r
ĠnejvÃ½znam nÄĽjÅ¡ÃŃ
ÄĮlen ovÃ©
Ġp ovÃ½
Ġspolu jezd
ĠznÃ¡m Ã½m
Ġc ar
Ġdramatu rg
Ġkli en
Ġpane lÃ¡
Od povÄĽ
gra mu
ĠÃº zce
ĠtrÃ©n oval
Ã¡ lech
ĠneznÃ¡ mÃ©
ĠÅ½ at
Pra kti
Ġnad Å¡en
Ġopu stÃŃ
Ġmy Å¡le
Ġspokoj enost
Ġlo kÃ¡lnÃŃ
va cÃŃch
Ġeu for
Ġagentu r
Ġkem pu
Ġvlast nostÃŃ
ĠDr n
Ã ĵ
s ity
Z vÃŃ
Ġd emi
Ġtechni ckou
ĠbÃ¡ snÃŃ
ÅĻ iny
Ġdo spÃŃ
KO N
Å¾enÃ½ mi
ĠzemÅĻe lo
ĠÃº hlu
Ġdomov Å¯
ĠvÃ½mÄĽ ny
l Ã³
ĠCh ci
Ch tÄĽla
ĠnÃ¡ Äįe
ĠnÃ¡sledu jÃŃcÃŃm
ĠNik dy
pi Å¡te
po st
ĠvÃ½tvar nÃ©ho
Ġko ÅĪ
Ġplat nosti
Ġkilo metr
zÃ¡ ch
ĠkÃ¡ vu
lez l
dÄĽli t
Ġpoplat ku
Ġslou Å¾il
ĠurÄį enÃ½
Ġpodnikatel skÃ©
Ġproved l
Ġlogi ckÃ©
Ġa part
Ġkalho ty
Jed inou
Ġmil uje
ÄĮe kÃ¡
ĠpÅĻekÃ¡Å¾ ky
ĠP ila
Ġklu kÅ¯
Ġ24 0
Ġre prÃŃ
Ġekonomi ce
ĠtrpÄĽ livost
ĠÅ¡e tr
dor fu
ĠNi kola
ĠdostÃ¡ vat
ĠVond rÃ¡
Ġfi x
ĠHo spodÃ¡
ĠÃºspÄĽÅ¡ nou
Ġproti p
Ġv si
Åł kola
Podob nÃ½
Z i
U her
ĠJi ÄįÃŃna
ĠÅ¾i dle
ĠÄįas ovÄĽ
Ġpod vo
Ġlegen da
ovod ÃŃ
Ġjihlav skÃ©
Ġtr Å¾eb
Ġno ÄįnÃŃch
ĠvÃ½raz nou
M am
ko lo
ĠÄįer pÃ¡nÃŃ
Ġnebude te
ĠÅłuma vÄĽ
re Ã¡l
Ġnevy z
va d
Ġsk rze
Ġmal Ã½mi
rÃ¡Å¾ ka
ĠFer rari
ĠstÅĻedo evrop
ĠpÅĻÃŃ s
ĠR AD
ĠBÃŃ lÃ¡
Ġopozi ci
Äįi cÃŃch
Roz hodu
ĠA S
ĠJapon ska
Ġle c
Ġop ouÅ¡tÄĽ
ig h
ĠLeo Å¡
Ġs jed
ĠjednÃ¡ nÃŃch
Ġu taj
Ġmuzi ka
Ġt rub
Ġv ily
ĠvÃ½no sy
Ġfakul tnÃŃ
ĠseminÃ¡ ÅĻe
ĠnejoblÃŃb enÄĽjÅ¡ÃŃ
Ġro ka
Ġza prac
Ġzpo Å¾dÄĽ
Ġklu ka
ĠpÅĻedstavi teli
s se
Ġod kry
blÃŃ zka
LO ND
ĠtermÃŃ ny
ĠcÃŃrke vnÃŃ
ĠposÃ¡d ka
Ġter min
Ġcu krÃ¡
Ġzasah ovat
ĠpÃ¡t rajÃŃ
Obec nÄĽ
ĠmanÅ¾el Å¯
ĠhlÃŃ dat
mi ce
ĠbrnÄĽ nskÃ½ch
ĠzamÃŃ ÅĻÃŃ
Ġjezd ce
Ġzmize ly
ĠstÅĻe Å¡e
Ġneo hro
ĠpÅĻedstavi tele
ĠKar l
Ġprvo ligovÃ©
ĠÄį tÄĽte
ĠztrÃ¡ tÄĽ
z ovÃ¡na
Ġc ou
ĠÄįeho Å¾
ĠH Z
Ġnato Å¾
Ġbez na
podi vu
ĠmÄĽ ny
ĠStÃ¡t nÃŃho
Ġshroma Å¾Äı
Ġkon Äįet
Ġprezent ovat
5 6
Ġpostav en
Ġprov inci
O tec
go ni
Ġkr mi
Ġhudeb nÃŃm
Ġpoto ka
lÃŃ ci
ĠveÅĻej no
I zrael
ro ka
ĠMari a
B L
ĠpÅĻed vÃŃ
po chy
ĠP ech
ĠZ lÃŃ
ĠS kot
Ġ12 00
Ġvo lal
Ġpo stoupil
Ġcykli sta
Ġzapo mnÄĽl
Ġpotenci Ã¡lnÃŃ
nÄĽ ni
si gn
ĠMist rovstvÃŃ
Ġvy jed
ĠzvÃ½ Å¡enou
Ġchlap cÅ¯
ni to
hod nÃ½ch
Ġtrium fu
Ġprovoz ovÃ¡nÃŃ
Ġmotiva ce
ĠJen Å¾e
Ġstud oval
Ġd anÃ½
ĠM ul
ĠveÅĻej nÃ©m
Ġciz iny
ĠJar mila
Ġma m
ĠlÃ© Äįit
Ne byl
Ġvrtu lnÃŃk
ĠparÃ¡ dnÃŃ
Ġpov odnÃŃ
Ġsedm Ã½
Ġshod nÄĽ
rÅ¯ sta
Ġk ve
ĠÅ¡e sta
ĠVel kÃ©ho
Ġzdo kon
Ġslo Å¾ek
ĠÄįtenÃ¡ ÅĻÅ¯m
Äįen Ã½m
Ġnau ÄįÃŃ
Ġt rum
lu jÃŃcÃŃ
Ġob il
ĠsnÄĽmov na
w ski
ĠP tÃ¡
ĠA N
ĠMuze um
Ġa drenali
Ġzprac ovat
Pod stat
ĠporÃ¡Å¾ ka
ĠnejspÃŃ Å¡e
ĠvÃŃtÄĽz nÃ©ho
ĠH istori
n skÃ½m
ĠzÃ¡ mÄĽrnÄĽ
kÃ¡ Å¡
sti an
Ġvelvy slanectvÃŃ
Ġpor tu
ĠVÃ½ stav
ĠDI VADLO
Ġbrit skÃ¡
Ġpo pe
ĠodpoÄįin ku
Ġpod vodu
ĠÅł ko
d rÃ¡
ĠpromÃŃtÃ¡ nÃŃ
Ġnovo rozen
Ġdispon uje
Ġrozv inu
t ing
Ġup ou
Ġramen o
ĠRadi oÅ¾ur
ĠdÃ¡ no
Ġbr zo
Ġservi su
Ġobec nÃŃch
t Ã½m
Ġstanov enÃ©
Ġskup inÃ¡ch
ÄįÃŃ kovÃ¡
Ġuji Å¡Å¥
Ġpo bÃ½
Ġse hrÃ¡
Ġtelevi zÃŃ
Ma x
ĠÄįet l
Ġprav dou
Ġsko kan
ĠbÄĽÅ¾ nou
ĠT ÅĻÃŃ
ĠpotÅĻeb nou
Ġtest ovÃ¡nÃŃ
ĠCh an
ĠPar k
ĠstrÃ¡ vÃŃ
ĠJi ÅĻina
Ġs ny
ĠpÅĻivÃŃ tajÃŃ
Ġna sÃ¡
Ġztra tÃŃ
ĠÃºÄįin ek
Ġbi op
ĠpÅĻe kladu
Ġgrafi ky
ĠznÃ¡m ou
Ġpy rotech
ĠStre et
LOND ÃĿN
ĠG r
Ġvypad l
ĠchrÃ¡ nÄĽnÃ©
ĠpÅĻÃŃro du
Ġvy sti
ĠS U
Ġ198 4
ĠudÄĽlÃ¡ me
Ġk ovÃ¡
pad alo
ĠNa bÃŃ
le jem
Ġpod zem
Ġdo razila
Ġnet re
de nÃŃk
Ġkoncer nu
ĠBu dape
kej te
ĠpotÅĻebuje te
Ġru ch
Ġkomple xu
ĠP Ã¡n
val d
ĠVÃ½ch odo
tÄĽ nÃŃ
ĠOba ma
ĠLukÃ¡ Å¡e
ĠH anÃ©
ĠÅł en
Ġpo sel
ĠsÃ¡ hnout
Ġtan ci
Ġza jÃŃt
fi gu
ĠTomÃ¡ Å¡em
ĠnÄĽkdejÅ¡ÃŃ ho
ĠTÅĻ inci
Ġkr k
tu ri
Ġvy volal
ĠO ctavi
Ġv lnÄĽ
ĠvÃ½jim ku
ra zenÃŃ
ĠnavÅ¡tÃŃ vili
ĠmiliÃ³ n
Ġob Äįana
ĠM Å¯j
Ġdesig nÃ©
ĠB art
Ġpe kÃ¡
Ġtechni k
ĠRad ovan
ĠzÃ¡va Å¾nÃ©
Ġkolo to
ĠnabÃŃ dek
Ġbi bli
ĠveÅĻej nÃ¡
Ġagentu ÅĻe
Ġho stin
Nem u
Ġmat ce
Ġne stane
fin Ã¡lovÃ©
Ġaku mu
ĠA M
M in
ĠkamarÃ¡ dÅ¯
ka ÅĻi
Ġuji stil
Ġli nce
Ġasi j
TÃ© ma
pro dÃ¡
ĠV O
Ġgra mÅ¯
H la
Ġbu dÃŃ
Ne d
ĠpÅĻe Å¡el
Ġposla la
Ġzv on
ĠdÄĽt skÃ¡
ĠpoÅ¡t ou
ĠP lus
Ġskan dÃ¡
ĠVan cou
ĠOndÅĻe je
ĠDo mÃ¡cÃŃ
Ġznak y
Ġna stane
ĠpÅĻÃŃprav nÃ©
tÄĽ t
Ameri ckÃ¡
Ġle grace
Mo hl
Ġpra se
Ġu klÃ¡dÃ¡
Ġbudou cÃŃho
Ġvlou pÃ¡nÃŃ
ĠmÅĻÃŃÅ¾ emi
ĠdÄĽ ÄįÃŃn
ĠÅ¡pat nÃ©m
ĠdostÃ¡ vali
Ġvylou Äįeno
ĠdozvÄĽ dÄĽt
ĠW ag
gu a
Ġd nÄĽ
Ġzalo Å¾en
Ġshr nul
p uje
Ġ193 8
sÃ¡ ch
k ani
li vÃŃ
vil le
ĠVÅ¡e obec
ĠP elhÅĻi
ĠzÃ¡ sil
ĠJa zz
n ko
L on
ĠJon es
en ec
te ro
Mi cha
Ġam bi
ĠG ros
ĠpÅĻÃŃm Ã©ho
Ġnep ovo
ĠupÅĻÃŃm nÄĽ
ĠE C
t ovÃ¡nÃŃ
tu m
BER EC
VÄĽ dci
g ene
ĠKa za
kovÃ¡ n
Ġne mÃŃ
Ġkomor nÃŃ
ĠBed nÃ¡ÅĻ
Ġchod nÃŃky
ĠdÃ¡ vku
ĠzÃ¡chra nÃ¡ÅĻÅ¯
Ġnep lat
R C
da y
ĠTo hle
Ġpovz dech
Ġb ili
ÄįnÃŃ mi
S ch
Ġdopad l
T ÅĻÃŃ
Å¡ ude
t ari
Ġkontin entu
Ġsu k
ĠvÃ½ kup
Ġnastav it
Ġhlad ina
Ġre vit
ĠoÄį ist
ila del
ĠP lÃ¡
Ġmi le
Organi zÃ¡toÅĻi
Ġnej vy
B RA
Ġslav nÃ½ch
ĠpÅĻipomÃŃn ky
Ġmini mali
ĠMe dia
ĠVrch labÃŃ
ĠzÅ¯ stÃ¡
Ġspole ÄįnÃŃ
g alerie
Ġspolehli vÄĽ
Ġzez adu
Ce lÃ©
Ġhrom ada
Ru sko
ĠÅł van
Ob je
Ġproblemati ce
Ġtram vajÃŃ
Ġz ven
Ġzna Äįnou
ĠsoutÄĽÅ¾ÃŃ cÃŃ
plik ovat
Ġur ÄįÃŃ
ĠÅ¡Ã©fredak tor
Ġnekom promi
ZajÃŃmav Ã©
ĠstÅĻÃŃbr nÃ©
ĠDÄĽ ÄįÃŃnÄĽ
g ner
Ġtu ny
ĠUkraj inÄĽ
ĠstÄĽh ovÃ¡nÃŃ
z oru
Å¾ ene
amatu ji
Ġrekre a
Ġli nek
Ġo liv
Stej nÃ½
ĠÃºtÄĽ ku
Ġvy kÅĻi
Ġky seli
ĠT ren
ĠSpoleÄį nost
Ġautomobil ka
Ġbod ovat
ÅĻi cetiletÃ½
hav Ã©
Ġalkoho lem
Ġt ma
Ġorien taci
liv Ã©ho
Ġoslov it
Ġsam Ã©ho
ĠvÄĽz nici
ĠKope ckÃ½
Ġv inÄĽ
ĠB lÃŃz
Å¡ kÅ¯
ĠNe do
ce li
Ġvy vÄĽ
Ġg rand
Ġvy Å¡et
Äįt ovÃ¡nÃŃ
Ġnes nÃ¡
ĠJer sey
Å¡ tit
st ina
Ġle vice
T RA
rati on
ĠhlÃ¡ sit
ĠFot balistÃ©
mo s
Ġbran kami
Ġvz tek
Ġvzrost la
ĠTo to
S vÃ½m
ĠÃį rÃ¡nu
ĠVel kÃ½ch
Ġabsolv entÅ¯
Ġod dÄĽ
ĠÅ¡pi ÄįkovÃ©
Ġpacient Å¯m
ĠpÅĻÃŃ sli
Ġsu mu
ĠJaro lÃŃm
ĠmladÅ¡ÃŃ ho
Ġpov stal
Ġleh ÄįÃŃ
Ġpo pÃ¡
Ġbez bran
Ġpohotovo st
mÄĽ jÃŃ
ĠLÃ¡z nÃŃch
ĠvÃ½vo jem
Z bytek
p av
le la
Ġlid skou
Ob Äįan
ba vÄĽ
Ġh ovÄĽzÃŃ
Ġmod lit
Ġsal Ã¡t
ren skÃ©
rÃ¡ d
Ġbor ci
ĠnezÃ¡ vislÃ©
Ġslab Ã©
Ġdone dÃ¡vna
Ġhrd iny
Ġmuzi kant
Ġot rav
Ġhy dra
to rÃ¡tu
Ġemi se
Ġpoku sÅ¯
ĠÅ¡ ar
Ġvypad ala
G alerie
ĠT ÃŃm
Ġpo psat
Ġminist ry
Ji hoÄįe
Ġtro lej
Ġbud ovat
Ġporo ty
ĠpodmÃŃn ku
Ġopil Ã½
Ġpodob a
ĠvyhlÃ¡ Å¡ka
ĠIn ve
ĠnÃ¡kla dnÃŃch
ĠvyprÃ¡ vÄĽt
ĠbÃ¡ zi
ĠnÃ¡sko kem
ber ta
Ġpo chopil
M otor
Pod nika
Ġmoderni zace
LOM OUC
Ġsklo nku
ĠRoky cany
Ġzat ÄĽ
Nejd ÅĻÃŃv
Ġkan Ã¡lu
ĠpÅĻi l
Ġdese k
Ġka la
ĠnepÅĻed stav
ĠÅł pin
ĠlÃ©ka ÅĻka
ĠskuteÄį nou
Ġvyu Å¾ije
ĠLÃŃ pÄĽ
ru Å¡enÃŃ
E B
ĠR on
ĠnezvlÃ¡ dl
NejÄįa stÄĽji
Ġopti mali
Ġbude Å¡
Na jednou
ĠKo lo
ve nÃŃm
ru sla
di Äį
g mati
Ġu her
rov anÃ¡
Ġdo razili
ĠV I
Ġmin im
ĠpÅĻedstav oval
Ġnedale kÃ©
ĠMariÃ¡n skÃ½ch
ĠpÃ¡ rÅ¯
ĠGol d
G e
ĠVladi slav
ej de
Ġv skutku
Jedin Ã©
ĠMasary ka
Ġsobot nÃŃho
Ġla ser
ĠzmÄĽ nÃ¡ch
ĠÄįtvr teÄįnÃŃ
Ġch ovatel
Ġtradi cÃŃ
Ġjiho morav
Ġproje vila
Ġhol lywood
Ġza stupuje
Ġmo tÃ½
Ġzlat Ã½ch
Ġe gypt
b s
l l
Ġkriti zoval
Ġvstup uje
ĠrÅ¯z nÃ½m
vÄĽd ÄįenÃŃ
dÃ¡ nÃŃm
Tr enÃ©
Chru dim
ĠS mit
Ġmrt vÃ©
Ġnovin ek
ĠchvÃŃ lÃŃch
Ġp tÃ¡t
v nost
Ġfrancouz skÃ½ch
Ġzapo jenÃŃ
Ġrozhov orÅ¯
Ġban kro
klu bu
ĠMar y
Ġkanon Ã½
Ġlit ru
ĠOl ga
Ġdvo ÅĻe
ĠkonkrÃ© tnÃŃho
Ġpozi c
ĠurÄį enÃ½ch
Ġok r
Slav nostnÃŃ
Ġma pu
d anou
ĠprohlÃŃ dce
ĠpohÃ¡d ka
Ġturnaj Å¯
est eru
D Y
ĠumÃŃstÄĽ na
ĠtÃ¡bor y
Ġkart ou
man em
Kar lovar
Ġinteri Ã©r
Pla tÃŃ
Z kou
ĠZ UÅł
pit Ã¡n
Ġreprezentan tÅ¯
f r
Ġna stat
Ġhrd in
Ġpi v
V ar
kti vy
ĠprojednÃ¡ vÃ¡nÃŃ
ĠÅłpi dla
ĠpÃŃsem nÄĽ
Ġtra gickÃ©
h ovÃ½ch
sle r
Ġle Å¾el
Ġpravi ce
ĠneznÃ¡m Ã©ho
ĠpÅĻi dala
ĠmÄĽste Äįka
ĠL am
nat Ã©
Ġvni kl
myÅ¡ lenÃŃ
ĠSchu ma
Ġho stem
Ġobjev ovat
Ġsmut nÃ©
Ġproje vil
Ġdemon stran
le mi
Ġprofeso ra
Ġlho stej
Ġa ir
ĠklÃ¡Å¡ ter
Ġabs ence
Ġtechni ckÃ¡
ĠE X
Ġlet nÃŃho
ĠÅłvÃ½car ska
ĠÅ¡pi Äįce
Ġvy lÃŃ
5 9
Br zy
mu jÃŃcÃŃ
Ãģ Åł
Ã¡t Ã©
Ġ190 5
Ġpa st
ĠstÅĻÃŃ let
del ka
ĠjÃ¡d ro
pro dej
oprav dy
ĠF N
po zit
Ġci ster
ĠW o
Ġjazy kem
Ġnevy lu
ĠBlan sko
Ġnaprav it
ĠspoleÄį nÃ©m
Ġsk lu
Ġutr penÃŃ
li Äį
Ġkli niky
Ġsk lou
Jedin Ã½
ĠrozdÄĽli t
ĠvÅ¡ udy
lÃŃ kem
ĠS ha
Ġjed ovat
Å¡e desÃ¡t
Ġh rÅ¯z
z Å¯
B Ã¡
Ġnej moder
dÄĽ nÃŃm
ĠpoÅ¡t ovnÃŃ
Ġbit va
Ġobraz ovce
Ġby tech
pa desÃ¡ti
m m
fe sion
ĠBel gie
Ġpoliti kou
Ġpohod lÃŃ
ĠRo stislav
Sk vÄĽ
Ġfron ta
Ġne kvali
r ba
Ãļ ste
Ġnere ag
s c
Ġsponzor Å¯
PÅĻed po
Ġspon tÃ¡n
ma ji
Ġsc enÃ¡
ĠKr nov
VzÃ¡ pÄĽtÃŃ
Ġpro Å¾ÃŃvÃ¡
Ġodhali t
Ġg ro
E U
Ġjmen ovÃ¡nÃŃ
Ġpod klady
ĠBrazÃŃ lie
ri o
t her
re publi
ĠvÃ½chod nÃŃch
Ġm Å¡e
ĠnesmÄĽ jÃŃ
Ġpr st
Ġher nÄĽ
Ġko mentuje
ĠDo mÄĽ
ĠneÅĻe Å¡ÃŃ
ovatel nÃ©
Ġpsychi at
rÃ¡t orÅ¯
inÃ¡ ÅĻ
Ġpar f
jÃŃÅ¾ dÄĽnÃŃ
Ġpostou pili
Å¡i cÃŃch
ĠÅ¡kol nÃŃm
Prav dÄĽpodob
Mla dÃŃk
ĠK vÅ¯li
rov ol
ĠvÃŃ ru
ĠpÅĻÃŃstup em
Ġdia be
ĠnabÃŃ dli
Ġtou ha
ĠvÃ¡ Å¾nÃ¡
Ġzvy klÃ½
Ġpropad l
Äį nÃ½mi
ĠO rgani
ĠpÅĻedpo kladu
Lon dÃ½
Ġnezapo menu
Ġle tÃŃ
ĠKrum lovÄĽ
sy cho
Ġkvali tou
Ġuniverz ita
ĠbÅĻe clav
x em
Ġvla kÅ¯
Ġzahrani ÄįnÃŃm
hu jÃŃcÃŃ
ĠÃºspÄĽÅ¡ nÃ½ch
Ġse bral
ĠC as
Ġneu vÄĽdo
ĠstÄĽ Å¾ovat
Ġsva hu
ĠkrÃ¡de Å¾ÃŃ
hlÃ© dne
ĠBa ra
Ġd na
ReÅ¾i sÃ©r
Ġkov Å¯
Ġkoru na
ĠnÄĽkter Ã©ho
Ġnej bohat
Stav ebnÃŃ
Kon tro
ĠpÃ¡t Ã©ho
Å¡ ou
h rob
Ġautor ka
Ġfotbal ovÃ©m
li vou
an ovi
Ġkontrover znÃŃ
sava dnÃŃ
Ġodvo lÃ¡nÃŃm
ĠMa j
Ġpostav ou
Ġmeda il
Ġkarlovar skÃ©
ĠpoÅ¡ ta
Ġpta ÄįÃŃ
ĠÅĺ idi
Ġspra vedli
Ġarchitek ta
Ġza sta
ĠMu sÃŃm
ĠpÅĻehlÃŃ dku
Ġmoderni zaci
Ġhra nicÃŃ
Å¡ nÃ©ho
ovo st
Ġvi zi
Prav da
Ġo tisk
ĠÅĻeditel ky
Ġpou tnÃŃ
Ġdo ch
Ġra zÃŃ
Ġnepoda ÅĻÃŃ
Ġz blÃŃzka
Ġextrali govÃ©
u re
Ġro lÃŃch
pu Å¡tÄĽnÃŃ
pis ovat
Ġy ou
ĠKraj skÃ©
Ġstudi o
Hav lÃŃÄį
ĠKo lÃŃna
Ġrov inÄĽ
z Å¡ÃŃ
NES CO
ĠÄĮ tvr
Ġta Å¾enÃŃ
Ġdeb aty
ĠLud vÃŃk
Ġudr Å¾uje
Ġlikvida ce
ov skÃ½ch
ĠPe uge
IC H
ĠuskuteÄį nilo
Ġemi sÃŃ
Ġzach oval
ÅĻÃŃ kladu
Ġho lka
Ġodha lenÃŃ
ĠzaÅĻÃŃ dil
Ġho dy
ĠK vÄĽ
Do stal
Ġlavi Äįky
y d
ĠÃºter nÃŃ
nÃŃ nÄĽ
cem bur
ĠznÃ¡ mÃŃ
ĠL at
Ġpocti vÄĽ
Ġprac ujÃŃcÃŃ
ĠÃºro ky
ĠG or
ĠvnitÅĻ nÃŃch
Ġorgani smus
ĠbÃŃ lou
ĠuvÄĽdo mil
ĠzbÃ½ vajÃŃcÃŃch
ĠS nad
ĠgymnÃ¡zi um
ke ta
Ġkin emato
ĠNa pÅĻÃŃklad
ĠnÃ¡kup nÃŃ
II I
Ġsti mu
ĠÅłpa nÄĽ
Ġzapla tili
ni ho
ĠstÅĻedovÄĽ ku
ĠjejÃŃ mi
ĠpÅĻi stÃ¡
Ġd ani
Ãļto ÄįnÃŃk
ov kami
Ġ193 9
lou ÄįenÃŃ
Ġbarev nÃ½ch
ĠsprÃ¡v nÃ¡
0 8
Ġspolu ob
S lovÃ¡
Ġprav Ã©ho
Ġsle vu
Ġtari f
ĠÃºspÄĽÅ¡ nÃ©ho
ĠÄįerpa cÃŃ
ĠS ony
hÃ¡ me
ch ovi
Ġrych lou
kvali t
li jeme
Ġo Å¡tÄĽ
ĠkrÃ¡lovÃ© hrade
Ġdiag n
Ġabsur dnÃŃ
ĠFrank f
Ġpra chu
drÅ¾e lo
ĠÄįÃ¡ ry
Ġkan ali
Ġdisp lej
Ġrekor dy
Ġhod il
Ġpochy benÃŃ
ĠHad amczi
ĠPardubi ckÃ©ho
pr emiÃ©r
Ã¡l ku
ZmÄĽ na
Ġpod zemnÃŃ
ĠSim ona
chopi telnÄĽ
Ġme ga
Ġska ut
Ġc an
ĠBlan ka
ĠZnoj mÄĽ
Ġreperto Ã¡ru
ST Ãį
Å¡t Ã¡t
ĠtÄĽles nÃ©
Ġpou li
Ġpod zemÃŃ
Ã¡ da
Ġkandi dovat
Ġs padÃ¡
Ġpe Äįe
Ġre cy
Ġry bÃŃ
Ġot ÅĻÃ¡
Ġce rem
Ġje v
Ġvi ze
Ġvy hlaÅ¡
Ġod jet
P lÃ¡n
Ã³ re
ĠRom ovÃ©
Ġchod nÃŃkÅ¯
Ġod stoupil
Ġproje vilo
Ġmimin ko
Ġtakz vanÃ½ch
Ġnedo jde
ĠvyjadÅĻ uje
va Äįi
ĠPo pel
ĠpÅĻe vodu
ĠdÃ¡ ma
Ġsty li
Ġz lÃ©
Ġochran nÃ©
Å¡ lÃ¡
Ġtitu lem
Ġbomb ard
TÄĽ m
mÃ½Å¡ lÃŃ
Ġzalo Å¾it
om entÃ¡lnÄĽ
Ġtitu lnÃŃ
sla nd
ard in
ĠvÃ½ slov
ĠÅĻad Ã¡ch
ĠL ar
ĠAn dÄĽl
ĠmÃŃ ÅĻil
ba rev
ĠrejstÅĻÃŃ ku
ÄĽ ji
Ġma fi
ĠdoÄįka jÃŃ
ĠJe Å¾ek
Ġprodej ci
ĠklÃŃÄį ovÃ½
Ġtr vajÃŃcÃŃ
Re konstrukce
Ġne ub
zÃ¡ pas
vÃ¡ th
va cÃŃm
ĠpamÃ¡t kovÃ©
Ġnaz vanÃ½
rÃ¡ nit
ĠuÄįin il
ni kou
ĠÅ¡ rou
ĠpÅ¯sob i
Ġsamot nÃ¡
ski j
Ġmuzi kÃ¡l
Ġnej vyÅ¡Å¡ÃŃm
Ġu stÃ¡
Ġchy tr
la k
ĠpÅĻe stupek
Ġst ovka
Ġstra Å¡i
Ġkal ku
ĠsuverÃ©n nÄĽ
ĠpotÅĻeb nÃ½ch
ĠbÃŃ lÃ½ch
Tur naj
ĠJir ka
Ġza poÄį
EN Ãģ
ĠzamÄĽstnÃ¡ vÃ¡
ĠzÃ¡kon u
ĠÃº ÅĻed
Ġ197 0
Ġpone chÃ¡
Ġsv it
Ġhist or
ĠpÅĻe mÃŃ
pl nÃ©
Ġsaz ba
ĠtÅĻi a
Ġpohy bli
ni s
K ur
Stra ko
Ġflor bal
re am
Ġne jednÃ¡
Ġhor mon
Mez itÃŃm
c zy
Ġbo l
Ġnej hor
Ġni ÄįÃŃ
sa u
ĠchybÄĽ jÃŃ
ĠremÃŃ za
ĠD J
Ġvar ujÃŃ
ĠR Å¯Å¾
Ġdivo kÃ©
Ġpo sila
Ġpodla hy
Ġhistori ckou
Ã¡ ty
Ġma rek
ĠÄįtvr tÄĽ
Ġvyh ovÄĽ
g ran
Ġpomo ct
ĠvÄĽn ovala
Ġga rÃ¡Å¾e
b alo
is en
Ġhrub Ã©ho
Ġdoporu Äįil
Ġolomou ckÃ©ho
let Ã©m
ĠprvnÃŃ mi
ĠsmÃŃ ÅĻit
ĠPo st
B la
ĠpÅĻed loÅ¾il
Ġza bra
Ġver di
ĠnÃ¡dob ÃŃ
ĠMi lev
by ly
Ġhosp od
ĠvÄĽ kovÃ©
ĠR ud
Ġazy l
Ġkra jÃŃch
prÃ¡ zd
bul ka
Ġnastou pila
Ġspor ty
Ġpsychi atri
d nout
m or
Na proti
Ġrozhodu jÃŃ
Ã¡n Å¯
Ġon en
ĠtÄĽÅ¾ by
ĠnÃ¡ jezd
Ko muni
Ġfrek vent
ĠNik do
Ġspra ved
Ġanti bio
Ġzav z
Ġna hlas
Ġminu lou
Ġslou p
Ġak redit
Ġroz bÃŃ
ĠpalÃ¡ ci
Ġod rÃ¡Å¾ÃŃ
ĠklÃ¡Å¡ te
5 4
Ġbrat ÅĻÃŃ
Ġslov nÃŃ
ĠkandidÃ¡ ti
ĠspotÅĻe b
ĠP ic
smÄĽ ru
z ovanÃ©ho
ĠstÅĻe chou
Kou Äį
ĠhÅĻbit ovÄĽ
ĠdÄĽ kuji
Ġkomi saÅĻ
Ġkole je
o pe
Ġevrop skÃ¡
ĠGabrie la
ĠBe at
Ġspokoj enÄĽ
n kem
Di sku
ĠsnÃŃ Å¾ili
ĠOp av
Ġlov e
ĠprostÅĻe dnÃŃ
Ġb avor
ĠpÅĻÃŃno sem
nu tou
ĠvÃ½bu chu
ĠS A
ĠmÃŃ stu
ĠvysÃŃ lat
S mlou
ĠnÃ¡rÅ¯ stu
Ġlist iny
ĠnabÃŃzÃŃ me
Ġnedo Äįka
ĠD rÃ¡Å¾
Ġu jel
my slÃŃ
Ġnemoc nÃ½
Ġschop nÃ½
ĠI C
Ġzlat Ã½
Ġza drÅ¾ela
ĠV odi
ĠNÄĽme ckem
Ġdi alog
ĠKar lem
ĠvyÄįer pÃ¡
ĠAl f
par ku
ĠtÃ½den nÃŃ
ĠnebezpeÄį nÃ½ch
Ġli nie
Ġsto jÃŃcÃŃ
Poda ÅĻilo
Ġre tro
Ġlou ce
Ġoto Äįit
Ġdeva desÃ¡ti
ĠAl Å¾bÄĽ
ÄįÃŃ tat
ĠjezdÃŃ m
ĠuvidÃŃ te
ĠVil Ã©m
Ma rek
Ġvy su
Å¾i v
Ġma lin
Ġstanov it
ĠE v
Ġvr stev
de sli
Ġsta ÅĻÃŃ
ĠKali for
ĠpÅĻÃŃ ru
ĠkomentÃ¡ ÅĻe
Ġpe tice
Ġperson Ã¡lu
vinÄĽ nÃŃ
da nÄĽ
Ġspokoj enÃ¡
ĠpoÅ¾adav kÅ¯m
Ġneu dÄĽlal
Ġne bem
ĠÄįlen Å¯m
Ġevi dence
Z noj
Ġstart ovat
O O
ĠP ru
Ġvl nu
ĠVy Å¡e
Ġdoved nosti
en d
ĠPot ÅĻe
Ġje mnÄĽ
Ġoslav il
ĠFran ci
Ġdo opravdy
ĠS et
ĠpÅĻihlÃ¡ silo
ĠveÅĻej nostÃŃ
Ġnefung uje
Ġgra tu
O no
Å¯sob ÃŃ
Ġdlouh Ã©m
p ory
Ġru skÃ¡
ĠÄįist Ã©ho
ĠÅ¾al ud
Ġoch la
ĠDu ch
ĠpÅĻe loÅ¾
Ġsevero Äįe
Ġd ut
cent ra
Ġspon zo
VÃ½ji m
8 8
Å¾ uji
ÅĻ Ã¡l
Z krÃ¡tka
Ġkultu ÅĻe
ĠpodÃŃ val
d lenÃŃ
J ar
ĠprÃ¡ dlo
Ġmax im
dÃ¡ rnÃŃ
Ġn it
ĠangliÄįt iny
Ġobraz ovky
Ġneu moÅ¾
Ġnevy hnu
Ġvol bou
met rovou
ĠT on
ĠC im
ĠmÃŃst nostÃŃ
ĠVar ns
ĠN emocnice
ĠpÅĻes nÃ½
ĠsÃŃ ÅĪ
pÃŃ k
ĠvnÃŃm Ã¡nÃŃ
ĠnejÄįa stÄĽjÅ¡ÃŃ
ĠvyhledÃ¡ vÃ¡nÃŃ
ĠAn ny
ĠUkraj iny
ĠpoÄį tvrtÃ©
ÅĻi cÃŃch
Ġpo loÅ¾il
Ġpar kovacÃŃch
la b
ĠjÃŃz dou
ĠrÃ¡di o
hÃ¡nÄĽ jÃŃ
ĠIzrae li
rÃ¡Å¾ ky
ĠLi ze
ĠzÃŃsk anÃ©
ĠVa ÅĪ
Ġsoli dar
B lan
Ġprodej nÄĽ
Ġdo pisu
Ġpra por
ĠT haj
ĠzaÄįÃŃ najÃŃcÃŃ
Ġlo go
ĠvÃ½ dÄĽl
Ġknih kupectvÃŃ
ĠpÅĻedmÄĽ stÃŃ
ÅĻen Ã½m
Ġvan dal
Ġsou stav
Ġpracov nÄĽ
0 7
nÄĽjÅ¡ÃŃ mi
sti ckÃ½mi
ĠN at
Ġnedo kÃ¡zala
ĠJ Ã¡n
Ġvy sla
ĠB R
o zÃŃ
ĠsvÃ¡ tku
Ġs raz
Ġku Å¾el
Ġus mÃ¡l
ĠzpÄĽvÃ¡ ka
ĠT Ã©
ĠplÃ¡ tky
ĠzÃ¡ znamy
Ġpo chodu
ĠB Y
ĠSlovÃ¡ cka
ĠbÃŃl kov
Ġdoved l
ĠPet rovi
ĠkaÅ¾do pÃ¡dnÄĽ
w ic
ĠpÃ¡t rÃ¡
ĠBÃŃ lÃ©
ĠuÅ¾i vatelÃ©
ĠK nÄĽÅ¾
Ġjedni Äįku
hra dÃŃ
ĠM inist
Ġevi denci
ĠschÅ¯ ze
Ġhra nicÃŃch
ĠpovÄĽ sti
M AN
Ġtem pu
Ġstat ku
rch e
ĠU NESCO
unda i
Ġdost anu
ĠmÃŃt inku
Ve li
Bude te
ĠBrÃ¼ck ner
ĠPÅĻe s
Ġz lepÅ¡ÃŃ
Ġode jde
Ġdiscip lÃŃnÄĽ
ine ckÃ©
Ġhou sle
ĠdÃ¡l ku
ĠNovÃ¡ ka
So kol
Ġvypl Ã½
vidÃŃ m
ĠpohÅĻe b
ĠpÅĻÃŃprav nÃ©m
po mÃŃnÃ¡
ĠZa ch
ĠÅ¡ tÃŃt
Ġinciden tu
E V
Ġsp Ã¡ch
O H
F a
Ġodbor nÃ©ho
Ã¼ n
z ne
Ġteore ticky
Ġjazy ce
ĠÅłim on
bÃ¡ nÃŃ
mÃŃstÄĽ nÃŃ
Mu sel
Ġres ort
Ġru Å¡ÃŃ
ĠO lym
ĠIve ta
ĠJ S
le ckÃ½
ĠnepÅĻi Å¡el
Ġkra s
se b
Ġvelikono ÄįnÃŃ
Ġsed ma
Ġnej dÃ©le
Ġak vizi
ÄĮE SKÃī
Ġdluho pisÅ¯
Mimo chodem
ĠOtak ar
ĠÃº razu
bo x
Ġply nÃ¡
Ġdokon Äįena
ca j
Ġzouf al
ĠM ala
ĠÅłuma va
ĠBo j
ÅĪ ovaly
u ma
ĠD vÅ¯r
Å½Ã¡ ci
Ġstran ky
ZÃ¡ pad
ĠÄįin ila
ĠvÃ½bÄĽ rem
Z mÃŃ
S poj
Ġne ro
vÃ¡ l
Ġdvo jÃŃ
ĠpÅĻÃŃznak y
ĠumÃŃ stil
Å¾ nÃ½m
ĠMÃŃ ru
Ġbox er
Ġsez nÃ¡mil
ĠZlat Ã½
Ġpostup uje
Ġvylep Å¡it
ĠM Åł
Ġ ÅĻa
Ġvedou cÃŃch
ĠvÄĽdo m
Hro zÃŃ
Druh Ã½m
ĠpÃŃ Å¡ÃŃ
Ġsamostat nÃ½ch
ĠpÅĻÃŃtom nÃ½ch
Ġs ude
ĠobÃ¡ vÃ¡
ĠvÃ½mÄĽ nou
hav Ã½
ĠTho mas
ĠpÃŃ sku
ĠpÅĻe stane
ĠvyÅ¾Ã¡ dala
Mlad Ã½
an Å¯m
Ġle asing
Ġchla pe
Ġusku teÄįnÄĽ
ri c
N ut
p ovÃ¡
kÃ¡z at
ĠpromÄĽ nit
Ġpa uÅ¡
Ġsport Å¯
nov y
ĠMora vec
ĠmÄĽÅĻÃŃ tku
L OVÃī
Ġproti smÄĽru
Ġsou dÅ¯
ĠpÅĻe Å¾il
ĠvÃ½rob ou
Ġe vidu
st Ã©ho
ĠBe ran
ĠpÅĻe stala
pu lÃ¡r
ĠBori s
ĠzÃ¡j m
Ġsoft war
ĠzÃ¡kro ku
lo stech
Ġpr sten
Ġslav il
lu bu
ri stÃ©
ĠbalÃŃ Äįek
Ġvol nou
st onu
E CH
ĠPer n
6 3
Ġterori smu
Ġproce sy
ĠmanaÅ¾e rÅ¯
ĠMar k
ĠD eni
le ckÃ©
Ġtvr dou
Ġpo Äįin
Ġbom ba
ĠvÄįe la
de ckÃ©
s lat
Å¡e desÃ¡ti
ĠnÃ¡ pisem
Fanou Å¡ci
ĠÄįtvere ÄįnÃŃ
tel nosti
kÃ¡ nu
ĠzavÃ¡ hÃ¡nÃŃ
Ġzelen inu
ĠbrÃ¡ nil
ĠnÃ¡poj Å¯
Ġmistrov skÃ©
Ġza Å¾ili
Äį skÃ©
ĠpÅĻeru Å¡enÃŃ
ĠnÃ¡z vy
ĠzaÄį neme
Ġobchod nÃŃkÅ¯
ĠS SSR
Ġbu b
Ġjed nost
Ġvzrost ly
Ġpa ro
Ġobdob ÃŃm
Ġhe sla
Ġnev zni
ĠCh e
ĠmÃŃstopÅĻedse dy
ĠAl bert
ĠÃºÄįin nosti
ĠÅłumper ku
zna mÅ¯
ĠnezÃ¡ vislost
ĠMorav u
Za mÄĽstnan
ĠVe Äįer
Ġji sk
Å¡e ly
eru zal
Ġzvu ku
S te
ĠÄĮ B
Ġpro dra
. ,
Ex pozice
Ġmajitel ka
Ġk vÃ³
Po mo
ĠlÃŃ stkÅ¯
ĠzÃ¡loÅ¾ nÃŃka
ĠuÄįili Å¡tÄĽ
ĠParou bka
ba ck
Ġbu dÄĽjovi
S nÄĽ
inÃ¡ lu
Nav zdory
ĠHol lywood
ĠpoÅ¾Ã¡ dali
Ġoslav u
ĠdÅ¯ kazem
hlÃ© dla
ĠSlovÃ¡ cko
ĠknÃŃ Å¾ku
hl Ã©ho
Ġtam nÃŃch
Ġsvate bnÃŃ
ĠHo f
ĠSen Ã¡t
ĠK rÃ¡t
ĠNovÃ¡ kovÃ¡
Ġ2 30
Ġjazy kovÃ©
ĠslÃ¡ vi
Ġexper t
Ġsl zy
ĠÄįeskosloven skÃ©
Ġzele nÃ¡
Ġur Äįuje
Ġo ta
Ġpro najÃŃ
6 2
ĠstÄĽ Å¾uje
Ġnep rac
ĠÅ¾ ur
ĠhospodÃ¡ÅĻ skÃ©ho
Ġkone ÄįnÃ½
nu tÃ¡
Ġde jte
Ġne dajÃŃ
ĠvyÅĻa z
ĠZ D
ĠpÅĻed vÃ©st
ĠstÃ¡ vajÃŃcÃŃch
Cel kovÃ©
Ġstou pl
Ġvrcho lÃŃ
ĠkÅĻÃŃ dlo
Roz dÃŃl
Ġon kologi
tak t
ĠÅĻidiÄį Å¯m
Po slanci
ĠvyÅ¾ad ujÃŃ
Ġpo ÅĻady
J mÃ©no
Ġfak tu
ĠB A
P ad
lov alo
Znoj mo
ĠMon tre
ĠJoze f
Ġcibu le
Ġnou zi
ĠvÃ½jime ÄįnÃ©
Ġna Äįer
enÃ© mu
Äį kal
Ġnene ch
ĠBo s
ĠrozÅ¡ÃŃ ÅĻÃŃ
Ġpsychi ckÃ©
ĠdokÃ¡z aly
ĠvykonÃ¡ vat
Ġrych lÃ¡
ZÃ¡ vÄĽr
ĠÅ¡iro kÃ¡
Å¡ vi
Ġpokou Å¡el
ĠzÃ¡ c
Ġinforma ÄįnÃŃho
ĠbÃ½val Ã©m
Å½ K
ov nu
Ce lou
ĠdÅ¯kaz Å¯
ĠStar Ã©m
ov er
Ġsa dech
ĠLou ny
rov skÃ©
ĠvzÃ¡c nÃ©
qu i
Ġspad la
Ġj deme
ĠvyvÃŃ jÃŃ
Ġva g
Ġb ill
ĠK ir
Ġvi etna
Ġspoj enÃ¡
Ġvra h
pi sech
Ġhrub Ã©
tu jeme
ĠUher skÃ©ho
ĠAl l
Ġpra vÃŃ
ĠpÅĻihrÃ¡ vku
Ġfakt ory
Ġabsolv ent
ie ra
ĠusmÃŃ val
Ġs vÃŃti
ĠprohlÃŃ dka
ĠdotÃ¡ zanÃ½ch
ĠpoÅĻad Å¯
ĠuspÄĽ l
d ovÄĽ
Ġkape lu
lÃ© b
ĠzamÄĽÅĻ uje
ĠMir ka
t inu
ĠV Ãį
Ġcykli stÃ©
Ġvy stÄĽh
ĠBag dÃ¡
ma g
ĠvyhlÃ¡ sila
Ġfak ta
Ġlit oval
mÄĽst na
Ġh as
Ġv akcÃŃ
Äį skÃ©ho
Ġho do
5 3
Ġdivi den
J men
Ġtex til
Ġnevy Å¡el
ĠmuÅ¾ stvem
ĠP ÅĺÃį
ĠnÃ¡ leÅ¾it
Jedno du
Ġzastav ili
Ġter Äįem
Ġsurov iny
te st
DÄĽ kuji
Ġpodeps ali
Ġroz pa
ĠnezÃ¡visl Ã½
ĠvypoÅĻÃ¡d at
ĠvÃ½rob nÃŃch
ĠzÃ³ na
Ġza sla
Ġs ran
Ġne ÄįekÃ¡
C hu
ĠD avis
Ġprocen tech
H vÄĽz
Ġbudou cÃŃch
Do pravnÃŃ
re Äįka
ĠvlastnÃŃ ka
Ġpsycho log
Ġprojed nÃ¡nÃŃ
Ġpostav ena
ĠVel kÃ©m
Ġf Ãº
Ġohro Å¾uje
ĠKa ra
ĠdÃ© lky
Ġode hrÃ¡t
Ġsm Ã¡l
Ġdo pustit
Ġod byt
Å½Ã¡d nÃ¡
Ġpr vek
ĠSh akespe
Ġnemovito st
Ġneoby Äįej
Å¡ kÃ¡ch
ĠmedicÃŃ ny
Ġmz da
ĠTure cku
Ġdom ovnÃŃ
ĠvÃ½bu Å¡
Ġinte grace
ĠzaÅĻÃŃ zenÃŃch
ĠA vi
ĠpÃ¡ ru
em u
Ġstruktu ru
nÄĽ nÃ©m
Ġhistori ÃŃ
a gu
Po ÄįÃŃtÃ¡
Ġpohotovo sti
ĠÃºÅĻednÃŃ ky
Ġt ruh
ĠÃºto ÄįnÃ©
Ġu drÅ¾eli
ĠZa Äį
Ġchoro by
Ġpro dala
Äįi c
Ġposti Å¾enÃ½m
Ġov lada
Ġvyslov il
C A
Ġlid ovÃ½ch
ĠpÃ¡t ou
Ġok nem
20 11
Ġtransp lan
li o
ĠÅ¡Å¥ast nÃ¡
Ġzda nÄĽnÃŃ
DalÅ¡ÃŃ ch
Ġu sed
t Ã©m
Ġs cho
Ġrad ovali
Ġjedni Äįky
Ġsa u
Ġotev ÅĻenou
ÅĻÃŃ kovÃ¡
ĠpÅĻÃŃ stro
ĠumÄĽ lec
ĠlÃ¡ h
Ġk ned
ĠprovÃ¡ zÃŃ
Ġnemo cen
ĠÄįtvr tÃ¡
Ġusku penÃŃ
ĠdisciplÃŃ ny
Ġdob ÅĻÃŃ
ĠdatabÃ¡ ze
ĠvÃŃken dech
ĠBe rÃ¡nek
ĠK A
Ost rav
z nÃ¡m
ĠP lo
ma dy
Ġv ti
Ġvelk ory
ĠhasiÄį skÃ©
ĠpotÃ¡ pÄĽ
D Ã¡l
ĠvÃ½rob ku
ĠW imble
sad ily
Ġregion ech
ĠL or
r ne
Ġste zky
ĠP res
Ġz klid
DU B
Ġarche ologi
ĠC hra
Ġdo pisÅ¯
ĠdivÃ¡ ka
Ġbud ovou
ĠzvÄĽ ÅĻ
ra y
ĠO m
S Ã¡
D ani
Ġu dÄĽlenÃŃ
Ġne Å¡et
Ġosob Ã¡m
Ġu leh
Ġlah ve
ĠKu ba
i ro
ZvlÃ¡ Å¡Å¥
Ġteni su
Ġnej roz
kov alo
ĠtÃ½denÃŃ ku
ĠÃº ÅĻe
ĠG ri
st eri
Ġpol skÃ©ho
Ġkvali fikov
Ġstro p
D vou
S vat
ĠÄįeÅ¡t iny
pÃŃ na
Ġveli kÃ½
Ġuj ali
Ġdovo zu
ÅĻi ci
Ġte ch
Ġpoza stav
ĠÄįin o
Ġsouhla sil
5 1
ĠvzÃ¡jem nÃ½ch
Ġbav ili
Ġpot Ã½kÃ¡
ĠBrati slava
Ġse pa
ĠzÃ¡pad oÄįe
Ġd re
Äį anech
Ġse jde
Ġhasi Äįe
Ġne dÃ¡vÃ¡
b re
ĠI slan
Ġkytar ista
Ġstrav ovÃ¡nÃŃ
ĠveÅĻej nÃ½
Ġgrand sla
ĠHar ry
R ek
Ġcykli stÅ¯
Ġhi p
Ġkles ly
g lo
f fer
Ġeuroz Ã³ny
Ġz od
ĠKaÅ¡ par
ska la
V ra
z ovÃ¡ny
ĠvÃŃ ry
ĠH ned
Ġfir mÃ¡ch
Ġhotovo st
ĠS ky
ĠP Å¯vod
ĠotevÅĻ ou
ĠÄĮer mÃ¡k
Ġjez dili
Ġdr Å¾itel
logi ckÃ©ho
ta ra
z ovalo
Ġt kÃ¡
ĠTy to
Ġmo jÃŃ
Ġcestov nÃŃch
ĠRena ult
Ġpoz vol
p kou
Ġroz le
K EM
Ji Å¾nÃŃ
ĠpÅĻÃŃpad nÃ½
ĠK R
nÄĽ ch
Ġneu dÄĽlÃ¡
Ġveletr h
Ġkon ta
Ã¡tor em
Ġvojen skÃ½
ĠH le
Jak ub
Ġzalo Å¾ili
Ġposlucha Äįi
ĠSuper Star
de rnÃŃ
Ġdefi cit
ĠTÅĻ ince
Ġu sa
Ġu drÅ¾ÃŃ
ĠNÃ¡ Å¡
Ġproce sÅ¯
ĠzpÄĽ vu
Ġinstitu tu
ĠSloven skÃ©
Ġjar nÃŃch
ĠÅł ve
Ġnejh ez
dl ovÃ¡
Ġslov em
ĠvzdÃ¡le nÃ©
d ova
ĠvÃ½sky tu
nov skÃ½
Ġla hÅ¯
Ġope rÃ¡tor
ĠvÃ½ slechu
IN Y
ĠextrÃ©m nÃŃ
man na
Ġfil mech
S U
zd il
Ġsp rch
bu sy
Ġba re
ĠV im
ĠSchwarzen berg
ovan osti
Ġkoncer tÄĽ
par k
ĠnejvÃ½znam nÄĽjÅ¡ÃŃch
ĠmuÅ¾ skÃ©
Ġ198 2
Ġb lan
Ġ Ã©
Ġde kre
ĠSvat op
Ġhlubo ce
Ġprior itou
S er
Ġtu dy
ĠJo e
ĠdvacÃ¡t Ã©ho
Ġnetr pÄĽ
Ġpot kat
ĠnÃ¡d or
ĠVÃ¡no cÃŃch
c c
li Äįky
VÃ¡ noÄįnÃŃ
ĠmÃŃstosta ro
Ġpat ÅĻily
ÄĮ KA
ĠveÅ¡ke rÃ¡
ĠMag da
Ġobje ktivnÃŃ
Ġne jez
ĠveÄįe ÅĻe
Ġbenz inu
ĠJe Å¾
Ġpan stvÃŃ
Ġha zar
ĠÅłumper k
Ġp se
de cko
Ġroz hoÅĻ
ÅĪ ovou
Ġnesou hlas
Ġ197 6
Ãº d
Ġpoci Å¥
Ġdo pise
Ġvyu Å¾i
âĢ Ļ
ĠAlexan dra
ĠEliÅ¡ ka
Ġn ul
ĠzÃ¡ por
Ġdosta teÄįnÃ½
ĠpovaÅ¾ oval
Ġmeto dou
BÅĻe clav
ĠutrpÄĽ la
ĠSla vo
ĠSla vÃŃ
ĠprimÃ¡ ÅĻ
f es
Ġvy stÅĻe
ĠAp ple
Ġbohat ou
vy kle
Ġry ze
ĠO ri
ĠudÄĽla jÃŃ
ĠÃį rÃ¡n
Ġzaji stila
Ġmo skev
Ġzna ÄįnÃ½
S pÃŃÅ¡e
ĠvÄĽn ovÃ¡na
li nÄĽ
Ġu brÃ¡
ĠLo tyÅ¡
pomÃŃ nÃ¡m
ob chod
Prac ovnÃŃci
Ġkapacit ou
Ġvi d
ĠÄįa je
g ol
G I
zi m
ĠhÃ¡zen kÃ¡ÅĻ
ĠÃºÅ¾as nÃ©
Ġnesp or
ĠnÃ¡hra dy
ĠmoÅ¾nost ech
Ġsociali smu
Ġhez kÃ½
ĠpÅĻes ou
ĠRe ich
pe u
Ġd Å¾ÃŃ
Ġsebe vÄĽdo
ĠÅ¾elez nice
Ġtelefoni cky
OtÃ¡ zkou
ĠhospodÃ¡ÅĻ skÃ½ch
Äįe tnÃŃ
den Ã¡
ĠMa ster
ĠN BA
ĠMni chovÄĽ
ĠÄįeÅ¡t inÄĽ
ĠnÃŃ Å¾e
ĠÄįer pat
Ġkonstru kcÃŃ
ĠVÅ¡e chno
Ġnevy da
sled nÄĽ
Ġu tÃ©
A nebo
ĠpÅĻÃŃslu Å¡en
S pou
ĠB ala
Ġz bou
ĠhospodÃ¡ÅĻ skou
Ġt hr
Jed nak
ĠT im
Ġvo la
ĠblÃ¡ zni
ĠTopolÃ¡n ka
ĠVsetÃŃ nÄĽ
Ġh l
Ã ´
Ġzlo mil
Ġkon aly
Ġpol skÃ½
Ġhattri ck
ĠMicha e
Ġpomo hly
ĠBel gii
Ġvy Å¡ly
Ġrock ovÃ©
Ġrad ovat
ĠpÅĻÃŃ mou
ĠR ej
ĠLibere ckÃ©ho
T J
ĠLu ce
Ġdoprav nÃŃm
ali tu
Ġspoj ene
Ġchod bÄĽ
ni cko
t skÃ½
Ġin sol
Ġmo cen
men tace
Ġprozraz uje
Ġko Äįky
ĠrÃ¡di a
ĠpromÄĽ n
Ġbal kon
za ÄįnÃŃch
Ġodstart oval
Ġzved nout
Ã¡ ÅĻi
Å¾enÃ© m
ĠzajÃŃmav osti
cen Ã½m
ZaÄį al
ĠÅĺe cko
PÅĻi hlÃ¡
Ob chod
sko Äįit
Ġpara graf
ĠprÅ¯ hled
ĠzÃ¡mÄĽ ry
ĠbalÃŃ k
Ġdiploma cie
Ġklu bech
rt Å¯
ĠVÄĽtÅ¡ ina
Ġi mi
v ovÃ¡
Ġmuzi ky
ĠSpo l
ĠS ki
Ġtak t
m ak
ĠkonkrÃ© tnÃŃm
B an
ĠpomÃ¡ hali
PÅĻÃŃ mo
ĠTe x
ĠkrÃ¡ su
Ġna stala
ĠdÅ¯leÅ¾it Ã½m
Ġho jnÄĽ
vov ar
Ġsoukro mÃ¡
Ġdo kladÅ¯
Ġslav nostÃŃ
Ġhy bri
ĠKou kal
ĠG ot
E Åł
ĠpÅĻed ve
Ġsp re
Ġpavilo nu
r le
Ġpal ce
Ġregion Ã¡lnÃŃho
Ġlig ovÃ½ch
Ġbankov nictvÃŃ
Ġf rom
Ġpro hru
r tu
ĠsvÃŃ tÃŃ
Ġnor em
vÃ© mu
ĠMaÄıar sko
Ġkot le
ĠAn t
Ġo kÃ©
ĠmÃ¡ ma
r ovala
ĠÄįini tele
ĠvlastnÃŃ kÅ¯
ĠprohlÃŃ Å¾e
n sku
ĠpÅĻe klad
ĠÃļstav nÃŃho
Ġst Ã½
Ġsv aly
Ġdue ly
Ġozna ÄįenÃŃm
Ġja z
Ġpenzi jnÃŃ
ĠMni chov
ĠnÃ¡ drÅ¾
ĠzvyÅ¡ ujÃŃ
Ġtr Ã©nu
Ġome zen
Ġvol nÃ¡
ĠschvÃ¡ lil
Ġkape s
ĠÅł t
Ġzastupi tele
Ġsmlu vnÃŃ
ci onÃ¡
Ġroz jet
Ġta b
ĠdodÃ¡ vek
Ġdok tora
ĠKohou t
t ori
ĠA ri
ĠO KD
Ġkole no
teÄį nÃ©ho
ĠVÄĽ ÅĻÃŃm
l nÃ½
ĠKra lu
ĠÄĮe Äįen
Ond ÅĻej
ve t
lin ka
ĠPale st
me ÅĪme
bÃŃ rali
ĠÅłtÄĽ drÃ½
Ġre Å¾ÃŃ
ĠnÄĽme ckÃ½m
Ġatmosf Ã©ry
VÄĽtÅ¡ inu
Ġmasi vnÃŃ
S lÃ¡
Ġnepo zor
ĠpÅĻe pÃ¡
ĠT it
ĠV rÃ¡
ton a
dÄĽ nÃ½ch
ĠpÅĻihrÃ¡ vce
sk ali
ĠM es
Ġuplynu lÃ©
JI HLAVA
Ġaku tnÃŃ
Ġsta rajÃŃ
ĠÃºse ky
ĠpÅĻekÃ¡Å¾e k
Ġa p
ĠpoÅĻada tele
ĠTÅĻe bovÃ©
ma ra
Ġposkyt la
ĠLitvÃŃ nova
StÅĻe dnÃŃ
forma ci
PÅĻe ce
ler ovÃ¡
Ġdo had
ĠlÃ¡ hev
ĠstÅĻel cÅ¯
ĠParla mentu
ĠodpoÄįin ek
v ani
Ġhostu jÃŃcÃŃho
ĠP RÃģ
Ġjak koli
Ġro dÃŃ
ĠUni on
ĠKlatov ech
Ġabsolv ovali
A rchi
ĠblÃŃÅ¾ÃŃ cÃŃ
Lu kÃ¡Å¡
ĠpalÃ¡ c
Ã ¸
Å½ ÄıÃ¡r
ĠS ol
ĠhnÃŃ z
v zetÃŃ
TO R
ĠInter netu
ĠSto ck
ĠÅł vÃ©
TO N
ĠÃºz kÃ©
Ġmysli ve
ĠcizÃŃ ho
Å¾ nÃ©m
Ġrod nÃ©
ĠDlou hÃ½
z ov
ri gen
Ġportu gal
ĠpomÅ¯ cky
Ġpr ova
Ġvybav en
Ġpacha teli
o f
Ġkoleg ou
ĠdozvÃŃ te
ĠobyÄįej nÃ©
Ġpl nÃ½ch
Ġpropu Å¡tÄĽ
Ġkontak tnÃŃ
ĠV Ãģ
P Ã¡
Ġvyslou Å¾il
ch nout
ĠzamÄĽstnan osti
ĠsplÃ¡ cet
sta tek
ĠBu ff
Ġho telÅ¯
ĠztvÃ¡ r
Ġchod nÃŃk
pi ÃŃ
Ġh raz
Ġra kety
Ġnesta Äįili
Ġmak lÃ©
Ne w
ĠvÃ½vo zu
Ġ197 2
ĠRo s
Ġintelig entnÃŃ
L IC
Ġnavi ga
ĠdÃŃ vÃ¡
ĠpÅĻesnÄĽ ji
Ġman Äįa
ĠpÅ¯j Äįku
ko Å¡
Ġosob ou
Nav r
Ġne chajÃŃ
Ġchemi ckÃ©
ĠzmÄĽ nami
Ġzep tala
Ġ Ã©ry
vi znÃŃ
st ant
Ġvy jel
ĠÃºspÄĽ Å¡nÃŃ
Ġod tr
8 9
Ã¡ no
ĠstÅĻÃŃ lel
p hi
ĠprÅ¯ kazu
Ġfre e
Ġschop nÃ©
ĠKri sta
ĠKos ovu
ĠnÃ¡sil ÃŃm
ĠManch esteru
oz Ã¡
ĠhospodÃ¡ÅĻ skÃ½
ĠzvÃ½ Å¡ily
kovi Äį
ĠRo y
ĠovÄĽ ÅĻit
Ġdo kola
advaceti letÃ©ho
Ġstaveb nÃŃm
ĠpÅ¯sobÃŃ cÃŃ
Ġnaz vanÃ¡
ovice mi
ĠAg ro
ĠpoÅĻÃ¡d at
ĠdÅ¯chod ci
ĠKa mila
Ġstar Ã©m
kl Ã½ch
Ġofici Ã¡lnÃŃch
ĠodpovÄĽ dÄĽla
kov skÃ¡
nov skÃ©
ĠpÅĻij me
Roz hovor
ĠmanaÅ¾e ÅĻi
Z av
ĠB ig
ĠM ot
ĠÃº ÅĻadech
Ġlo Å¾i
ĠM gr
ĠposÃŃ lÃŃ
Ġdoda teÄįnÄĽ
ĠIn tel
Ch tÄĽjÃŃ
ĠhvÄĽz du
H Y
Ġde Å¡Å¥
Ġstanov ena
Ġo kup
ĠAI DS
ĠsÃŃ nÄĽ
ĠS ec
ĠpÅĻed pis
ĠnepÅĻe kon
Ġpla til
Ġvz pamat
ĠodehrÃ¡ lo
Ġvymysle l
ma ci
Ġ â
ĠrÅ¯z no
du la
Ġzahy nul
ĠprobÃŃ hala
Ġza dnÃŃch
ĠpÅĻedsed nictvÃŃ
ĠÃºÄįin nost
Ġroz pou
ĠspotÅĻebi tele
ĠdomnÃŃ vajÃŃ
ĠvÃ¡leÄį nÃ©
Ġza Å¾ila
Ġra dnÃŃch
ĠnebezpeÄį nÃ¡
Ġkau za
Ġpo hl
ĠpÅĻÃŃstup nÃ¡
N emocnice
Ġnakou pit
Ġpo o
ĠnevÃŃ te
ER V
Ġevrop skÃ½m
Ġpro kÃ¡zal
A gen
ĠchybÄĽ jÃŃcÃŃ
ĠFer din
Ġb in
Ti p
Ġsub jekt
Ġpro tek
ĠM Ã©
Ġuveden a
ĠKrkono Å¡
ĠobrÃ¡z kÅ¯
Ġnej delÅ¡ÃŃ
P AR
Ġva ÅĻÃŃ
Exist ujÃŃ
Ġrezerva ce
Ġc ti
Ġre f
S kon
Ġanaly tikÅ¯
Ġpoky ny
Ġvy rÅ¯st
ĠLi Å¡ka
ĠÅ¾i dli
Å¾i va
Ġsu chÃ©
ĠhÅĻbit ova
ĠMerce des
ĠodpovÃŃ dajÃŃ
ĠkrÃ¡s nÃ½ch
in ovou
ĠZ Ã©
Ġzd vojnÃ¡sob
Ġstar Å¡ÃŃm
Ġvzor kÅ¯
ĠpÃŃsem nÃ©
Ġrozhlas ovÃ©
ĠÅ¡ u
ĠKo cou
Ġvys vÄĽdÄįenÃŃ
rÃ¡n ce
Ġkonstat ovat
Ġ10 1
Ġkoncer tem
Ġlitera turu
Ġna Å¡lo
Ġmas ak
Ġosmi finÃ¡le
ĠHo le
ĠÅ¾ivot nÃŃch
Ġkriti zuje
Ġu loÅ¾it
ej me
ĠMo z
g ovÃ¡
sti ci
le ku
ĠumÄĽ jÃŃ
ĠÅĻe ku
Ġkompromi s
Ġob sÃ¡
Nej vÄĽtÅ¡ÃŃm
Ġlokali tÃ¡ch
To lik
hlÃŃ dka
Ġreali ta
Ġh alÃ©
ĠLho ta
Ġenerge tiky
Ġpre ci
Ġorgani zuje
Ġpra vÃ¡
ĠdomÃ¡c nost
Ġrekor du
Ġza ba
ĠNÄĽk teÅĻÃŃ
ĠvydÃ¡ vat
ĠMorav ou
0 6
ĠS M
ĠzaÅĻad il
Ġba se
ĠRich arda
Ġextrali gu
Ch vÃŃ
ĠSokolov ÄĽ
ĠÄįtvrt inÄĽ
Ġmarket ingu
Ġpro Å¡li
Ġg ang
in te
Ġveli kÃ©
Ġukon Äįila
g s
Ġaut ory
p roblÃ©m
Ġprior it
Ġvystou pit
Ġatra kcÃŃ
Ġjist otou
Ã «
ZÃ¡ chra
Ġvznik lÃ©
Ġmrt vÃ©ho
r itu
ĠBed ÅĻich
ĠpÅĻispÄĽ je
Ġka ste
ĠBu ch
Ġsni Å¾ovat
S por
Ġryb nÃŃk
pochy by
Ġpev nou
Prav idel
Nej sou
Ġu hÃ¡
ker Ã©
Ġle Äį
ĠpÅĻiprav ujeme
V setÃŃ
Äįe re
Pu bli
Ġstra nami
Ġgig an
Ġu loÅ¾enÃŃ
[...]
