{"[CLS]":0,"[PAD]":1,"[SEP]":2,"[UNK]":3,"Ġ,":4,"Ġ.":5,"Ġa":6,"Ġv":7,"Ġse":8,"Ġna":9,"Ġ\"":10,"Ġje":11,"ĠÅ¾e":12,"Ġz":13,"Ġs":14,"Ġdo":15,"Ġto":16,"Ġo":17,"Ġi":18,"Ġ-":19,"Ġsi":20,"Ġale":21,"Ġve":22,"Ġ)":23,"Ġza":24,"Ġ(":25,"Ġpro":26,"Ġ:":27,"Ġk":28,"Ġpo":29,"Ġby":30,".":31,"V":32,"Ġod":33,"ĠâĢľ":34,"Ġ?":35,"Ġjsem":36,"Ġtak":37,"Ġjako":38,"ĠuÅ¾":39,"ĠkterÃ½":40,"Ġjsou":41,"ĠkterÃ©":42,"Ġu":43,"âĢŀ":44,"Ġbude":45,"Ġjsme":46,"Ġbyl":47,"Ġnebo":48,"Ġjen":49,"ĠtakÃ©":50,"ĠpÅĻed":51,"ĠpÅĻi":52,"ĠaÅ¾":53,"Ġze":54,"ĠmÃ¡":55,"Ġjeho":56,"Na":57,"A":58,"Ġco":59,"ĠkterÃ¡":60,"ĠvÅ¡ak":61,"ĠneÅ¾":62,"Ġaby":63,"Ġjak":64,"ĠkdyÅ¾":65,"ka":66,"ĠjeÅ¡tÄĽ":67,"Ġbylo":68,"Ġbyla":69,"Ġpodle":70,"Ġkorun":71,"ĠâĢĵ":72,"\"":73,"Ġlet":74,":":75,"ĠbÃ½t":76,"Ġani":77,"ky":78,"Ġpak":79,"Ġroku":80,"Ġ1":81,"Ġkde":82,"ĠsvÃ©":83,"Ġho":84,"Ġroce":85,"ĠnenÃŃ":86,"ĠV":87,"Ġmezi":88,"ĠkteÅĻÃŃ":89,",":90,"ĠprvnÃŃ":91,"ĠÄįi":92,"ĠdalÅ¡ÃŃ":93,"Ġjejich":94,"S":95,"ku":96,"te":97,"s":98,"Ġnad":99,"Ġne":100,"-":101,"ovÃ¡":102,"Ġpod":103,"Po":104,"Ġmu":105,"Ġbudou":106,"ce":107,"Z":108,"Ġ!":109,"Ġmi":110,"ĠjiÅ¾":111,"la":112,"mi":113,"ĠtÃŃm":114,"Ġ2":115,"ovÃ©":116,"O":117,"Ġbez":118,"nÃ¡":119,"ĠÅĻekl":120,"Ġkdy":121,"Ġtom":122,"mu":123,"ĠmÅ¯Å¾e":124,"ĠA":125,"ĠmajÃŃ":126,"ĠnÃ¡s":127,"nÃ©":128,"ĠmÄĽl":129,"em":130,"ci":131,"nÃ½":132,"ĠmÄĽ":133,"Ġproti":134,"ĠvÃŃce":135,"To":136,"ĠtotiÅ¾":137,"k":138,"ĠS":139,"nÄĽ":140,"l":141,"ĠtÅĻi":142,"K":143,"Je":144,"nÃŃ":145,"na":146,"Ġtam":147,"li":148,"nou":149,"Ġdva":150,"Ġtoho":151,"Ġhodin":152,"Ġtu":153,"skÃ½":154,"ĠprotoÅ¾e":155,"Ġji":156,"skÃ©":157,"Ġ3":158,"ch":159,"Å¡":160,"ĠnÃ¡m":161,"ĠtisÃŃc":162,"Ġtomu":163,"m":164,"le":165,"Ġke":166,"Ġasi":167,"t":168,"ĠpÅĻes":169,"Podle":170,"Å¯":171,"skÃ¡":172,"ĠlidÃŃ":173,"1":174,"Ġtedy":175,"Ġvelmi":176,"nÃŃm":177,"ĠO":178,"me":179,"ĠnapÅĻÃŃklad":180,"I":181,"ta":182,"ra":183,"Ġproto":184,"n":185,"Ġvy":186,"ĠtÅĻeba":187,"ĠâĢŀ":188,"Ġdnes":189,"p":190,"ĠB":191,"z":192,"ly":193,"ĠK":194,"skÃ©ho":195,"ĠmÃŃsto":196,"U":197,"Ġmohou":198,"Ġbyly":199,"Ġjim":200,"ho":201,"ĠmÄĽsta":202,"2":203,"ĠvÄįera":204,"Ġpouze":205,"c":206,"ĠmusÃŃ":207,"a":208,"Za":209,"Do":210,"Ale":211,"ĠpÅĻe":212,"ny":213,"ty":214,"Ġdvou":215,"u":216,"Ġ/":217,"ĠmÃŃt":218,"r":219,"Ġjeden":220,"Ve":221,"Ġrok":222,"ĠdobÄĽ":223,"ĠlidÃ©":224,"ĠÅĻÃŃkÃ¡":225,"ĠdvÄĽ":226,"Ġnich":227,"d":228,"Å¯m":229,"kem":230,"lo":231,"ovat":232,"ĠP":233,"nÃ½ch":234,"oval":235,"Ġ4":236,"Ġnic":237,"Ġkterou":238,"00":239,"nÃ©ho":240,"y":241,"Ġletech":242,"ĠZ":243,"Pro":244,"Ġuvedl":245,"ĠnÄĽkolik":246,"ĠprÃ¡ce":247,"ĠtÃ©to":248,"Äį":249,"ĠstÃ¡le":250,"ĠutkÃ¡nÃŃ":251,"ĠjejÃŃ":252,"ĠprÃ¡vÄĽ":253,"ĠD":254,"ĠnÄĽco":255,"da":256,"ĠmÄĽli":257,"ou":258,"ni":259,"Ġjste":260,"ĠNa":261,"cÃŃ":262,"Ġ20":263,"ĠcoÅ¾":264,"ĠnÄĽj":265,"ĠnÃŃ":266,"Ġ10":267,"tu":268,"KdyÅ¾":269,"ĠzatÃŃm":270,"ĠmÄĽla":271,"st":272,"ovou":273,"ĠnynÃŃ":274,"Ġroz":275,"b":276,"Ġbych":277,"ĠdÄĽti":278,"o":279,"i":280,"kou":281,"h":282,"P":283,"Ġden":284,"ĠI":285,"ĠdruhÃ©":286,"Ġ5":287,"ovi":288,"ĠposlednÃŃ":289,"Ġ17":290,"in":291,"ĠkvÅ¯li":292,"ti":293,"ovÃ½ch":294,"ovali":295,"ĠM":296,"ĠnovÃ©":297,"Ġbyli":298,"cÃŃch":299,"vÃ¡":300,"ĠpÅĻedevÅ¡ÃŃm":301,"ĠPo":302,"ovÃ½":303,"ĠvÅ¡echny":304,"3":305,"en":306,"v":307,"se":308,"Jak":309,"/":310,"Ġ18":311,"ovala":312,"ĠÄĮeskÃ©":313,"ĠsvÃ©ho":314,"skÃ½ch":315,"ĠT":316,"Ġkolem":317,"nÃ½m":318,"nu":319,"ĠspoleÄįnosti":320,"ĠdobÅĻe":321,"Ġletos":322,"Ġten":323,"ma":324,"5":325,"j":326,"Ġsvou":327,"Od":328,"Ġ15":329,"ĠC":330,"ĠpÅĻÃŃpadÄĽ":331,"ĠJan":332,"Pokud":333,"ÅĻe":334,"lu":335,"M":336,"no":337,"Ġprocent":338,"ÅĻi":339,"ĠU":340,"ĠKÄį":341,"ĠmluvÄįÃŃ":342,"kovÃ¡":343,"ĠE":344,"kÅ¯":345,"g":346,"PÅĻi":347,"Ġmoc":348,"ĠjÃŃ":349,"va":350,"Ġsice":351,"ĠvÅ¡ech":352,"ĠdomÃ¡cÃŃ":353,"Ġ6":354,"ĠvÅ¯bec":355,"il":356,"ĠÄįtyÅĻi":357,"ĠteÄı":358,"B":359,"Ġzde":360,"ĠH":361,"ovÃ¡nÃŃ":362,"nÃŃch":363,"Äįka":364,"ĠpÄĽt":365,"ĠdalÅ¡ÃŃch":366,"al":367,"ova":368,"ÅĻ":369,"ro":370,"an":371,"ĠopÄĽt":372,"ne":373,"uje":374,"Ġty":375,"ry":376,"ĠhodnÄĽ":377,"T":378,"ĠtÃ©mÄĽÅĻ":379,"ĠsvÃ½ch":380,"Å¡tÃŃ":381,"skou":382,"ĠnavÃŃc":383,"to":384,"D":385,"dy":386,"Ne":387,"Å¾":388,"Ġnejen":389,"e":390,"ĠÅ¡koly":391,"Ġli":392,"Äįek":393,"ĠmilionÅ¯":394,"ĠpatÅĻÃŃ":395,"ĠsvÅ¯j":396,"Ã½":397,"ĠÄįÃ¡sti":398,"Ġsobotu":399,"skÃ©m":400,"ĠpenÃŃze":401,"sko":402,"Ġ16":403,"ĠstejnÄĽ":404,"Ġkdo":405,"re":406,"ko":407,"Ġzase":408,"je":409,"ĠJe":410,"ĠkaÅ¾dÃ½":411,"du":412,"ĠjÃ¡":413,"Ġtento":414,"ĠhlavnÄĽ":415,"Vy":416,"ĠsvÄĽta":417,"de":418,"ĠvÃŃc":419,"tem":420,"Ġ;":421,"Ġdokonce":422,"Ġ12":423,"ĠovÅ¡em":424,"ĠvlastnÃŃ":425,"Ġpokud":426,"Äįky":427,"4":428,"ĠPetr":429,"Ġ19":430,"0":431,"ĠbÄĽhem":432,"30":433,"nÃŃho":434,"Ġ9":435,"ĠG":436,"Ġjde":437,"Ġpolicie":438,"nost":439,"f":440,"ĠJiÅĻÃŃ":441,"ÃŃ":442,"ĠF":443,"ĠL":444,"ĠtakÅ¾e":445,"ĠvÃ¡s":446,"ckÃ©":447,"Ġ0":448,"ckÃ½":449,"Ġ8":450,"ĠpÅ¯l":451,"Ġfirmy":452,"H":453,"ĠÅł":454,"Ġchce":455,"Ġnakonec":456,"it":457,"ĠvedenÃŃ":458,"Ġzda":459,"Äįe":460,"ĠmÃŃstÄĽ":461,"ĠÄįÃ¡st":462,"ĠjinÃ©":463,"Ã¡":464,"ĠPraze":465,"ĠstÃ¡t":466,"Ġ14":467,"ovÄĽ":468,"Ã©":469,"Co":470,"ĠvÃ¡m":471,"Ġstrany":472,"nÃ©m":473,"ÄįÃŃ":474,"ovÃ©ho":475,"Ġlze":476,"Ġ7":477,"Ġmohl":478,"ze":479,"ru":480,"ĠJ":481,"lÃŃ":482,"Ġtohoto":483,"ba":484,"ji":485,"ĠtÃ½m":486,"ĠKo":487,"ĠtrenÃ©r":488,"jÃŃ":489,"ĠÄįasto":490,"ĠprÃ¡ci":491,"Ġtady":492,"nÄĽjÅ¡ÃŃ":493,"ĠÄĮR":494,"C":495,"ĠtÃ©":496,"ĠnÄĽkolika":497,"ĠzÃ¡pas":498,"ĠÅĻeditel":499,"val":500,"ĠmoÅ¾nÃ©":501,"ÅĻÃŃ":502,"Ġsebe":503,"lÃ¡":504,"tÃŃ":505,"Ġta":506,"ĠsvÃ½m":507,"ĠmÄĽsto":508,"ĠtÄĽchto":509,"ckÃ¡":510,"ĠsoutÄĽÅ¾e":511,"on":512,"ĠR":513,"Ġulici":514,"nosti":515,"ĠÄįas":516,"ĠNe":517,"Ġhned":518,"Ġ11":519,"ĠtÅĻetÃŃ":520,"Ġjej":521,"ĠcelÃ©":522,"ĠvÅ¡e":523,"di":524,"Ã½m":525,"Ġ30":526,"Ġ%":527,"Ġtomto":528,"ĠtÃ½mu":529,"ĠpÅĻÃŃliÅ¡":530,"kovÃ©":531,"ĠprÃ½":532,"Ġdodal":533,"ĠvÅ¾dy":534,"Ġ13":535,"ĠpÅĻitom":536,"ĠvÅ¡echno":537,"ĠdÃŃky":538,"tÄĽ":539,"skÃ½m":540,"ov":541,"Ġnebude":542,"ĠtÅĻÃŃ":543,"Ġzhruba":544,"ĠpozdÄĽji":545,"Ġroky":546,"Äįi":547,"Ã©ho":548,"ĠvÄĽtÅ¡ÃŃ":549,"ska":550,"ĠvelkÃ©":551,"Ġdeset":552,"bu":553,"Ġm":554,"ĠsÃ¡m":555,"ĠÅ¾ivot":556,"Ġspolu":557,"*":558,"kÃ¡":559,"at":560,"F":561,"ĠÄįeskÃ©":562,"Ġznovu":563,"sa":564,"Ġdoma":565,"Ġklubu":566,"er":567,"su":568,"ĠstoletÃŃ":569,"Ten":570,"ĠdÃ¡l":571,"ĠprostÅĻedÃŃ":572,"ĠzÃ¡ÅĻÃŃ":573,"Å¾ÃŃ":574,"Ġnevy":575,"Ġ*":576,"ĠN":577,"ina":578,"L":579,"Åł":580,"6":581,"Ġjednou":582,"Ġakce":583,"ĠtÃ½den":584,"ckÃ©ho":585,"ĠpÅĻÃŃmo":586,"ĠzejmÃ©na":587,"Ġtrochu":588,"Ġzcela":589,"R":590,"nice":591,"lem":592,"ĠmÃ¡me":593,"ĠODS":594,"ĠnemÃ¡":595,"Ġlety":596,"ĠTo":597,"ĠhlavnÃŃ":598,"Ġkonce":599,"ĠnÄĽm":600,"vÄĽ":601,"ĠpÃ¡r":602,"ĠdÄĽtÃŃ":603,"ĠPraha":604,"ĠDo":605,"ĠchvÃŃli":606,"rÃ¡":607,"ĠnejvÄĽtÅ¡ÃŃ":608,"Ġdobu":609,"ÅĪ":610,"Ġnikdy":611,"nÃ½mi":612,"dÃŃ":613,"ĠzÅĻejmÄĽ":614,"Ġmohli":615,"Ġti":616,"ĠvÅ¡ichni":617,"ĠcelÃ½":618,"ĠmoÅ¾nost":619,"Ġsto":620,"ĠprvnÃŃm":621,"ri":622,"ĠpÄĽti":623,"ovanÃ©":624,"Ġmimo":625,"Ġopravdu":626,"Ġminut":627,"lÃ©":628,"ĠhrÃ¡t":629,"si":630,"Ã½ch":631,"Ġe":632,"Ġbychom":633,"Ġrepubliky":634,"Ġnej":635,"ĠzÃ¡kladnÃŃ":636,"ujÃŃ":637,"ĠnÃ¡mÄĽstÃŃ":638,"ckÃ½ch":639,"ĠmÃ¡m":640,"Jeho":641,"ĠnÄĽ":642,"Ġdostal":643,"ĠsvÃ©m":644,"E":645,"do":646,"ĠrÃ¡mci":647,"ĠtvrdÃŃ":648,"Ġob":649,"ar":650,"Ġde":651,"ha":652,"ĠmoÅ¾nÃ¡":653,"Äįku":654,"Ġnejsou":655,"7":656,"ĠnejlepÅ¡ÃŃ":657,"ĠstojÃŃ":658,"ĠpotÃ©":659,"ĠÅ¡est":660,"G":661,"Ġnikdo":662,"by":663,"ĠposlednÃŃch":664,"ĠvÄĽci":665,"ĠÄįekÃ¡":666,"ĠPavel":667,"ĠmuÅ¾":668,"J":669,"Ġoblasti":670,"ĠmÄĽlo":671,"ĠÄįlovÄĽk":672,"ĠzÃ¡jem":673,"Ġsebou":674,"ĠjeÅ¾":675,"Ġloni":676,"Ġkole":677,"Ġ21":678,"mo":679,"ĠjednÃ¡nÃŃ":680,"nÃŃk":681,"x":682,"Ġdoby":683,"ĠpoprvÃ©":684,"Ġsituace":685,"ĠproblÃ©m":686,"ĠnÄĽkdo":687,"Ġtuto":688,"ĠpoÄįet":689,"ĠobdobÃŃ":690,"Ġjednoho":691,"ĠvÃŃtÄĽzstvÃŃ":692,"ĠspoleÄįnost":693,"sta":694,"Ġdost":695,"ĠMa":696,"ĠproblÃ©my":697,"pa":698,"ĠÅĻÃŃzenÃŃ":699,"ĠlepÅ¡ÃŃ":700,"ÄįnÃŃ":701,"sti":702,"ĠnovÃ½":703,"ĠjehoÅ¾":704,"Ġmy":705,"ovÃ½m":706,"ĠnedÄĽli":707,"Ġdlouho":708,"Ġjinak":709,"ĠnaÅ¡e":710,"ovaly":711,"ĠÅĻekla":712,"ĠveÄįer":713,"ĠzemÄĽ":714,"Å¡e":715,"lou":716,"dÄĽ":717,"ĠurÄįitÄĽ":718,"Ġko":719,"Ġnaopak":720,"UÅ¾":721,"Ġkraje":722,"Å¡ÃŃ":723,"8":724,"rou":725,"ĠstranÄĽ":726,"ĠvÄįetnÄĽ":727,"ĠminutÄĽ":728,"po":729,"ĠmÃŃsta":730,"ĠproÄį":731,"ĠPro":732,"ĠjednÃ©":733,"Ġjedno":734,"sku":735,"tÃ¡":736,"ĠmÃ©nÄĽ":737,"pu":738,"ĠMartin":739,"Ġskupiny":740,"or":741,"ĠzaÄįÃ¡tku":742,"Ġprogram":743,"ing":744,"Ġstarosta":745,"ĠzaÅĻÃŃzenÃŃ":746,"ĠvÃ½":747,"N":748,"Ġsnad":749,"Ġdomu":750,"Ġnemocnice":751,"za":752,"ĠsamozÅĻejmÄĽ":753,"ĠmetrÅ¯":754,"Ġnebyl":755,"Ġjedna":756,"ĠÃºplnÄĽ":757,"ĠnÄĽkterÃ©":758,"Ġnepo":759,"ĠnÃŃm":760,"Ġh":761,"ĠdomÅ¯":762,"Ġinformace":763,"Ġon":764,"ĠJana":765,"PÅĻed":766,"ĠdÃ¡":767,"ĠnovÃ©ho":768,"ĠnÃŃÅ¾":769,"Ġprogramu":770,"ĠUSA":771,"sk":772,"Ġ25":773,"kovi":774,"Ġmnoho":775,"ĠmÄĽly":776,"ena":777,"cÅ¯":778,"vat":779,"ĠvlastnÄĽ":780,"ĠrÃ¡d":781,"sy":782,"Ġjestli":783,"pe":784,"ĠpodaÅĻilo":785,"ĠzÃ¡":786,"ovÃ©m":787,"ĠstÃ¡tnÃŃ":788,"ĠzÃ¡roveÅĪ":789,"Ġsituaci":790,"Ġceny":791,"Ġtyto":792,"Å¾e":793,"Ġuvedla":794,"dÃ¡":795,"zi":796,"ĠPrahy":797,"vÃŃ":798,"ĠÅ¾ivota":799,"ĠokolÃŃ":800,"PrvnÃŃ":801,"Ġ50":802,"sky":803,"vajÃŃ":804,"iny":805,"my":806,"Ġtrhu":807,"Ġstal":808,"Ġtehdy":809,"Ġneu":810,"ĠsouÄįasnÃ©":811,"Ġdosud":812,"Å¡i":813,"Ġbudeme":814,"ĠpÃ¡tek":815,"ve":816,"Ġjich":817,"ĠsobÄĽ":818,"Ġcelkem":819,"ĠhrÃ¡Äįi":820,"ovalo":821,"ĠnaÅ¡ÃŃ":822,"ĠnÄĽkterÃ½ch":823,"ali":824,"ĠsluÅ¾by":825,"Ġjednu":826,"ĠvedoucÃŃ":827,"hu":828,"ĠtÄĽch":829,"Ta":830,"ĠzaÄįal":831,"ily":832,"ĠstÅĻedu":833,"ĠrozhodnutÃŃ":834,"ĠsvÄĽtÄĽ":835,"ĠJosef":836,"ĠvlÃ¡dy":837,"ĠÄįeskÃ½ch":838,"Tak":839,"Ġobce":840,"ĠdÃ¡le":841,"Pak":842,"ĠmÅ¯Å¾ete":843,"Ġlidi":844,"ĠrovnÄĽÅ¾":845,"ckou":846,"Ġnebylo":847,"Å¾i":848,"Ġbody":849,"ĠjenÅ¾":850,"ĠvelkÃ½":851,"ĠpondÄĽlÃŃ":852,"ĠdruhÃ½":853,"cha":854,"ĠW":855,"mÃ¡":856,"DalÅ¡ÃŃ":857,"ĠbodÅ¯":858,"ĠspÃŃÅ¡e":859,"ĠÃºÅĻadu":860,"ĠÄįtyÅĻ":861,"Ġvody":862,"ĠÄĮSSD":863,"man":864,"kÃ¡ch":865,"ĠmÃŃstnÃŃ":866,"ĠmistrovstvÃŃ":867,"ĠdobrÃ©":868,"w":869,"ĠÅ¾Ã¡dnÃ©":870,"Ġnimi":871,"9":872,"Ġobou":873,"ĠsystÃ©m":874,"ĠzÃ¡kona":875,"kÅ¯m":876,"Ġlistopadu":877,"Ġradnice":878,"ÄĮ":879,"ĠZa":880,"Ã©m":881,"vali":882,"Ġligy":883,"ovanÃ½":884,"ĠmÄĽstÄĽ":885,"ĠalespoÅĪ":886,"vi":887,"Ġcelou":888,"nÄĽnÃŃ":889,"Ġzemi":890,"Ġsoud":891,"cÃŃm":892,"Ġosm":893,"vo":894,"Ġ22":895,"ĠtakovÃ©":896,"vy":897,"bo":898,"ĠpÅĻÃŃ":899,"ĠfinanÄįnÃŃ":900,"ĠTomÃ¡Å¡":901,"nÃ©mu":902,"ĠnovÃ½ch":903,"Ġsedm":904,"Ġkonci":905,"ĠÅ¡":906,"ĠdvÄĽma":907,"zÃŃ":908,"Ġkam":909,"Ã¡l":910,"Ġhry":911,"bi":912,"Ġmohla":913,"Ġcenu":914,"Proto":915,"Ġkola":916,"ĠvÄĽtÅ¡inou":917,"Ġkraj":918,"ĠkromÄĽ":919,"Ġkdyby":920,"Å½":921,"Ġstavu":922,"ĠÄĮ":923,"ĠnÄĽkdy":924,"kov":925,"Ġdnech":926,"hy":927,"enÃ©":928,"ĠzaÄįÃŃnÃ¡":929,"ĠkterÃ½m":930,"Ġdeseti":931,"ĠnichÅ¾":932,"ovy":933,"Ġroli":934,"Ġkraji":935,"ĠchtÄĽjÃŃ":936,"tek":937,"Ġjenom":938,"ĠsvÄĽt":939,"Ġg":940,"ga":941,"zu":942,"Ġprocenta":943,"Ġrychle":944,"el":945,"ĠvyÅ¡Å¡ÃŃ":946,"Ġmusel":947,"Ġpan":948,"ĠKa":949,"Ġin":950,"ĠchtÄĽl":951,"ĠpÅĻece":952,"Ġdne":953,"PRAHA":954,"ĠÅĻeÅ¡enÃŃ":955,"ĠpenÄĽz":956,"ĠzemÃŃ":957,"ĠskuteÄįnÄĽ":958,"ĠpoÅĻÃ¡d":959,"ĠÃºzemÃŃ":960,"Ġpostup":961,"Ġ24":962,"Ġfirma":963,"Ġsoudu":964,"Ġhodiny":965,"ĠÅ¾eny":966,"ĠpÅĻiÅ¡el":967,"ĠrozdÃŃl":968,"JÃ¡":969,"vala":970,"Ġdny":971,"Ġnez":972,"ĠdÅĻÃŃve":973,"Ġle":974,"ovanÃ½ch":975,"ĠsociÃ¡lnÃŃ":976,"Jako":977,"Ġkolo":978,"Ġprezident":979,"ĠVÃ¡clav":980,"Ġ'":981,"ĠÄįasu":982,"ĠVy":983,"ĠÅ¡anci":984,"ĠpÅĻesto":985,"ĠdÄĽlat":986,"ĠpÅĻÃŃÅ¡tÃŃ":987,"Y":988,"ĠLe":989,"Ġt":990,"pi":991,"ĠkterÃ©ho":992,"kami":993,"Ġledna":994,"ck":995,"ĠCo":996,"ĠVe":997,"nit":998,"Ġmiliardy":999,"ĠvÃ½kon":1000,"ĠgÃ³l":1001,"ter":1002,"Å¡ka":1003,"Ġdruhou":1004,"dou":1005,"ĠfinÃ¡le":1006,"ĠvÃŃ":1007,"ĠLi":1008,"Ġla":1009,"Ġni":1010,"Ġpomoc":1011,"bÃŃ":1012,"Ġmoci":1013,"ĠÃº":1014,"Praha":1015,"ĠvidÄĽt":1016,"KromÄĽ":1017,"inu":1018,"Ġtato":1019,"ĠzpÅ¯sobem":1020,"Ġoba":1021,"Ġ100":1022,"Ġprojektu":1023,"kovou":1024,"Ġprostor":1025,"Ġstav":1026,"ĠzahraniÄįÃŃ":1027,"ĠÅ¡Ã©f":1028,"cem":1029,"Ġmnohem":1030,"as":1031,"ĠzÃŃskat":1032,"ĠplatÃŃ":1033,"Ġ23":1034,"ak":1035,"ĠpolicistÃ©":1036,"aly":1037,"ĠdoÅ¡lo":1038,"be":1039,"ĠBa":1040,"Ġhra":1041,"ĠletoÅ¡nÃŃ":1042,"ek":1043,"rÅ¯":1044,"Ãļ":1045,"Ġrepublice":1046,"ana":1047,"us":1048,"ĠkterÃ½ch":1049,"cky":1050,"Ġprojekt":1051,"ec":1052,"Ġpomoci":1053,"ĠnemÅ¯Å¾e":1054,"Ġakci":1055,"ckÃ½m":1056,"chy":1057,"ĠÅĻadu":1058,"tel":1059,"Ġobyvatel":1060,"ĠmuÅ¾e":1061,"ĠmÃ¡lo":1062,"ĠnÄĽjakÃ©":1063,"ĠvlÃ¡da":1064,"Ġauto":1065,"ĠrÅ¯znÃ½ch":1066,"ĠJaroslav":1067,"Ġvelkou":1068,"Ġhraje":1069,"ĠPa":1070,"ĠÄį":1071,"Å¡ek":1072,"ĠÅ¡esti":1073,"ĠÅ¡kol":1074,"ĠEvropy":1075,"alo":1076,"Ġp":1077,"ĠprostÄĽ":1078,"ĠneboÅ¥":1079,"NavÃŃc":1080,"ĠznamenÃ¡":1081,"ĠkvÄĽtna":1082,"Ġnovou":1083,"Ġdvacet":1084,"ckÃ©m":1085,"ĠpÅĻedseda":1086,"ĠpolicejnÃŃ":1087,"ĠjinÃ½ch":1088,"nil":1089,"Ġvelice":1090,"Mezi":1091,"ĠhrÃ¡ÄįÅ¯":1092,"ĠÄįervna":1093,"stvÃŃ":1094,"Ġ40":1095,"Ġtaky":1096,"ĠnÃ¡":1097,"ĠmnoÅ¾stvÃŃ":1098,"ĠzÃ¡pasu":1099,"ĠÄĮech":1100,"es":1101,"Å¥":1102,"ĠÅ¾ena":1103,"ĠsystÃ©mu":1104,"Ġnedo":1105,"Ġre":1106,"ovÃ¡n":1107,"ĠstÃ¡tu":1108,"Ġdal":1109,"Ġklub":1110,"Ã½mi":1111,"lek":1112,"ĠvÃŃkendu":1113,"ĠnaÅ¡ich":1114,"hÃ¡":1115,"pÃŃ":1116,"lit":1117,"Ġtolik":1118,"ĠnejvyÅ¡Å¡ÃŃ":1119,"ĠÂ«":1120,"jÃŃcÃŃ":1121,"Ġthe":1122,"ĠnabÃŃzÃŃ":1123,"ĠBo":1124,"Ġsami":1125,"ĠprohlÃ¡sil":1126,"ĠÃºterÃ½":1127,"ĠrÃ¡no":1128,"ĠRo":1129,"ĠostatnÃŃ":1130,"ĠLa":1131,"len":1132,"ĠvÃ½sledky":1133,"Ġset":1134,"ĠzaÄįala":1135,"Ġodpoledne":1136,"ĠHo":1137,"Ġmnoha":1138,"ĠzÃ¡vod":1139,"ĠKu":1140,"Ġb":1141,"Å¾enÃŃ":1142,"ĠspoleÄįnÄĽ":1143,"ĠÅĻÃŃjna":1144,"nem":1145,"Ġma":1146,"ĠareÃ¡lu":1147,"ĠKarel":1148,"Ġcena":1149,"ĠvÃ½Å¡i":1150,"ĠzÃŃskal":1151,"sem":1152,"Ġvedle":1153,"ĠÄįtvrtek":1154,"ĠBrnÄĽ":1155,"til":1156,"Ġd":1157,"Ġmuseli":1158,"sty":1159,"Ġkoncem":1160,"JenÅ¾e":1161,"Dnes":1162,"Ġmohlo":1163,"sÃŃ":1164,"Ġmilionu":1165,"ĠumÄĽnÃŃ":1166,"Ġnoci":1167,"mÄĽ":1168,"ĠmalÃ©":1169,"ĠEU":1170,"ili":1171,"enÃ¡":1172,"ĠnejvÃŃce":1173,"ĠzaÄįne":1174,"ĠpÅĻesnÄĽ":1175,"ĠÃļ":1176,"ĠÄįeskÃ½":1177,"ĠKrÃ¡lovÃ©":1178,"ĠinformacÃŃ":1179,"tÅ¯":1180,"Ġtoto":1181,"Ġdubna":1182,"ĠzÃ¡kon":1183,"ĠpostupnÄĽ":1184,"kovÃ½ch":1185,"ad":1186,"ĠpracovnÃŃ":1187,"ĠbÅĻezna":1188,"ĠdÅ¯m":1189,"ĠoddÄĽlenÃŃ":1190,"um":1191,"Ġbod":1192,"Ġlidem":1193,"nostÃŃ":1194,"ĠÄįeskÃ©ho":1195,"ĠMo":1196,"ĠÅ¾en":1197,"Ġkomise":1198,"ĠmÃŃst":1199,"nici":1200,"ÅĻil":1201,"ĠdruhÃ©m":1202,"Ġfilm":1203,"ĠÃºÅĻad":1204,"ĠjinÃ©ho":1205,"Ġdostat":1206,"Ġ28":1207,"Ãº":1208,"ĠOd":1209,"ĠpoÄįasÃŃ":1210,"ĠzranÄĽnÃŃ":1211,"nout":1212,"Ġ60":1213,"dem":1214,"Ġdaleko":1215,"Ġra":1216,"Ġteprve":1217,"tech":1218,"Ġpotom":1219,"ĠmÅ¯Å¾eme":1220,"ĠdolarÅ¯":1221,"vou":1222,"Ġunie":1223,"ĠRe":1224,"PrÃ¡vÄĽ":1225,"Ġprovoz":1226,"ĠdvakrÃ¡t":1227,"ovanÃ¡":1228,"ĠdÃŃtÄĽ":1229,"skÃ½mi":1230,"py":1231,"Äįil":1232,"Ġmuset":1233,"enÃ½":1234,"nek":1235,"ĠskonÄįil":1236,"Ani":1237,"Ġneza":1238,"ĠnÄĽmÅ¾":1239,"ĠroÄįnÃŃk":1240,"Ġ26":1241,"Jen":1242,"ĠdodÃ¡vÃ¡":1243,"ĠPod":1244,"ĠvÄĽc":1245,"ĠmuÅ¾i":1246,"ĠkouÄį":1247,"ĠroÄįnÃŃku":1248,"ĠlÃ©pe":1249,"lenÃŃ":1250,"ĠsoutÄĽÅ¾":1251,"ĠEvropskÃ©":1252,"ĠvÅ¡em":1253,"kovÃ½":1254,"ĠsouÄįÃ¡stÃŃ":1255,"ĠsnaÅ¾ÃŃ":1256,"ĠÄĮesku":1257,"ge":1258,"ĠrozhodnÄĽ":1259,"ĠÅ¾Ã¡dnÃ½":1260,"ĠvÄĽku":1261,"TakÃ©":1262,"ĠspoluprÃ¡ci":1263,"Ġsezony":1264,"ĠzÃ¡pasy":1265,"Ġministr":1266,"ĠvÃ½raznÄĽ":1267,"ĠdopravnÃŃ":1268,"ĠsdruÅ¾enÃŃ":1269,"ÄįnÃŃch":1270,"Ġnebyla":1271,"Ġro":1272,"Ġof":1273,"ĠPetra":1274,"ĠnemajÃŃ":1275,"lÃ½":1276,"ÄįtÃŃ":1277,"Ġauta":1278,"ĠnovÃ¡":1279,"PÅĻe":1280,"Ã¡lnÃŃ":1281,"ĠsportovnÃŃ":1282,"ĠMiroslav":1283,"ĠkterÃ©m":1284,"Byl":1285,"Ġtzv":1286,"NenÃŃ":1287,"vÃ¡nÃŃ":1288,"ĠpodmÃŃnky":1289,"ĠpomocÃŃ":1290,"ĠkilometrÅ¯":1291,"Ġcentru":1292,"Ġsem":1293,"ĠÅ¡kole":1294,"ĠvÄĽtÅ¡ina":1295,"ĠaÅ¥":1296,"ĠprvnÃŃho":1297,"ĠsoupeÅĻe":1298,"ÃŃm":1299,"sek":1300,"Ġstran":1301,"ĠprÅ¯bÄĽhu":1302,"Ġ27":1303,"gu":1304,"Ġprovozu":1305,"Ġsrpna":1306,"ĠzÃ¡kladÄĽ":1307,"ĠsluÅ¾eb":1308,"ĠtisÃŃce":1309,"ĠBrno":1310,"ĠtakovÃ½":1311,"ĠtentokrÃ¡t":1312,"eni":1313,"Ġdispozici":1314,"mÃŃ":1315,"ĠMichal":1316,"ĠdalÅ¡ÃŃm":1317,"jeme":1318,"ĠHa":1319,"ĠÅĻada":1320,"ĠpÅĻijde":1321,"stÃŃ":1322,"ĠSa":1323,"TeÄı":1324,"Ġcestu":1325,"Ġcentra":1326,"ĠmÄĽsÃŃcÅ¯":1327,"Ġn":1328,"Ġbudu":1329,"ĠjakÃ©":1330,"Ġslov":1331,"ĠEvropÄĽ":1332,"ĠPe":1333,"ĠMi":1334,"Ġf":1335,"zy":1336,"Ġfilmu":1337,"fi":1338,"ĠpÅĻÃŃpad":1339,"ĠzÃ¡vÄĽru":1340,"stu":1341,"Ġte":1342,"ran":1343,"Ġskupina":1344,"ĠZdenÄĽk":1345,"ovÃ¡nÃŃm":1346,"rem":1347,"LidÃ©":1348,"ĠmÄĽsÃŃce":1349,"Ã¡t":1350,"Ġdostali":1351,"Ġ2007":1352,"Ġsou":1353,"anÃ©":1354,"ĠletoÅ¡nÃŃho":1355,"Â»":1356,"ĠjinÃ½":1357,"ĠsvÃ½mi":1358,"ĠnemÄĽl":1359,"ĠjmÃ©no":1360,"tnÃŃ":1361,"Ġsta":1362,"Ġtitul":1363,"skÃ©mu":1364,"ca":1365,"ĠudÄĽlat":1366,"ĠnapÅĻ":1367,"Ġorganizace":1368,"ovÃ¡na":1369,"nickÃ©":1370,"Ġmiliard":1371,"ĠmiliÃ³nÅ¯":1372,"ĠstarÅ¡ÃŃ":1373,"vÃ½":1374,"ĠuskuteÄįnÃŃ":1375,"Ġosmi":1376,"Ã¡n":1377,"vu":1378,"den":1379,"Å¡tÄĽ":1380,"ila":1381,"ĠpolovinÄĽ":1382,"Ġprosince":1383,"ĠvÃ½sledek":1384,"Ġdi":1385,"let":1386,"ĠstÅĻednÃŃ":1387,"Ġkm":1388,"ĠmÄĽstskÃ©":1389,"jte":1390,"ĠLu":1391,"dnÃŃ":1392,"Ġregionu":1393,"ÄįnÃŃho":1394,"ĠdnÃŃ":1395,"ĠobÄĽ":1396,"kal":1397,"Ġpla":1398,"Ġr":1399,"eny":1400,"co":1401,"kÃ¡m":1402,"ĠhrozÃŃ":1403,"ĠhrÃ¡Äįe":1404,"ĠPÅĻi":1405,"ĠzÃ¡pase":1406,"Ġbanky":1407,"Ġstranu":1408,"NÃį":1409,"ĠRa":1410,"ĠzpÄĽt":1411,"ÄįenÃŃ":1412,"kl":1413,"ĠvysvÄĽtlil":1414,"Ġru":1415,"Se":1416,"Ġfirem":1417,"Äįit":1418,"bÄĽ":1419,"ĠnÃ¡vrh":1420,"zen":1421,"ĠlÃ©ta":1422,"ĠÄįervence":1423,"Ġode":1424,"ĠSe":1425,"ĠPlzeÅĪ":1426,"ĠosobnÃŃ":1427,"Ġc":1428,"Ġ31":1429,"Ġvede":1430,"Ã³":1431,"ĠnaÅ¡eho":1432,"15":1433,"ĠhÅĻiÅ¡tÄĽ":1434,"ovacÃŃ":1435,"ĠÅĻadÄĽ":1436,"ĠÃļstÃŃ":1437,"ĠrodiÄįe":1438,"ĠnutnÃ©":1439,"ĠzdravotnÃŃ":1440,"Ġminulosti":1441,"ĠZÃ¡":1442,"ĠVo":1443,"Ġkon":1444,"od":1445,"ĠSt":1446,"ĠMar":1447,"Ti":1448,"chu":1449,"ent":1450,"ĠrÃ¡di":1451,"ĠjasnÃ©":1452,"ĠpadesÃ¡t":1453,"tÃ©":1454,"Ġ...":1455,"Ġstala":1456,"Å¯v":1457,"Nej":1458,"ĠvÄĽcÃŃ":1459,"Ġpodporu":1460,"JeÅ¡tÄĽ":1461,"ĠnÄĽjakÃ½":1462,"ĠjednotlivÃ½ch":1463,"ĠKdyÅ¾":1464,"Kdo":1465,"Ġpa":1466,"CH":1467,"NapÅĻÃŃklad":1468,"ĠtÅĻÃŃdy":1469,"is":1470,"ĠsoutÄĽÅ¾i":1471,"ĠmuÅ¾Å¯":1472,"ĠvysvÄĽtluje":1473,"Ġskoro":1474,"ovÃ½mi":1475,"Ġhod":1476,"Ġka":1477,"ÅĻÅ¯":1478,"ĠjistÄĽ":1479,"ĠzÃŃtra":1480,"ĠdÃ¡t":1481,"ĠjednÃŃm":1482,"Ty":1483,"ĠnÃ¡klady":1484,"bou":1485,"Ġsvoji":1486,"Ġbu":1487,"Ġosob":1488,"Ġnepro":1489,"10":1490,"ĠtvoÅĻÃŃ":1491,"ĠmusÃŃme":1492,"Ġba":1493,"Ġpra":1494,"hla":1495,"lan":1496,"ĠspÃŃÅ¡":1497,"lovÃ¡":1498,"Ġrozhodl":1499,"nila":1500,"ĠhostÃ©":1501,"Ġruce":1502,"ĠdÅ¯leÅ¾itÃ©":1503,"ĠpoÄįtu":1504,"kla":1505,"ĠnÃ¡Å¡":1506,"Ġdivadla":1507,"Ġrukou":1508,"eno":1509,"ĠÃºnora":1510,"RA":1511,"ĠÅĻe":1512,"ĠÄįlovÄĽka":1513,"ÅĻenÃŃ":1514,"ĠzpÅ¯sob":1515,"Ġministerstva":1516,"EN":1517,"ĠCh":1518,"ĠjÃŃt":1519,"vÃ©":1520,"Ġbranky":1521,"ĠvÃ¡lky":1522,"ĠjejichÅ¾":1523,"ĠzaÄįali":1524,"VÃ½":1525,"ZatÃŃmco":1526,"ĠÅ¡ance":1527,"ĠpomÄĽrnÄĽ":1528,"ĠcelÃ©ho":1529,"Ġpohled":1530,"KA":1531,"Tento":1532,"Ġsmlouvy":1533,"ĠrÅ¯znÃ©":1534,"Ġrodiny":1535,"Ġsedmi":1536,"et":1537,"ech":1538,"Ġabychom":1539,"Ġfestivalu":1540,"ĠdevÄĽt":1541,"hou":1542,"Ġcen":1543,"Ze":1544,"ĠzboÅ¾ÃŃ":1545,"rov":1546,"ĠdennÄĽ":1547,"ĠFrantiÅ¡ek":1548,"Pod":1549,"Ġstalo":1550,"Å¡Å¥":1551,"ĠvelkÃ¡":1552,"ĠhrÃ¡Äį":1553,"Ġpocit":1554,"ĠhÅĻiÅ¡ti":1555,"ÅĪuje":1556,"Jejich":1557,"ĠchtÄĽli":1558,"Ġsama":1559,"Ġmne":1560,"ST":1561,"ĠrozpoÄįtu":1562,"hl":1563,"ĠBu":1564,"ĠprvnÃŃch":1565,"Ġkoncert":1566,"Ġ80":1567,"Bylo":1568,"Ġjednom":1569,"Ġbrzy":1570,"am":1571,"Ġ2006":1572,"Jsou":1573,"Ġnelze":1574,"Ġ2000":1575,"ovice":1576,"Ġcz":1577,"W":1578,"ĠÄįinnosti":1579,"Ġabych":1580,"ĠDe":1581,"Äı":1582,"ĠsetkÃ¡nÃŃ":1583,"ot":1584,"ĠpanÃŃ":1585,"ĠpraÅ¾skÃ©":1586,"ĠnovÄĽ":1587,"ĠobchodnÃŃ":1588,"ĠÃºspÄĽch":1589,"ĠsezonÄĽ":1590,"Ġ29":1591,"ĠzmÄĽny":1592,"pÃ¡":1593,"ke":1594,"Ãģ":1595,"ĠÄįÃŃslo":1596,"Ġ2008":1597,"Ġprezidenta":1598,"ĠMilan":1599,"ÄĽ":1600,"ProÄį":1601,"ĠmÃ¡te":1602,"ĠstejnÃ©":1603,"ĠhudebnÃŃ":1604,"ĠsvÄĽtovÃ©":1605,"ĠvÅ¾dycky":1606,"ĠII":1607,"cho":1608,"ĠnÃ¡zvem":1609,"Ġulice":1610,"PÅĻesto":1611,"Ġradost":1612,"sÃ¡":1613,"ĠkaÅ¾dÃ©":1614,"Ġtrh":1615,"ĠvyhrÃ¡l":1616,"ĠÅĻÃŃct":1617,"ÄįnÃŃm":1618,"ĠâĢ¦":1619,"ĠmezinÃ¡rodnÃŃ":1620,"men":1621,"rek":1622,"ĠnepÅĻi":1623,"av":1624,"ĠobcÃŃ":1625,"Ġkolik":1626,"ĠzdravÃŃ":1627,"Ġbo":1628,"ovo":1629,"ĠvysokÃ©":1630,"ĠdomÄĽ":1631,"ĠdruhÃ©ho":1632,"ĠpÅĻedstavÃŃ":1633,"Ġpotvrdil":1634,"ĠnadÃ¡le":1635,"ral":1636,"ovÃ¡ny":1637,"ĠpÃ¡":1638,"ĠVladimÃŃr":1639,"ner":1640,"cko":1641,"ĠpÅĻedstavenÃŃ":1642,"jÃŃcÃŃch":1643,"ĠÅ¡tÄĽstÃŃ":1644,"ĠvÄĽzenÃŃ":1645,"Ġku":1646,"cen":1647,"Ġl":1648,"Äįila":1649,"ĠmyslÃŃm":1650,"NA":1651,"Ġslova":1652,"Ġautor":1653,"ĠIn":1654,"ĠkoneÄįnÄĽ":1655,"cÅ¯m":1656,"ĠmÃŃstech":1657,"ĠÅ¡kola":1658,"ĠpÅĻiÅ¡la":1659,"Ġtelevize":1660,"ÄįkovÃ¡":1661,"kovÄĽ":1662,"ĠzÃ¡stupce":1663,"ĠdesÃŃtky":1664,"ĠDavid":1665,"ĠmoÅ¾nosti":1666,"ĠmenÅ¡ÃŃ":1667,"Ġboj":1668,"ĠpÅ¯sobÃŃ":1669,"Ġpodzim":1670,"ine":1671,"Ġch":1672,"ĠnaÅ¡i":1673,"ujeme":1674,"Ġstr":1675,"Ġmo":1676,"Ġdopravy":1677,"ĠvystoupenÃŃ":1678,"(":1679,"ĠÃºÄįast":1680,"ĠpodobnÄĽ":1681,"ĠÅ½":1682,"ĠtÄĽÅ¾kÃ©":1683,"ĠstavebnÃŃ":1684,"ĠpÅĻÃŃstup":1685,"ĠdobrÃ½":1686,"Ġhistorii":1687,"ÅĻskÃ©":1688,"Ġvz":1689,"Ġnebudou":1690,"ĠÄįinnost":1691,"Ġsv":1692,"AÅ¾":1693,"LA":1694,"NynÃŃ":1695,"ĠnÃ¡zor":1696,"Ġsilnice":1697,"cenÃŃ":1698,"ĠAl":1699,"ĠvÅ¯Äįi":1700,"valy":1701,"Ġnemocnici":1702,"ĠnemusÃŃ":1703,"tr":1704,"ĠzatÃŃmco":1705,"Ġrady":1706,"Ġ70":1707,"Ġhor":1708,"ĠÅĻeditele":1709,"ste":1710,"ala":1711,"der":1712,"Å¡enÃŃ":1713,"Å¾il":1714,"ĠÄįele":1715,"ĠkvalitnÃŃ":1716,"ĠÄĮeskÃ¡":1717,"ĠdneÅ¡nÃŃ":1718,"ĠdnÅ¯":1719,"Ġkategorii":1720,"ĠsmÄĽrem":1721,"ÄįnÄĽ":1722,"ĠmÄĽsÃŃc":1723,"rat":1724,"kÃ½":1725,"dal":1726,"lov":1727,"Ġrokem":1728,"Ġhru":1729,"ĠobÄįas":1730,"Ġobec":1731,"ĠvÃ½stava":1732,"ita":1733,"ĠopatÅĻenÃŃ":1734,"ĠtÅĻech":1735,"Ob":1736,"Ġbyste":1737,"dek":1738,"ĠBe":1739,"ĠJak":1740,"Ġkultury":1741,"ĠjedinÃ½":1742,"ĠmÃŃ":1743,"Ġnes":1744,"ĠzkuÅ¡enosti":1745,"nili":1746,"Ġ200":1747,"Ġcesty":1748,"ĠpodobÄĽ":1749,"skem":1750,"lin":1751,"Ġroze":1752,"kova":1753,"Ġprakticky":1754,"ĠjejÃŃm":1755,"Ġdostala":1756,"ĠtradiÄįnÃŃ":1757,"ĠdomÃ¡cÃŃm":1758,"Ġsouvislosti":1759,"Ġsmrti":1760,"ĠposlednÃŃm":1761,"ĠvÃ½voj":1762,"ĠmnÄĽ":1763,"ĠvÄĽ":1764,"ĠnÄĽkteÅĻÃŃ":1765,"Ġmohly":1766,"zenÃŃ":1767,"ĠbÃ½valÃ½":1768,"ĠÅ¾ivotnÃŃ":1769,"ĠveÅĻejnosti":1770,"enÃ½ch":1771,"ĠzÅ¯stÃ¡vÃ¡":1772,"ĠsdÄĽlil":1773,"ZÃ¡":1774,"dil":1775,"ĠpÅĻibliÅ¾nÄĽ":1776,"ĠÅ¡lo":1777,"nutÃŃ":1778,"ĠzÃ¡mku":1779,"JejÃŃ":1780,"Ġ2005":1781,"ĠcÃŃlem":1782,"ĠgÃ³ly":1783,"ĠPi":1784,"TakÅ¾e":1785,"Åĺ":1786,"go":1787,"lÃŃk":1788,"zovat":1789,"ĠdomÃ¡cÃŃch":1790,"dali":1791,"ĠdÄĽ":1792,"ĠjednÃ¡":1793,"tka":1794,"MÃ¡":1795,"bal":1796,"so":1797,"Ġstanice":1798,"ĠÅ¾ije":1799,"gi":1800,"Ġpracovat":1801,"ĠnÃ¡rodnÃŃ":1802,"Jde":1803,"ĠmÃŃÄį":1804,"DomÃ¡cÃŃ":1805,"Ġ90":1806,"Ġprostoru":1807,"Ġ2004":1808,"any":1809,"lil":1810,"inou":1811,"ĠpokraÄįovat":1812,"ĠprostÅĻednictvÃŃm":1813,"ĠbohuÅ¾el":1814,"Jsem":1815,"ĠnajÃŃt":1816,"ĠpracÃŃ":1817,"ĠvrÃ¡til":1818,"ĠhrÃ¡l":1819,"ÄįnÃ©":1820,"ĠThe":1821,"tou":1822,"Ġbudovy":1823,"Ġparku":1824,"ĠMe":1825,"KaÅ¾dÃ½":1826,"Re":1827,"ver":1828,"ĠloÅĪskÃ©ho":1829,"ĠLabem":1830,"ĠnedÃ¡vno":1831,"tila":1832,"Ġtabulky":1833,"ju":1834,"Ġsa":1835,"Ko":1836,"ob":1837,"Ġtrest":1838,"ĠroÄįnÄĽ":1839,"ĠÃºtoÄįnÃŃk":1840,"ani":1841,"Ġfunkce":1842,"Ġstavby":1843,"ĠpohÃ¡ru":1844,"Ġnaprosto":1845,"Ġdvaceti":1846,"ĠNew":1847,"ĠvyuÅ¾ÃŃt":1848,"ĠprÃ¡vo":1849,"ber":1850,"Äįkou":1851,"MyslÃŃm":1852,"Ġfotbal":1853,"Ġvliv":1854,"Ġmin":1855,"kat":1856,"ĠzaÄįÃŃt":1857,"ati":1858,"dili":1859,"Ġknihy":1860,"ĠnejmÃ©nÄĽ":1861,"ĠÅ¾ivotÄĽ":1862,"tickÃ©":1863,"ĠfinancÃŃ":1864,"Ġaut":1865,"Ġminuty":1866,"ĠzÃ¡vodu":1867,"ĠHe":1868,"ĠprÅ¯":1869,"ie":1870,"Ġ35":1871,"ĠniÅ¾Å¡ÃŃ":1872,"ĠDu":1873,"ĠtÅĻicet":1874,"zuje":1875,"Ġprodej":1876,"Ġplatit":1877,"ĠNo":1878,"vÃ¡m":1879,"ujÃŃcÃŃ":1880,"dila":1881,"nic":1882,"kovÃ©ho":1883,"ĠmÅ¯j":1884,"ĠTa":1885,"ĠnÄĽho":1886,"ĠcelÃ¡":1887,"pal":1888,"Roz":1889,"Ġchceme":1890,"ĠpotÅĻeba":1891,"Ġcm":1892,"ĠsÃŃtÄĽ":1893,"ĠAle":1894,"om":1895,"Ġvi":1896,"Ġfakt":1897,"ĠtrenÃ©ra":1898,"ĠzÃŃskala":1899,"ut":1900,"ĠÅĻÃŃci":1901,"ĠradÄĽji":1902,"ĠpatnÃ¡ct":1903,"ĠBar":1904,"Ġpolitiky":1905,"Ġsmlouvu":1906,"ĠAn":1907,"ĠÄįlenÅ¯":1908,"ĠskonÄįila":1909,"Ġcentrum":1910,"X":1911,"ĠÅĻidiÄį":1912,"ĠÃºdajnÄĽ":1913,"ĠpolitickÃ©":1914,"ĠdÅ¯vod":1915,"ĠkulturnÃŃ":1916,"ler":1917,"Ġmajetku":1918,"ĠtÄĽÅ¾ko":1919,"ĠpÃ©Äįe":1920,"ĠvÃ½Å¡e":1921,"Ġsu":1922,"ĠJiÅĻÃŃho":1923,"Ġdostane":1924,"Ġ":1925,"son":1926,"ata":1927,"Ġj":1928,"Ġpou":1929,"ja":1930,"Ġdocela":1931,"ĠnepÅĻe":1932,"ZatÃŃm":1933,"tit":1934,"bÃ¡":1935,"ĠplÃ¡n":1936,"Ġfunkci":1937,"ĠakcÃŃ":1938,"ĠpÅĻedstavuje":1939,"Ġtypu":1940,"Ġokolo":1941,"dla":1942,"ovÃ¡no":1943,"ĠvypadÃ¡":1944,"hle":1945,"Ġvstup":1946,"Ġpozici":1947,"ĠprÃ¡va":1948,"Letos":1949,"BÄĽhem":1950,"ĠkonÄįÃŃ":1951,"Ġkou":1952,"ĠSK":1953,"del":1954,"Ġdodala":1955,"Ġhlavou":1956,"ĠhlavnÃŃm":1957,"ovanÃ©ho":1958,"ĠPokud":1959,"ĠÄįÃŃm":1960,"Ġturnaje":1961,"ĠPlzni":1962,"Ġmajitel":1963,"oru":1964,"My":1965,"ĠdÅ¯vodÅ¯":1966,"nÄĽjÅ¡ÃŃm":1967,"ĠpravidelnÄĽ":1968,"ĠzÃ¡pasÅ¯":1969,"ĠvelkÃ½ch":1970,"ĠpÅĻÃŃpadech":1971,"ĠpÅ¯vodnÃŃ":1972,"ĠstarÃ©":1973,"ol":1974,"Ġzrovna":1975,"ĠÅĻeÅ¡it":1976,"Ġlize":1977,"Ġministra":1978,"Äįili":1979,"ĠvolbÃ¡ch":1980,"Ġpr":1981,"ĠpoÄįÃ¡tku":1982,"pl":1983,"ovÃŃ":1984,"ĠtÃ½dne":1985,"ej":1986,"ĠmÄĽst":1987,"kli":1988,"ĠsouÄįasnosti":1989,"cemi":1990,"ER":1991,"ĠLo":1992,"zÃ¡":1993,"ĠSo":1994,"Ġsil":1995,"Ġpodniku":1996,"Ġpi":1997,"Ġvoda":1998,"Ġobci":1999,"ĠJa":2000,"tky":2001,"Tato":2002,"jem":2003,"ĠchybÃŃ":2004,"Ġdivadlo":2005,"bor":2006,"anou":2007,"ĠnÄĽjakou":2008,"Ġdu":2009,"Ġnep":2010,"Ġstovky":2011,"ovu":2012,"ĠÅ¾ivotnÃŃho":2013,"ĠpodÃŃl":2014,"ĠkaÅ¾dÃ©ho":2015,"ĠlÃ©tÄĽ":2016,"Äįce":2017,"ĠdivÃ¡kÅ¯":2018,"ĠsnÃŃmku":2019,"ĠtÄĽ":2020,"stÃ¡":2021,"ĠnedÃ¡":2022,"Ġnijak":2023,"Ġ2010":2024,"Ġkg":2025,"Ġhlavu":2026,"Ġstart":2027,"Ġdr":2028,"ĠminulÃ©ho":2029,"Å¡ti":2030,"ĠÃºrovni":2031,"ĠtÃŃmto":2032,"letÃ¡":2033,"ĠsvÃ©mu":2034,"Ã¡m":2035,"Ġso":2036,"ory":2037,"DÃŃky":2038,"ed":2039,"ĠhÅĻe":2040,"onu":2041,"ĠcestÄĽ":2042,"ĠprostÅĻedky":2043,"Naopak":2044,"Ġsilnici":2045,"rnÄĽ":2046,"MoÅ¾nÃ¡":2047,"Ġnena":2048,"nka":2049,"cka":2050,"Ġst":2051,"ĠMarie":2052,"ĠjaÅĻe":2053,"ĠsÃŃly":2054,"ĠspeciÃ¡lnÃŃ":2055,"anÃ¡":2056,"StejnÄĽ":2057,"sto":2058,"ĠÅ¡patnÄĽ":2059,"ĠJÃ¡":2060,"ĠproblÃ©mÅ¯":2061,"ĠzahraniÄįnÃŃ":2062,"Tam":2063,"Ġturnaj":2064,"ĠumÃŃ":2065,"ĠzÃ¡stupci":2066,"ĠtÃ©ma":2067,"AN":2068,"Å¾enÃ©":2069,"Ġministerstvo":2070,"ĠsvÃ¡":2071,"ĠÄĮeskÃ©ho":2072,"ĠzemÃŃch":2073,"ĠnÄĽjak":2074,"nov":2075,"Ġlo":2076,"rna":2077,"Ġano":2078,"ren":2079,"ĠJu":2080,"ĠhasiÄįi":2081,"itu":2082,"Ġnechce":2083,"ĠdÄĽlÃ¡":2084,"ĠsoupeÅĻ":2085,"ĠtÄĽsnÄĽ":2086,"ĠNÄĽmecku":2087,"ĠnÃ¡mi":2088,"inÄĽ":2089,"20":2090,"Ġmil":2091,"Bez":2092,"ĠpÅĻÃŃpadnÄĽ":2093,"ĠzamÄĽstnancÅ¯":2094,"im":2095,"Ġ2002":2096,"ĠminulÃ½":2097,"Ġstrana":2098,"Ġnejde":2099,"Ġrozvoj":2100,"tili":2101,"pro":2102,"Ġstane":2103,"Ãį":2104,"KO":2105,"ÅĻka":2106,"ĠnÄĽmu":2107,"dit":2108,"ĠchodÃŃ":2109,"ÅĻila":2110,"ĠkonÃ¡":2111,"rnÃŃ":2112,"dajÃŃ":2113,"ĠjezdÃŃ":2114,"Ġhodinu":2115,"letÃ½":2116,"rt":2117,"Ġsezonu":2118,"PÅĻÃŃ":2119,"ĠpÅĻedtÃŃm":2120,"ovanou":2121,"ĠbrankÃ¡ÅĻ":2122,"ĠKon":2123,"ĠRu":2124,"ĠvÃ¡":2125,"ĠpÅ¯vodnÄĽ":2126,"Ġnechal":2127,"Ġenergie":2128,"ant":2129,"Ġbranku":2130,"Ġvztah":2131,"ĠBrna":2132,"Ġvolby":2133,"ĠVi":2134,"ĠnÃ¡draÅ¾ÃŃ":2135,"ĠHu":2136,"IN":2137,"dÄĽl":2138,"ĠuvÃ¡dÃŃ":2139,"Oba":2140,"telnÃ©":2141,"19":2142,"Ġpu":2143,"ĠNA":2144,"ĠvaÅ¡e":2145,"rech":2146,"ĠzvÃ½Å¡enÃŃ":2147,"ĠPÅĻÃŃ":2148,"ĠÅ¡koda":2149,"ĠVa":2150,"Å¡ky":2151,"ĠmyslÃŃ":2152,"ĠpoÅĻÃ¡dku":2153,"ĠMartina":2154,"ĠspoleÄįnostÃŃ":2155,"Ġno":2156,"ĠoÄįi":2157,"ĠtakovÃ¡":2158,"ilo":2159,"ĠrÅ¯st":2160,"nÄĽjÅ¡ÃŃch":2161,"ĠveÅĻejnost":2162,"ĠmladÅ¡ÃŃ":2163,"fa":2164,"ĠÄįasem":2165,"ĠplÃ¡nu":2166,"valo":2167,"ony":2168,"ona":2169,"Ġpracuje":2170,"ur":2171,"Ġsyn":2172,"sil":2173,"cÃŃho":2174,"ProtoÅ¾e":2175,"sp":2176,"hal":2177,"ĠpodobnÃ©":2178,"dl":2179,"Ġzdarma":2180,"ĠtÃ½my":2181,"Ka":2182,"ĠbytÅ¯":2183,"LE":2184,"ĠdÄĽtmi":2185,"anÃ½":2186,"ĠkterÃ©mu":2187,"Ġhlediska":2188,"ĠrÃ¡da":2189,"ĠtÃ½dny":2190,"Ġnejprve":2191,"Ġmoje":2192,"sou":2193,"ĠokamÅ¾itÄĽ":2194,"Ġobvykle":2195,"ĠÄįlen":2196,"Ġpohledu":2197,"kÃ©":2198,"ĠotÃ¡zku":2199,"vnÃŃ":2200,"ĠDi":2201,"Ġobrany":2202,"lat":2203,"Ġled":2204,"ĠnemÄĽli":2205,"ĠOstravÄĽ":2206,"mou":2207,"ĠjasnÄĽ":2208,"ĠdlouhÃ©":2209,"ĠvrÃ¡tit":2210,"ĠRoman":2211,"ĠdÄĽtem":2212,"jÃŃcÃŃm":2213,"Å¡t":2214,"ĠcelÃ©m":2215,"stickÃ©":2216,"Ġ2003":2217,"stou":2218,"ĠvÃ½stavy":2219,"Ġhlas":2220,"ĠmusÃŃm":2221,"Ġmusela":2222,"ĠPavla":2223,"ĠpravdÄĽpodobnÄĽ":2224,"ĠobrÃ¡nce":2225,"ĠIvan":2226,"pat":2227,"ĠnÄĽkolikrÃ¡t":2228,"Ġpravda":2229,"Ġneod":2230,"LI":2231,"ĠzvlÃ¡Å¡tnÃŃ":2232,"lech":2233,"Å¡el":2234,"Ġneo":2235,"ĠdruhÃ¡":2236,"Ġmiliony":2237,"ĠmodernÃŃ":2238,"50":2239,"Ġkrok":2240,"Ġodboru":2241,"ĠdvanÃ¡ct":2242,"zace":2243,"ĠletoÅ¡nÃŃm":2244,"ĠnejlÃ©pe":2245,"ĠpÅĻiÅ¡li":2246,"Ġcesta":2247,"ĠvÃ½roÄįÃŃ":2248,"Ġ2009":2249,"ĠUÅ¾":2250,"ul":2251,"Byla":2252,"pÄĽ":2253,"Å¡il":2254,"PO":2255,"Ġfestival":2256,"Ġ+":2257,"ĠpÅĻiÄįemÅ¾":2258,"ĠveÅĻejnÃ©":2259,"ĠnÄĽkde":2260,"ĠÅ¡el":2261,"tele":2262,"Ġinternetu":2263,"ĠdelÅ¡ÃŃ":2264,"ÅĻili":2265,"hra":2266,"Jeden":2267,"vÃ¡me":2268,"ĠOb":2269,"ĠKra":2270,"Ġpoznamenal":2271,"zem":2272,"ĠVÃ¡clava":2273,"ĠzdravotnictvÃŃ":2274,"Ġobraz":2275,"jÃŃcÃŃho":2276,"Ġkonec":2277,"dlo":2278,"Bude":2279,"ĠÄĮe":2280,"Ġlu":2281,"ir":2282,"he":2283,"Å¾nÃŃ":2284,"90":2285,"ĠÅĻady":2286,"ĠÃºtoku":2287,"nilo":2288,"ĠÅ¾Ã¡kÅ¯":2289,"TÃŃm":2290,"Ġhokej":2291,"Ãī":2292,"ĠbÃ½valÃ©ho":2293,"ĠAr":2294,"ĠpremiÃ©r":2295,"ĠvydÃ¡nÃŃ":2296,"ÅĻit":2297,"Ġfotografie":2298,"Ġpomalu":2299,"ĠpoÅĻÃ¡dÃ¡":2300,"nskÃ©":2301,"Ġand":2302,"ĠnevÃŃ":2303,"Ġsvazu":2304,"ĠÄįlenovÃ©":2305,"ĠjejÃŃÅ¾":2306,"Le":2307,"vka":2308,"EK":2309,"ĠVÃ½":2310,"ĠminimÃ¡lnÄĽ":2311,"ÅĻem":2312,"ĠÄĮeskÃ½ch":2313,"ĠbÃ½vÃ¡":2314,"per":2315,"ĠVelkÃ©":2316,"ĠPÅĻe":2317,"nÃŃci":2318,"ĠchystÃ¡":2319,"Ġbudete":2320,"EL":2321,"ĠobÄįanÅ¯":2322,"ĠnevÃŃm":2323,"ĠplnÃ©":2324,"ĠbuÄı":2325,"ĠpodstatÄĽ":2326,"Ġstadionu":2327,"ĠvÃ½boru":2328,"ĠkrÃ¡tce":2329,"stÃ©":2330,"ĠnejvÃŃc":2331,"ĠmoÅ¾nostÃŃ":2332,"Ġtakto":2333,"OV":2334,"PoslednÃŃ":2335,"Ġmuzea":2336,"anu":2337,"ĠpojiÅ¡tÄĽnÃŃ":2338,"ĠdÃŃla":2339,"ĠvÃ½konu":2340,"ĠamerickÃ©":2341,"Ġeur":2342,"ĠevropskÃ½ch":2343,"ĠmanaÅ¾er":2344,"ĠMu":2345,"Ġvzhledem":2346,"ĠfotbalovÃ©":2347,"Ġdotace":2348,"ĠskupinÄĽ":2349,"Nakonec":2350,"eri":2351,"ĠpÅ¯jde":2352,"Ġdoplnil":2353,"ĠostatnÃŃch":2354,"Ġbyt":2355,"MÄĽsto":2356,"Ġher":2357,"ĠpoÅĻadÃŃ":2358,"ĠstÃ¡":2359,"NÃ¡":2360,"PotÃ©":2361,"chÃ¡":2362,"ĠlÃ©kaÅĻi":2363,"Ġvo":2364,"LN":2365,"Ġotec":2366,"Å½e":2367,"ĠÅ¡kolu":2368,"ĠÄįin":2369,"Ġpole":2370,"ĠpÅĻÃŃÅ¡tÃŃho":2371,"Ġop":2372,"Ġ150":2373,"letÃ©ho":2374,"Å¾enÃ½":2375,"ĠlÃŃ":2376,"ĠdrÅ¾ÃŃ":2377,"ĠzprÃ¡vy":2378,"nky":2379,"ĠÄįeskÃ¡":2380,"stra":2381,"ĠhrÃ¡li":2382,"ĠsociÃ¡lnÃŃch":2383,"ĠÅ¾Ã¡dnou":2384,"Ġformu":2385,"Ġpar":2386,"ĠzmÄĽnu":2387,"Ġhotelu":2388,"Ġtakovou":2389,"ĠnaÅ¡em":2390,"ĠkaÅ¾dÃ©m":2391,"Ġhranice":2392,"Ġbytu":2393,"ĠdalÅ¡ÃŃho":2394,"RO":2395,"ĠÅĻÃŃ":2396,"ĠÄįase":2397,"Ġrozhodli":2398,"ĠpÅĻijÃŃt":2399,"Ġdali":2400,"ĠKlaus":2401,"Ġpe":2402,"Å¾ila":2403,"Ġnemohl":2404,"ton":2405,"stÅ¯":2406,"ĠjejÃŃho":2407,"Ġ32":2408,"tra":2409,"ĠfotbalistÃ©":2410,"op":2411,"Ġzisk":2412,"ĠvÄĽtÅ¡inu":2413,"Ġnapsal":2414,"ĠvÃŃkend":2415,"ĠpÅĻiÅ¡lo":2416,"ĠFC":2417,"ĠÄįinÃŃ":2418,"ĠleÅ¾ÃŃ":2419,"Ġpozor":2420,"ĠpÅĻÃŃbÄĽh":2421,"Ġnajednou":2422,"ĠtÅĻemi":2423,"Ġslovo":2424,"ĠÅ¾Ã¡dnÃ¡":2425,"Ġhlavy":2426,"ĠOstrava":2427,"Å¾it":2428,"Ġvoleb":2429,"Ġex":2430,"ckÃ½mi":2431,"nÅ¯":2432,"ĠzaÄįalo":2433,"ĠprÃ¡vnÃŃ":2434,"Ġfondu":2435,"rny":2436,"ĠhasiÄįÅ¯":2437,"PÅĻitom":2438,"Ġtelevizi":2439,"ĠpokraÄįuje":2440,"ĠnÃ¡zev":2441,"ĠdveÅĻe":2442,"ÄįnÃ¡":2443,"ĠÄĮechÃ¡ch":2444,"ĠdÃ¡vÃ¡":2445,"hne":2446,"Ġobchodu":2447,"mÃ©":2448,"ari":2449,"ĠmluvÃŃ":2450,"ĠvyhrÃ¡t":2451,"Ġjednat":2452,"Ġhudby":2453,"Ġtohle":2454,"ĠmuÅ¾stva":2455,"ĠÄįekajÃŃ":2456,"slav":2457,"ĠvelkÃ½m":2458,"Ġ2001":2459,"TA":2460,"Ġvznikla":2461,"ĠstÃ¡tÅ¯":2462,"PÅĻestoÅ¾e":2463,"ĠSch":2464,"Ġdopoledne":2465,"ĠmuÅ¾stvo":2466,"lovÃ©":2467,"dat":2468,"ovky":2469,"ĠCa":2470,"NejvÄĽtÅ¡ÃŃ":2471,"ĠPÅĻed":2472,"ĠzemÅĻel":2473,"ĠvidÃŃ":2474,"teli":2475,"ÅĪujÃŃ":2476,"ĠmladÃ½ch":2477,"ÄįenÃ©":2478,"ĠRoz":2479,"Ġkra":2480,"ĠnachÃ¡zÃŃ":2481,"ron":2482,"Ġrekonstrukce":2483,"ĠpÅĻedstavit":2484,"ĠznaÄįky":2485,"ĠvidÄĽl":2486,"CE":2487,"ĠX":2488,"ĠkaÅ¾dou":2489,"res":2490,"ĠtÅĻetÃŃm":2491,"Ġagentury":2492,"ĠmÃ©":2493,"ĠkrajskÃ©ho":2494,"ĠradnÃŃ":2495,"Å¾ili":2496,"ĠHradec":2497,"tÃ½":2498,"covÃ¡":2499,"ct":2500,"ĠzimnÃŃ":2501,"ÄįÅ¯":2502,"Ho":2503,"ĠpÅĻiznal":2504,"ĠteleviznÃŃ":2505,"ÅĻÃ¡":2506,"dala":2507,"ĠdalÅ¡ÃŃmi":2508,"emi":2509,"ĠneustÃ¡le":2510,"ĠchovÃ¡nÃŃ":2511,"Ġoprav":2512,"ĠnÃ¡vÅ¡tÄĽvnÃŃci":2513,"ĠMarek":2514,"ĠBudÄĽjovice":2515,"ĠkonkrÃ©tnÃŃ":2516,"Ġcestou":2517,"ĠminulÃ½ch":2518,"ĠpoÄįÃŃtÃ¡":2519,"ĠskuteÄįnosti":2520,"zenÃ©":2521,"Ġnim":2522,"ĠkrÃ¡":2523,"Ġ45":2524,"ovic":2525,"ĠvÃ½roby":2526,"ĠpÅĻÃŃleÅ¾itost":2527,"sch":2528,"VÃŃce":2529,"ovicÃŃch":2530,"ĠzmÄĽnÄĽ":2531,"Ġspoustu":2532,"telÃ©":2533,"ĠzÃ¡jmu":2534,"ĠevropskÃ©":2535,"ĠotÃ¡zka":2536,"Ġalkoholu":2537,"ĠNÃ¡":2538,"ĠstaÄįÃŃ":2539,"ĠÅ¡kolstvÃŃ":2540,"ĠhrajÃŃ":2541,"ĠdenÃŃku":2542,"Ġpolicii":2543,"Ġhistorie":2544,"MÃ¡m":2545,"ĠvyuÅ¾itÃŃ":2546,"Äįin":2547,"Ġbe":2548,"Ġtr":2549,"ĠNej":2550,"ĠtakovÃ©ho":2551,"ĠletnÃŃ":2552,"Ġpoloviny":2553,"Ma":2554,"Ġkrize":2555,"Ġdra":2556,"ĠÄįinu":2557,"ĠstrÃ¡nkÃ¡ch":2558,"cku":2559,"dle":2560,"ĠTu":2561,"ĠvedenÃŃm":2562,"VÅ¡ichni":2563,"Ġnechat":2564,"ĠPrÃ¡vu":2565,"Å¡ovÃ¡":2566,"AL":2567,"Ġplay":2568,"ĠdokÃ¡Å¾e":2569,"Å®":2570,"ĠvÃ½znam":2571,"ĠDNES":2572,"Ġ300":2573,"Ġbi":2574,"ĠpÅĻÃŃleÅ¾itosti":2575,"Ġnese":2576,"Li":2577,"ĠjakÃ½":2578,"ĠzÃŃskali":2579,"Ġsmysl":2580,"Ġ2011":2581,"lenÃ©":2582,"ĠmÃ©ho":2583,"kt":2584,"Ġlidmi":2585,"Ġkol":2586,"ore":2587,"ĠvyhrÃ¡li":2588,"luje":2589,"sel":2590,"Ġosoby":2591,"Ġdob":2592,"nul":2593,"ĠsrovnÃ¡nÃŃ":2594,"Ġhranici":2595,"Ġexpozice":2596,"ĠzÃ¡pasech":2597,"Ġtrati":2598,"ĠZeman":2599,"Å¾en":2600,"ĠchtÄĽla":2601,"ven":2602,"ĠSu":2603,"ĠstejnÃ½":2604,"ori":2605,"Ġrozhodla":2606,"ard":2607,"nily":2608,"zujÃŃ":2609,"Ġpolo":2610,"Ġsrdce":2611,"ĠTi":2612,"SK":2613,"Ġpozornost":2614,"ĠosobnÄĽ":2615,"Å¡ÃŃm":2616,"ĠvÃ¡Å¾nÄĽ":2617,"ĠpatnÃ¡cti":2618,"Ġ&":2619,"ĠnÃ¡slednÄĽ":2620,"ĠhlavnÃŃho":2621,"ity":2622,"11":2623,"ĠJo":2624,"Asi":2625,"Ġjinde":2626,"dÃ¡nÃŃ":2627,"Ch":2628,"Ġskupin":2629,"Ġtelefon":2630,"ĠdokÃ¡zal":2631,"ĠsmÄĽru":2632,"ĠvÃ½bÄĽr":2633,"ĠzdÃ¡":2634,"Ġdoslova":2635,"lÅ¯":2636,"nie":2637,"enou":2638,"ĠTe":2639,"pou":2640,"Ġcelek":2641,"Ġme":2642,"ĠdesÃŃtek":2643,"ĠsÃ¡":2644,"Ġfunguje":2645,"eme":2646,"ĠzÃ¡kladnÃŃch":2647,"ĠFi":2648,"ĠvÃŃtÄĽz":2649,"ĠÃºstavu":2650,"ĠvidÄĽnÃŃ":2651,"Ġkli":2652,"ĠTak":2653,"OU":2654,"Ã©r":2655,"Ġnoc":2656,"Äįko":2657,"ĠnovÃ½m":2658,"ost":2659,"ĠspojenÃŃ":2660,"TÅĻi":2661,"ĠmalÃ½":2662,"ĠNi":2663,"Ġkategorie":2664,"Ġrekonstrukci":2665,"rka":2666,"ĠpotÅĻebuje":2667,"znÃŃ":2668,"ĠDa":2669,"Ġnev":2670,"Ġsamo":2671,"aru":2672,"smu":2673,"un":2674,"dÄĽnÃŃ":2675,"12":2676,"Ġoni":2677,"ĠsprÃ¡vy":2678,"Ġsvoje":2679,"PolicistÃ©":2680,"ĠnemÃ¡m":2681,"novÃ©":2682,"rali":2683,"Ġparlamentu":2684,"ĠnesmÃŃ":2685,"ĠTy":2686,"Ġkonstatoval":2687,"In":2688,"ĠÄįem":2689,"Ġvozu":2690,"ĠzmÄĽnit":2691,"ĠmÃŃnÃŃ":2692,"hli":2693,"ĠobyvatelÃ©":2694,"ĠsnÄĽhu":2695,"Ġvozidla":2696,"ĠvÃ¡noÄįnÃŃ":2697,"Ġona":2698,"Ġmnou":2699,"Ġ500":2700,"Ġpoli":2701,"Kdyby":2702,"ĠstÅĻe":2703,"ĠdivadelnÃŃ":2704,"Ġnebyly":2705,"ĠÅĻidiÄįe":2706,"ĠKarla":2707,"ĠMS":2708,"ĠsnÃŃÅ¾enÃŃ":2709,"nÃŃmi":2710,"Ġdodnes":2711,"ĠÅĻidiÄįi":2712,"ĠdÅ¯vodu":2713,"Ġci":2714,"Ġstrach":2715,"ĠMy":2716,"ĠHor":2717,"Jan":2718,"ÄįnÃ½":2719,"Ġhu":2720,"ĠzajÃŃmavÃ©":2721,"ĠdanÄĽ":2722,"ĠspoluprÃ¡ce":2723,"pit":2724,"Ġos":2725,"EM":2726,"ĠotÃ¡zky":2727,"ĠvÃ½robu":2728,"Ġdoba":2729,"ĠLiberec":2730,"KvÅ¯li":2731,"ĠvÄĽÅĻÃŃ":2732,"ĠprÅ¯myslu":2733,"Ġkomunikace":2734,"ĠudÄĽlal":2735,"ĠHra":2736,"PlzeÅĪ":2737,"Ġnemohou":2738,"ĠZe":2739,"les":2740,"ĠnÃ¡zoru":2741,"ĠzÃ¡vÄĽr":2742,"KY":2743,"Ġsuper":2744,"ĠobjevÃŃ":2745,"Ġsk":2746,"vky":2747,"rÃ¡nÃŃ":2748,"Ġderby":2749,"Ġsen":2750,"zo":2751,"tal":2752,"ĠnabÃŃdku":2753,"ĠprÃ¡v":2754,"ence":2755,"ĠprostÅĻedkÅ¯":2756,"Ġ2012":2757,"ĠmistrÅ¯":2758,"ĠnÃ¡mÄĽstek":2759,"ĠNHL":2760,"ĠpodÃŃvat":2761,"TÅĻeba":2762,"rovi":2763,"ĠplnÄĽ":2764,"Ġvod":2765,"ĠÅ¾":2766,"Å¡ku":2767,"ĠdevÃŃti":2768,"SamozÅĻejmÄĽ":2769,"ĠÅĻeditelka":2770,"ĠpÅĻipomÃŃnÃ¡":2771,"ĠJosefa":2772,"Ġkdysi":2773,"ĠmÃŃstnÃŃch":2774,"ten":2775,"ĠtÃ½dnu":2776,"tice":2777,"Ġdohromady":2778,"ĠpÅĻÃŃpadÅ¯":2779,"Ġdobrou":2780,"Ġvodu":2781,"Ġpodnik":2782,"nÃŃky":2783,"ĠstÃ¡ty":2784,"nickÃ½":2785,"NÄĽkteÅĻÃŃ":2786,"ĠpÅĻeboru":2787,"Ġoproti":2788,"No":2789,"ĠpÃ©Äįi":2790,"ale":2791,"ĠjmÃ©na":2792,"Ġ1998":2793,"VÅ¡echny":2794,"Ġrodina":2795,"Ġinvestice":2796,"ĠvlÃ¡dnÃŃ":2797,"ĠNÄĽmecka":2798,"telnÃ½":2799,"ĠLadislav":2800,"LO":2801,"nskÃ½":2802,"novÃ¡":2803,"ĠpostavenÃŃ":2804,"her":2805,"nÄĽnÃ©":2806,"ĠtÄĽm":2807,"VÄĽtÅ¡ina":2808,"Ġsy":2809,"ĠpÅĻednost":2810,"Ã¡lnÃŃho":2811,"Ġ36":2812,"kovÃ½m":2813,"ĠTr":2814,"ĠlÃ©kaÅĻ":2815,"ĠjinÃ¡":2816,"ĠTJ":2817,"ĠsoutÄĽÅ¾ÃŃ":2818,"ĠpodÃ¡nÃŃ":2819,"Ġmodel":2820,"ĠbydlenÃŃ":2821,"Ġvzniku":2822,"Dva":2823,"pr":2824,"Ġper":2825,"Ġjmen":2826,"Ġdostanou":2827,"ĠlÃ¡":2828,"Ġpodotkl":2829,"ĠdivÃ¡ci":2830,"ĠzÅ¯stal":2831,"ĠzaÄįaly":2832,"ĠvÅ¡eho":2833,"VÃ½stava":2834,"ĠpÅĻÃŃÅ¡tÃŃm":2835,"klo":2836,"ĠtÄĽla":2837,"Ġruku":2838,"ĠpolicistÅ¯":2839,"Ġkom":2840,"ĠÅ¾Ã¡ci":2841,"ÅĻen":2842,"ĠPO":2843,"ĠBor":2844,"ĠSi":2845,"ĠpodmÃŃnek":2846,"ĠÄĮT":2847,"ĠnÄĽkoho":2848,"stka":2849,"Ġmluvit":2850,"Ġtou":2851,"ene":2852,"Ġjakou":2853,"Ġposlal":2854,"ĠmÄĽnÃŃ":2855,"NovÃ½":2856,"dÃŃm":2857,"ĠBer":2858,"Ġpolovinu":2859,"ĠzaplatÃŃ":2860,"ĠnemÄĽla":2861,"IT":2862,"ĠStanislav":2863,"Ġvnitra":2864,"ĠÅ¡ancÃŃ":2865,"Ġ33":2866,"Ġnajdete":2867,"ĠvÅ¡ude":2868,"ĠsoupeÅĻi":2869,"ĠvystoupÃŃ":2870,"ĠzÃŃskÃ¡":2871,"ĠnaÅ¡el":2872,"sen":2873,"ĠnicmÃ©nÄĽ":2874,"ĠSou":2875,"De":2876,"Ã¡k":2877,"ĠJakub":2878,"kon":2879,"sla":2880,"ĠledÄĽ":2881,"ĠcelkovÃ©":2882,"ĠnÃ¡skok":2883,"DÄĽti":2884,"ĠakciÃŃ":2885,"Ġobjektu":2886,"ĠaspoÅĪ":2887,"Ġlist":2888,"lila":2889,"Ġpostupu":2890,"ĠvybavenÃŃ":2891,"ud":2892,"ĠcÃŃl":2893,"ĠLukÃ¡Å¡":2894,"fe":2895,"Äįem":2896,"Ġml":2897,"ĠzahraniÄįnÃŃch":2898,"ĠÅĻad":2899,"ĠskuteÄįnost":2900,"ĠÃºroveÅĪ":2901,"ĠvracÃŃ":2902,"tnÄĽ":2903,"ĠloÅĪskÃ©m":2904,"ĠsouÄįasnÄĽ":2905,"Ã¡lnÄĽ":2906,"ĠpÅĻipravuje":2907,"Policie":2908,"rovÃ¡":2909,"Ġvr":2910,"ĠtÄĽlo":2911,"pla":2912,"ĠzprÃ¡va":2913,"nÃ¡ch":2914,"ĠnejdÅĻÃŃve":2915,"ÄĮeskÃ¡":2916,"ĠÅĻÃŃkal":2917,"Nebo":2918,"dÃ¡m":2919,"ĠsÃ©rie":2920,"Ano":2921,"Ġreprezentace":2922,"ĠJsem":2923,"ĠPav":2924,"ĠmladÃ©":2925,"ĠMF":2926,"Ġpopsal":2927,"kali":2928,"ĠNovÃ©":2929,"ĠmladÃŃ":2930,"han":2931,"MÃŃsto":2932,"ovka":2933,"lÃ½ch":2934,"ĠzemÄĽdÄĽlstvÃŃ":2935,"ane":2936,"ÄįÃŃk":2937,"ĠvÃ½kony":2938,"Ġoboru":2939,"ĠzasedÃ¡nÃŃ":2940,"ĠbÃ½valÃ©":2941,"Kon":2942,"Ġkr":2943,"ĠpÅĻedem":2944,"Ġmar":2945,"ĠtÅĻÃŃdÄĽ":2946,"ĠodmÃŃtl":2947,"ĠÅ¡ampionÃ¡tu":2948,"ĠvÃŃm":2949,"raz":2950,"ag":2951,"ĠÅ¡kodu":2952,"Ġw":2953,"Ġ1999":2954,"ĠdomÃ¡cÃŃho":2955,"letÃ©":2956,"ĠvÅ¯z":2957,"Ġsnadno":2958,"hat":2959,"ĠpovaÅ¾uje":2960,"Ġchci":2961,"MA":2962,"ZÃ¡roveÅĪ":2963,"ĠSokol":2964,"uji":2965,"Ã¡lnÃŃch":2966,"ÅĻenÃ©":2967,"ĠÄįe":2968,"ino":2969,"ĠzdrojÅ¯":2970,"lice":2971,"ĠkapitÃ¡n":2972,"Ġvedl":2973,"Ġsport":2974,"ĠtrvÃ¡":2975,"ĠmlÃ¡deÅ¾e":2976,"ĠzÅ¯stane":2977,"ĠchuÅ¥":2978,"ĠskÃ³re":2979,"ment":2980,"Ġlednu":2981,"Ġsp":2982,"ĠhnutÃŃ":2983,"45":2984,"ĠreÅ¾isÃ©r":2985,"Ġpozice":2986,"nat":2987,"Ġky":2988,"snÄĽ":2989,"Ġexistuje":2990,"Ġ1989":2991,"ger":2992,"ĠPan":2993,"zaci":2994,"ĠzpÃ¡tky":2995,"Ġoblast":2996,"ĠpremiÃ©ra":2997,"ic":2998,"ĠjedinÃ©":2999,"ĠsemifinÃ¡le":3000,"ĠdÃ¡vno":3001,"Ġpovo":3002,"ĠpoÅĻÃ¡dnÄĽ":3003,"Ġzajistit":3004,"ĠkterÃ½mi":3005,"Ġmotor":3006,"Proti":3007,"ĠtÃ©Å¾":3008,"Ġpost":3009,"Ġjsi":3010,"pil":3011,"telnÃ¡":3012,"ĠvytvoÅĻit":3013,"Ġhr":3014,"ĠzamÄĽstnÃ¡nÃŃ":3015,"Ġvodou":3016,"Ġjezdit":3017,"ĠtÄĽÅ¡ÃŃ":3018,"Ġupozornil":3019,"Ġdle":3020,"ĠvÄĽdÄĽt":3021,"ĠstÃ¡l":3022,"ĠponÄĽkud":3023,"ĠOlomouci":3024,"Ġhodnoty":3025,"lep":3026,"ĠstÃ¡tnÃŃho":3027,"Ġva":3028,"Ġtlak":3029,"Tu":3030,"koli":3031,"NÄĽkterÃ©":3032,"Ġdojde":3033,"Mo":3034,"pis":3035,"TE":3036,"MÄĽl":3037,"Ġrestaurace":3038,"ĠdolÅ¯":3039,"ĠcÃŃle":3040,"ĠsklÃ¡":3041,"Ġzem":3042,"Ġpopisuje":3043,"Aby":3044,"Ġoff":3045,"Ġven":3046,"Ġosud":3047,"Ġan":3048,"Ġsportu":3049,"Ġgenerace":3050,"ĠdÅĻÃŃv":3051,"ĠÄįekat":3052,"Ġanebo":3053,"Ke":3054,"ĠhodnocenÃŃ":3055,"met":3056,"ĠÅ¾enu":3057,"ĠmalÃ½ch":3058,"ĠmÄĽsÃŃcÃŃch":3059,"koval":3060,"ĠEva":3061,"ss":3062,"Ġpravdu":3063,"ĠcentimetrÅ¯":3064,"ĠtÃ½mÅ¯":3065,"ĠÄįÃ¡stÃŃ":3066,"stav":3067,"ĠvÃ½sledkÅ¯":3068,"Ġ1997":3069,"ĠchtÃŃt":3070,"Ġ34":3071,"nÃŃkÅ¯":3072,"enÃŃ":3073,"Äįilo":3074,"Ġstavbu":3075,"Ġinformoval":3076,"ĠLN":3077,"ĠvolebnÃŃ":3078,"pen":3079,"Ġanti":3080,"lili":3081,"dr":3082,"hem":3083,"ĠnepodaÅĻilo":3084,"Bo":3085,"ĠpoloÄįase":3086,"Ġsvobody":3087,"ĠumÃŃstÄĽnÃŃ":3088,"ĠprÅ¯mÄĽru":3089,"ĠznÃ¡mÃ©":3090,"ĠPodle":3091,"ĠpÅĻÃŃpravy":3092,"ĠkancelÃ¡ÅĻe":3093,"ĠstudentÅ¯":3094,"ary":3095,"Ã¡lnÃŃm":3096,"ĠdobrÃ¡":3097,"ĠseriÃ¡lu":3098,"ĠpÅĻÃŃrody":3099,"os":3100,"ĠsvÄĽ":3101,"VÄĽ":3102,"pÅ¯":3103,"ĠslouÅ¾ÃŃ":3104,"Ġsoubor":3105,"ĠnÃ¡vrhu":3106,"Ġdomy":3107,"Ġkoupit":3108,"dÄĽla":3109,"ĠjedenÃ¡ct":3110,"rav":3111,"Ġkapely":3112,"str":3113,"Ġstudenti":3114,"lec":3115,"ĠskonÄįÃŃ":3116,"ĠrozhodÄįÃŃ":3117,"Tyto":3118,"ĠtÃ½kÃ¡":3119,"Äįily":3120,"Ġhale":3121,"ĠÅ¡kolnÃŃ":3122,"ĠdÄĽje":3123,"ĠgenerÃ¡lnÃŃ":3124,"nickÃ©ho":3125,"ĠÅłkoda":3126,"ĠhlasÅ¯":3127,"ÄįÃŃm":3128,"ig":3129,"Ġrychlost":3130,"anÃ½ch":3131,"Ġdivadle":3132,"ĠdokÃ¡zali":3133,"ĠÅ¡e":3134,"kala":3135,"ĠhÃ¡":3136,"ĠhorÅ¡ÃŃ":3137,"Ġprodeje":3138,"dÅ¯":3139,"ĠKou":3140,"mem":3141,"ĠÅĺe":3142,"ĠNÃ¡rodnÃŃ":3143,"ĠjistÃ©":3144,"ĠnÄĽmeckÃ©":3145,"Ġboji":3146,"Ġvztahy":3147,"ĠpovolenÃŃ":3148,"ĠtÄĽÅ¡it":3149,"Ġfor":3150,"Ġdala":3151,"ĠgÃ³lman":3152,"zenÃ½":3153,"Å¡en":3154,"ĠpÅĻevÃ¡Å¾nÄĽ":3155,"ĠHradci":3156,"ĠumoÅ¾ÅĪuje":3157,"Ġliga":3158,"ĠjarnÃŃ":3159,"ĠtÃ½dnÅ¯":3160,"ĠnejvÄĽtÅ¡ÃŃm":3161,"Ġ1996":3162,"Ġbanka":3163,"Ġhledat":3164,"Ġobchod":3165,"ĠdlouhodobÄĽ":3166,"ĠSparty":3167,"Å¡a":3168,"Ġrole":3169,"Ġpivo":3170,"ĠÄĮTK":3171,"ĠmusejÃŃ":3172,"Ġkry":3173,"ĠÄĮeskÃ½":3174,"JiÅ¾":3175,"smus":3176,"ĠRad":3177,"Å¡it":3178,"ĠpouÅ¾ÃŃvÃ¡":3179,"bil":3180,"ĠsÃ©rii":3181,"ĠPrvnÃŃ":3182,"ĠvlÃ¡dÄĽ":3183,"MuÅ¾":3184,"Ġnohy":3185,"ĠchvÃŃle":3186,"ĠdÃŃlo":3187,"Ġdvoj":3188,"ĠÄįÃ¡stku":3189,"ĠÃºÅĻady":3190,"ĠpÅĻÃŃpadu":3191,"SA":3192,"gen":3193,"lnÃŃ":3194,"Ġreali":3195,"ĠstÄĽ":3196,"stnÃŃ":3197,"ĠbezpeÄįnostnÃŃ":3198,"HlavnÃŃ":3199,"Äįen":3200,"ĠtermÃŃn":3201,"tÃŃm":3202,"ĠzÃ¡jemci":3203,"ist":3204,"kovat":3205,"ovanÃ½m":3206,"art":3207,"Ġpora":3208,"ĠPlznÄĽ":3209,"kynÄĽ":3210,"ĠOlomouc":3211,"Äļ":3212,"ĠsÃŃÅ¥":3213,"lie":3214,"ĠSE":3215,"Brno":3216,"ON":3217,"ĠbyÅ¥":3218,"UrÄįitÄĽ":3219,"ĠdruhÃ½m":3220,"ĠavÅ¡ak":3221,"ĠhodlÃ¡":3222,"lka":3223,"inÃ¡":3224,"ĠÄįtyÅĻicet":3225,"ĠVary":3226,"rie":3227,"alu":3228,"Ġrada":3229,"ĠtÅĻiceti":3230,"ĠbrankÃ¡ÅĻe":3231,"ĠfotografiÃŃ":3232,"ĠSvoboda":3233,"dilo":3234,"Ġvstupu":3235,"Ġklidu":3236,"Ġtakhle":3237,"ĠnebezpeÄįÃŃ":3238,"ĠjednoduchÃ©":3239,"ĠpotÃŃÅ¾e":3240,"ĠvrÃ¡tÃŃ":3241,"NE":3242,"ĠpÅĻijdou":3243,"ĠMÃ¡":3244,"ĠtradiÄįnÄĽ":3245,"ĠzamÄĽstnanci":3246,"vr":3247,"ĠzÃ¡vody":3248,"ĠaniÅ¾":3249,"ĠnaÅ¡li":3250,"ĠsmÄĽ":3251,"ĠnÄĽhoÅ¾":3252,"sovÃ¡":3253,"ĠvhodnÃ©":3254,"Äįan":3255,"ĠKar":3256,"Ġx":3257,"Ã©mu":3258,"ĠpÃŃÅ¡e":3259,"ĠpÅĻestoÅ¾e":3260,"Ġnaposledy":3261,"tickÃ½":3262,"ĠhostÅ¯":3263,"krÃ¡t":3264,"ĠfirmÄĽ":3265,"bra":3266,"Ġtabulce":3267,"ĠnedÄĽle":3268,"ĠÄĮer":3269,"cu":3270,"ĠjednoznaÄįnÄĽ":3271,"Ġsbor":3272,"hi":3273,"Ġproces":3274,"enÃ©ho":3275,"ĠpotÅĻeby":3276,"hnout":3277,"ĠnovÃ©m":3278,"Ġ400":3279,"Ġklid":3280,"Ġshow":3281,"kÃ¡nÃŃ":3282,"dli":3283,"Äįkem":3284,"Ġadresu":3285,"ĠpodaÅĻÃŃ":3286,"Ġpana":3287,"ĠurÄįitÃ©":3288,"ĠnÃ¡vÅ¡tÄĽvnÃŃky":3289,"ĠzaÄįÃ¡tkem":3290,"ÅĪovat":3291,"ĠMoravÄĽ":3292,"Ġbranek":3293,"ovskÃ½":3294,"ĠvÃ½stavu":3295,"ĠvÃ¡lce":3296,"OR":3297,"Ġvzal":3298,"ĠByl":3299,"ance":3300,"HostÃ©":3301,"Ġtomuto":3302,"ĠPardubice":3303,"ĠGa":3304,"Ġnikoli":3305,"Ġzaplatit":3306,"ĠmÄĽstem":3307,"Ġsilnic":3308,"ĠÄįtrnÃ¡ct":3309,"Ġmilion":3310,"lovat":3311,"Snad":3312,"ĠNATO":3313,"Ġukazuje":3314,"Å¾nÃ©":3315,"Ġvozidel":3316,"Ġmatka":3317,"ĠvyÅ¡etÅĻovÃ¡nÃŃ":3318,"ĠzastupitelÃ©":3319,"ĠÄįÃ¡steÄįnÄĽ":3320,"Ġprojekty":3321,"Ġvenku":3322,"ĠstÃ¡vÃ¡":3323,"Ġobsahuje":3324,"ĠSparta":3325,"16":3326,"BohuÅ¾el":3327,"Å¡ov":3328,"ĠPer":3329,"ĠÂ»":3330,"ĠtÅĻikrÃ¡t":3331,"ĠamerickÃ½":3332,"Ġrozhodne":3333,"ĠnechtÄĽl":3334,"ĠzimÄĽ":3335,"ĠOndÅĻej":3336,"EC":3337,"vajÃŃcÃŃ":3338,"ĠFrancie":3339,"Ġobjevil":3340,"Ro":3341,"nictvÃŃ":3342,"Ġfa":3343,"Ġpravidla":3344,"nickÃ¡":3345,"ĠzÅ¯stat":3346,"VÄįera":3347,"ĠvzpomÃŃnÃ¡":3348,"Ġsyna":3349,"ĠÅ¡patnÃ©":3350,"Ġ38":3351,"Ã¡ch":3352,"ĠÅ¾ÃŃt":3353,"ĠjednotlivÃ©":3354,"OvÅ¡em":3355,"Ġpostavit":3356,"vil":3357,"NÃģ":3358,"Ġzas":3359,"ĠPla":3360,"Ġobavy":3361,"Ġkla":3362,"ĠvychÃ¡zÃŃ":3363,"Jinak":3364,"MÃ¡me":3365,"Ġneob":3366,"Ġha":3367,"ĠvozÅ¯":3368,"ĠÄįeskou":3369,"Ġspo":3370,"Ġdat":3371,"ĠkrajskÃ©":3372,"ĠbudoucÃŃ":3373,"tovÃ¡":3374,"ĠÄįtvrt":3375,"Ġradnici":3376,"ĠZlÃŃn":3377,"ĠÄįervnu":3378,"ĠzÃ¡kaz":3379,"Ġnedaleko":3380,"mat":3381,"25":3382,"Ġvznikl":3383,"VÅ¾dyÅ¥":3384,"Ġpre":3385,"Ġodpad":3386,"Ġohledu":3387,"van":3388,"pem":3389,"Ġvysokou":3390,"ĠmaximÃ¡lnÄĽ":3391,"Ġrozhovoru":3392,"ÅĪovÃ¡nÃŃ":3393,"ĠpÅ¯sobil":3394,"ĠdivÃ¡ky":3395,"Ġboje":3396,"Vzhledem":3397,"ĠtÃ½mem":3398,"stÅĻe":3399,"Ġpokus":3400,"ĠdÃŃl":3401,"ĠnemÃ¡me":3402,"Ġ55":3403,"rob":3404,"ĠjenÅ¾e":3405,"ĠuvnitÅĻ":3406,"Ġokna":3407,"ĠhlavnÃŃch":3408,"ĠnejlepÅ¡ÃŃch":3409,"ĠomezenÃŃ":3410,"vek":3411,"ĠodbornÃŃkÅ¯":3412,"ĠvÃ½robce":3413,"Ku":3414,"ĠhodinÄĽ":3415,"ĠprohlÃ¡Å¡enÃŃ":3416,"vnÄĽ":3417,"ĠpÅĻÃŃpravÄĽ":3418,"Ġpraxi":3419,"ĠveÅĻejnÃ½ch":3420,"ĠjejÃŃch":3421,"Ġpoz":3422,"TO":3423,"Ġ2013":3424,"ĠdruÅ¾stva":3425,"ĠÅ¡kody":3426,"IS":3427,"ĠÄįleny":3428,"Ġdopravu":3429,"13":3430,"lovÃ½":3431,"Ġzvo":3432,"ĠpouÅ¾ÃŃt":3433,"Ġochranu":3434,"ĠpadesÃ¡ti":3435,"ĠideÃ¡lnÃŃ":3436,"Ġvztahu":3437,"ĠnÃ¡vrat":3438,"ĠRadek":3439,"ĠnÃ¡vratu":3440,"ĠNovÃ½":3441,"Ġ37":3442,"ĠvÃ½bÄĽru":3443,"ĠnÃ¡kladÅ¯":3444,"VÅ¡e":3445,"ĠpohÃ¡r":3446,"Ġspousta":3447,"Ġjedinou":3448,"Ġstarosti":3449,"ĠdvanÃ¡cti":3450,"ĠmalÃ¡":3451,"ĠÄįlenem":3452,"ĠÅ¡la":3453,"chov":3454,"Ġinter":3455,"PÅĻes":3456,"ĠHC":3457,"Ġcest":3458,"kan":3459,"Ġple":3460,"ĠpovÄĽ":3461,"cov":3462,"Ġpohyb":3463,"lovi":3464,"ĠLiberci":3465,"dka":3466,"Ġturnaji":3467,"ĠzahÃ¡jenÃŃ":3468,"ĠmiliÃ³nu":3469,"stup":3470,"Ġjinou":3471,"14":3472,"ini":3473,"ĠSta":3474,"ĠvÄĽnovat":3475,"ĠNovÃ¡k":3476,"Ġzlo":3477,"dra":3478,"ĠpodruhÃ©":3479,"Ġchodit":3480,"ĠOr":3481,"leÄį":3482,"ĠY":3483,"ĠpouÅ¾itÃŃ":3484,"ĠÅ½i":3485,"Ġsmyslu":3486,"Ġvydal":3487,"ĠpracovnÃŃch":3488,"ovce":3489,"nÃ¡m":3490,"ĠdosavadnÃŃ":3491,"ĠÅĻeky":3492,"Ġduelu":3493,"Ba":3494,"ĠprimÃ¡tor":3495,"nech":3496,"ĠSan":3497,"ĠonemocnÄĽnÃŃ":3498,"Ġaktivity":3499,"tickÃ¡":3500,"Ġmajetek":3501,"pad":3502,"ĠjinÃ½m":3503,"JiÅĻÃŃ":3504,"ĠzdejÅ¡ÃŃ":3505,"sl":3506,"ĠkvÄĽtnu":3507,"Ġprostory":3508,"HO":3509,"ĠSlavie":3510,"Ġlehce":3511,"chovÃ¡":3512,"ĠDob":3513,"ĠrÅ¯stu":3514,"lovou":3515,"ĠMoravy":3516,"ÄįenÃŃm":3517,"ĠjmÃ©nem":3518,"Ġchod":3519,"18":3520,"Ġmuzeum":3521,"ĠBoleslav":3522,"ĠslyÅ¡et":3523,"ĠpÅĻichÃ¡zÃŃ":3524,"ĠdopÅĻedu":3525,"ĠnejspÃŃÅ¡":3526,"ĠMal":3527,"ĠHer":3528,"Petr":3529,"ĠÅ¡Ã©fa":3530,"Ġopravy":3531,"zoval":3532,"hov":3533,"race":3534,"ĠpÅĻedstav":3535,"Ġcit":3536,"ĠspoleÄįnÃ©":3537,"ĠvnitÅĻnÃŃ":3538,"ĠtakovÃ½ch":3539,"Ġbojovat":3540,"ĠÃºspÄĽchu":3541,"ĠÅ¡edesÃ¡t":3542,"ÄįkÃ¡ch":3543,"ĠudÃ¡losti":3544,"ĠdveÅĻÃŃ":3545,"ĠstrÃ¡nky":3546,"pra":3547,"hod":3548,"ĠrodiÄįÅ¯":3549,"Ġstroj":3550,"min":3551,"Ġsledovat":3552,"Ġuniverzity":3553,"ĠhodnotÄĽ":3554,"ĠodeÅ¡el":3555,"Ġodkud":3556,"ĠBi":3557,"ĠstarÃ¡":3558,"ĠzlodÄĽj":3559,"ĠpÅ¯li":3560,"ĠnabÃŃdky":3561,"kr":3562,"ĠtechnickÃ©":3563,"nÃŃku":3564,"Ġtun":3565,"ĠÅ¡ÃŃ":3566,"Ġmedaili":3567,"ĠÄįtyÅĻech":3568,"Ġplynu":3569,"ĠfilmÅ¯":3570,"tuje":3571,"Ġplat":3572,"Ġrekord":3573,"ĠpÅ¯sobenÃŃ":3574,"ĠoznÃ¡mil":3575,"sle":3576,"Ġtechniky":3577,"TI":3578,"Ã¡d":3579,"ĠBla":3580,"letou":3581,"Å¾uje":3582,"ĠchybÄĽt":3583,"ĠnaÅ¡tÄĽstÃŃ":3584,"ĠzpÅ¯sobil":3585,"ĠJaroslava":3586,"Ġce":3587,"40":3588,"ÄĮeskÃ©":3589,"Å¡enÃ©":3590,"ĠvÄįas":3591,"zel":3592,"ÅĻilo":3593,"ĠdÄĽl":3594,"Ġkostela":3595,"dÄĽt":3596,"ĠdochÃ¡zÃŃ":3597,"ĠStra":3598,"ff":3599,"ster":3600,"Ġstylu":3601,"ĠGu":3602,"mer":3603,"Ġbudoucnu":3604,"ĠnechÃ¡":3605,"ĠnÃ¡pad":3606,"Ġbudoucnosti":3607,"17":3608,"Ġtyp":3609,"ĠZÅł":3610,"NovÃ©":3611,"Å¾ilo":3612,"ĠuprostÅĻed":3613,"ĠtaneÄįnÃŃ":3614,"ĠrozÅ¡ÃŃÅĻenÃŃ":3615,"ĠsnaÅ¾il":3616,"ĠÅ¡kod":3617,"Ġstarosty":3618,"ĠzÃ¡sadnÃŃ":3619,"ĠhovoÅĻÃŃ":3620,"land":3621,"kuje":3622,"ĠnejvÄĽtÅ¡ÃŃch":3623,"dnÄĽ":3624,"ĠSto":3625,"ĠprospÄĽch":3626,"ĠnÃ¡vÅ¡tÄĽvnÃŃkÅ¯":3627,"Ġpovinnost":3628,"ÅĻskÃ½ch":3629,"ĠzvÃŃÅĻat":3630,"Ġvzduchu":3631,"ĠocenÄĽnÃŃ":3632,"Ġpracoval":3633,"Ġpop":3634,"ĠekonomickÃ©":3635,"ĠBra":3636,"ĠhostÃŃ":3637,"stem":3638,"hr":3639,"ÅĻÃŃk":3640,"ĠmÄĽstskÃ©ho":3641,"ĠpÅĻekvapenÃŃ":3642,"Ġbyty":3643,"Ġspoj":3644,"ĠzaÄįÃŃnajÃŃ":3645,"ĠvÃ½robky":3646,"ĠÃºdaje":3647,"ĠÃºÄįasti":3648,"ĠpÅĻÃ¡nÃŃ":3649,"ĠMÄĽsto":3650,"ĠÅĻeÅ¡ÃŃ":3651,"Ġmedaile":3652,"ĠKe":3653,"Ġsmrt":3654,"ĠmÃŃstnosti":3655,"Ġprodukce":3656,"vanÃ©":3657,"ĠCe":3658,"ĠSlovensku":3659,"Ġ1995":3660,"rky":3661,"ĠodmÃŃtÃ¡":3662,"ĠdruhÅ¯":3663,"Ġzak":3664,"ĠpracovnÃŃci":3665,"Ġrepublika":3666,"ĠreÅ¾imu":3667,"ĠÃºkol":3668,"ĠzÃ¡padnÃŃ":3669,"chem":3670,"ĠareÃ¡l":3671,"ĠroÄįnÃŃ":3672,"hlÃ¡":3673,"ĠzpracovÃ¡nÃŃ":3674,"ÃĿ":3675,"ĠpÅĻÃ¡tel":3676,"KrÃ¡tce":3677,"Ġextraligy":3678,"ĠodpovÄĽÄı":3679,"ĠminulÃ©m":3680,"ĠzaÄįÃ¡tek":3681,"stÄĽ":3682,"ĠhledÃ¡":3683,"ES":3684,"Ġstra":3685,"ĠdosÃ¡hnout":3686,"Loni":3687,"ĠnormÃ¡lnÃŃ":3688,"ĠpÅĻÃŃpravu":3689,"ĠsmÃŃ":3690,"cenÃ©":3691,"ĠÅ¡tÄĽ":3692,"ĠneznÃ¡mÃ½":3693,"chal":3694,"Ġdvojice":3695,"Ġkapela":3696,"ĠposlednÃŃho":3697,"ĠmagistrÃ¡tu":3698,"VA":3699,"lnÄĽ":3700,"Ġnu":3701,"ĠdlouhÃ¡":3702,"ĠpodnikÃ¡nÃŃ":3703,"ĠvÃ½hru":3704,"ĠRi":3705,"ĠveÅĻejnÃ©ho":3706,"Ġfirmu":3707,"ĠvzÃŃt":3708,"ĠbezpeÄįnosti":3709,"Ġzjistili":3710,"and":3711,"mar":3712,"ĠÅ¾Ã¡dost":3713,"telem":3714,"Ġvybrat":3715,"ÄįenÃ½":3716,"znÄĽ":3717,"dÃ©":3718,"ĠnejlepÅ¡ÃŃm":3719,"Ġ00":3720,"Ġformou":3721,"ĠFrancii":3722,"ĠobÄįany":3723,"Ġverze":3724,"stal":3725,"Ġzdroje":3726,"xu":3727,"ÅĻskÃ¡":3728,"Ġdotaci":3729,"Jednou":3730,"Ġdalo":3731,"ĠnÃ¡rodnÃŃho":3732,"NovÃ¡":3733,"Ġtrefil":3734,"nal":3735,"kajÃŃ":3736,"ĠÄĮesko":3737,"ĠarmÃ¡dy":3738,"ĠpoÄįÃŃtat":3739,"Ġpat":3740,"pka":3741,"Hned":3742,"ĠnÃ¡zory":3743,"ĠcizÃŃ":3744,"ĠÄĮeÅ¡i":3745,"ĠfinanÄįnÃŃch":3746,"ĠjakÃ½m":3747,"DÃ¡le":3748,"ĠmoÅ¾no":3749,"Ġtra":3750,"OVÃģ":3751,"ĠpracovnÃŃkÅ¯":3752,"Ġnehody":3753,"Ġkoalice":3754,"ĠSpojenÃ½ch":3755,"Ġkop":3756,"klÃ¡":3757,"ingu":3758,"ĠmateriÃ¡l":3759,"Ġmajitele":3760,"ĠVÃŃ":3761,"ĠrozpoÄįet":3762,"jÅ¡ÃŃ":3763,"ĠprohrÃ¡li":3764,"enu":3765,"stickÃ½":3766,"Ġstartu":3767,"ĠHam":3768,"ĠzÃ¡sob":3769,"Ġbarvy":3770,"Ġpohybuje":3771,"Äįkami":3772,"ĠmÄĽstech":3773,"Ġpot":3774,"Ġdemokracie":3775,"Ġstudia":3776,"ÃŃch":3777,"ĠrodinÄĽ":3778,"Ġslu":3779,"DA":3780,"Ġodbor":3781,"ĠaktivnÃŃ":3782,"ĠVÄĽ":3783,"ĠpodezÅĻenÃŃ":3784,"dech":3785,"dce":3786,"ĠÄĮEZ":3787,"ĠNE":3788,"Ġal":3789,"ĠÅĻÃ¡d":3790,"ĠtamnÃŃ":3791,"ĠZÃ¡kladnÃŃ":3792,"kne":3793,"ĠsÃ¡le":3794,"vÃ½ch":3795,"Ġtitulu":3796,"Å¡ÃŃch":3797,"Ġzna":3798,"ĠÃºspÄĽÅ¡nÄĽ":3799,"ĠÄįÃŃ":3800,"ĠobleÄįenÃŃ":3801,"ĠSlavia":3802,"ĠzaÄįnou":3803,"ĠudrÅ¾et":3804,"ĠpotÅĻebnÃ©":3805,"ĠDenÃŃku":3806,"Ġrozhodnout":3807,"ĠvlastnÃŃm":3808,"ĠprobÃŃhÃ¡":3809,"ĠPra":3810,"ĠtÅĻetiny":3811,"bek":3812,"ĠvyhrÃ¡la":3813,"Ġjednotky":3814,"ĠLou":3815,"ĠPRO":3816,"Ġ1994":3817,"Ġatd":3818,"Ġposkyt":3819,"Ġtouto":3820,"Ġzbytek":3821,"ĠmÃŃstostarosta":3822,"ĠpolitickÃ½ch":3823,"nÃŃka":3824,"DruhÃ½":3825,"Ġzra":3826,"Ġpodpory":3827,"ĠEx":3828,"Ġcelku":3829,"ĠstarÃ½ch":3830,"ĠpÅĻestÃ¡vce":3831,"stat":3832,"Ġmal":3833,"ĠÄįtvrtÃ©":3834,"Ġkvalitu":3835,"lÃ¡n":3836,"ĠprimÃ¡tora":3837,"ĠprojektÅ¯":3838,"ĠzÃ¡mek":3839,"ÄĮe":3840,"ÄĮeskÃ½":3841,"Ġvyp":3842,"Ġdruh":3843,"ĠHana":3844,"Ġ250":3845,"ĠvodnÃŃ":3846,"ĠzÃ¡leÅ¾itost":3847,"Ã¼":3848,"ĠsloÅ¾enÃŃ":3849,"ĠzÃ¡vodÄĽ":3850,"Ġkluci":3851,"ĠpÅĻipravit":3852,"ovatel":3853,"dnÃŃho":3854,"ĠvÃŃna":3855,"Ġduel":3856,"ĠÄįÃŃsla":3857,"rÃ¡t":3858,"tro":3859,"Ġtechnologie":3860,"Ġzastupitelstva":3861,"ĠmanÅ¾el":3862,"Ġpiva":3863,"kÃ©ho":3864,"ĠST":3865,"ĠÅĻeÄįeno":3866,"Ġtext":3867,"ĠpÅĻinÃ¡Å¡ÃŃ":3868,"ĠvÃ¡Å¡":3869,"Ġ39":3870,"eb":3871,"ez":3872,"Ġstejnou":3873,"Ġmm":3874,"ĠmÃŃry":3875,"ĠpÃŃ":3876,"Ġchcete":3877,"ĠodpovÃŃdÃ¡":3878,"nskÃ©ho":3879,"Ġpovrch":3880,"ĠvÃ½bor":3881,"ĠpozitivnÃŃ":3882,"racÃŃ":3883,"ĠznÃ¡mÃ½":3884,"ik":3885,"ĠzvlÃ¡Å¡tÄĽ":3886,"ada":3887,"ĠIvana":3888,"zna":3889,"Ġkarty":3890,"tala":3891,"ĠÄįer":3892,"ĠMiloÅ¡":3893,"Ġkvality":3894,"ĠmÃŃru":3895,"lace":3896,"ĠpodnikÅ¯":3897,"ĠÄĮechy":3898,"kce":3899,"Äįnou":3900,"tÅĻe":3901,"Ġobrazy":3902,"Ġindi":3903,"Ġvyz":3904,"ĠJi":3905,"Ġoslav":3906,"zeno":3907,"Ġpovede":3908,"prav":3909,"ĠspoleÄįnÃ©ho":3910,"ice":3911,"ĠveÅ¡kerÃ©":3912,"St":3913,"ĠpacientÅ¯":3914,"ObÄĽ":3915,"sÅ¯":3916,"Ġvys":3917,"mann":3918,"ĠhodinÃ¡ch":3919,"ĠCho":3920,"ĠMat":3921,"Ġpohybu":3922,"ĠvÅ¡echna":3923,"ista":3924,"ĠvelkÃ©ho":3925,"ckÃ©mu":3926,"ĠtrÃ©ninku":3927,"Ġdostatek":3928,"ĠjiÅ¾nÃŃ":3929,"Ġknih":3930,"ĠnejÄįastÄĽji":3931,"zek":3932,"Ġrodinu":3933,"ĠRy":3934,"Ġ120":3935,"ĠÃºÄįastnÃŃkÅ¯":3936,"ĠpomÃ¡hÃ¡":3937,"ĠlÃ©kaÅĻe":3938,"ĠorganizacÃŃ":3939,"ĠpoÅ¾adavky":3940,"gy":3941,"ĠplnÃ½":3942,"Ġ42":3943,"ĠpochÃ¡zÃŃ":3944,"Ġ48":3945,"ĠtraÅ¥":3946,"Ġ75":3947,"tovÃ©":3948,"ĠznÃ¡":3949,"Ġhradu":3950,"Vedle":3951,"Ġ1990":3952,"ÄįnÃ©ho":3953,"ple":3954,"ĠsprÃ¡vnÄĽ":3955,"neme":3956,"kra":3957,"ĠzprÃ¡vu":3958,"Ġstavba":3959,"Ġchyby":3960,"kro":3961,"lej":3962,"ĠaktuÃ¡lnÃŃ":3963,"Ġpom":3964,"ĠvlastnÃŃch":3965,"ĠbÅĻeznu":3966,"Ġzat":3967,"ĠpÅĻedsedy":3968,"ĠhokejistÃ©":3969,"bit":3970,"Ġpolitici":3971,"AR":3972,"Ġpokles":3973,"Äįuje":3974,"ĠCar":3975,"Ġsboru":3976,"ĠvlÃ¡du":3977,"ĠjedinÃ¡":3978,"ĠplÃ¡ny":3979,"ĠÃºseku":3980,"ovanÃŃ":3981,"vacÃŃ":3982,"VedenÃŃ":3983,"Ġmou":3984,"Ġdruhy":3985,"Ġspor":3986,"ĠdÄĽlajÃŃ":3987,"mÅ¯":3988,"ĠmoÅĻe":3989,"ĠmladÃ½":3990,"Ġroste":3991,"Ġgalerie":3992,"Ġseznam":3993,"ĠEuro":3994,"Vi":3995,"enÄĽ":3996,"Ġkonferenci":3997,"ĠblÃŃzkosti":3998,"ĠsestavÄĽ":3999,"ĠznÃ¡m":4000,"Ġnarodil":4001,"ĠvÃ½sledku":4002,"Nad":4003,"ĠamerickÃ½ch":4004,"ĠÄįÃŃmÅ¾":4005,"ĠvynikajÃŃcÃŃ":4006,"che":4007,"ĠinformaÄįnÃŃ":4008,"ĠobÄįanÃ©":4009,"Ġtri":4010,"ĠpraÅ¾skÃ©ho":4011,"rovat":4012,"tiv":4013,"Tehdy":4014,"ĠsdÄĽlila":4015,"ĠmÃŃÅĻÃŃ":4016,"Ġnovin":4017,"ĠTomÃ¡Å¡e":4018,"ĠsluÅ¾bu":4019,"Ġpsa":4020,"nickÃ½ch":4021,"Ġprosinci":4022,"ĠokresnÃŃ":4023,"Ġdomov":4024,"ĠnadÄĽje":4025,"ĠtvÃ¡ÅĻ":4026,"BA":4027,"Ġohro":4028,"ĠÃºpravy":4029,"ĠÄįastÄĽji":4030,"ĠgÃ³lÅ¯":4031,"Ġvla":4032,"ĠhornÃŃ":4033,"cet":4034,"zÃŃch":4035,"ĠokamÅ¾iku":4036,"ĠMÃŃ":4037,"ĠvÄĽtÅ¡inÄĽ":4038,"ĠvÃ©st":4039,"ĠÄįeskÃ©m":4040,"ĠdojÃŃt":4041,"Ġstyl":4042,"ĠklidnÄĽ":4043,"nÄĽjÅ¡ÃŃho":4044,"Ġstroje":4045,"Ġbou":4046,"ĠkrÃ¡snÃ©":4047,"hÅ¯":4048,"gra":4049,"Ġfilmy":4050,"mit":4051,"Ġnehod":4052,"ĠstÃ¡tnÃŃch":4053,"ĠFor":4054,"ĠfanouÅ¡ci":4055,"ĠOstravy":4056,"ĠkompletnÃŃ":4057,"ĠtehdejÅ¡ÃŃ":4058,"Ġpodnikatel":4059,"ang":4060,"Ã¡r":4061,"ĠbezpeÄįnost":4062,"ĠdefinitivnÄĽ":4063,"ĠdÄĽtskÃ©":4064,"nami":4065,"ĠznÃ¡t":4066,"ĠlÃ©kaÅĻÅ¯":4067,"lÃ©m":4068,"âĢĵ":4069,"ĠVal":4070,"ĠamerickÃ©ho":4071,"ĠÃºtok":4072,"ĠpÅĻÃŃpady":4073,"ĠprofesionÃ¡lnÃŃ":4074,"jenÃŃ":4075,"lÃ¡nÃŃ":4076,"ĠDra":4077,"Ġnikoho":4078,"Ġopak":4079,"ĠchrÃ¡":4080,"ÅĻÃŃm":4081,"ĠobecnÄĽ":4082,"ok":4083,"ĠmnohÃ©":4084,"ĠKun":4085,"ĠkÃ¡":4086,"nÄĽnÃ½":4087,"roval":4088,"Ġrozvoje":4089,"IC":4090,"amp":4091,"ĠsilnÃ©":4092,"ĠDr":4093,"xi":4094,"ĠfanouÅ¡kÅ¯":4095,"ĠmÃŃrnÄĽ":4096,"Ġstromy":4097,"ĠzvÃ½Å¡it":4098,"ĠMan":4099,"Ġzoo":4100,"Ġdubnu":4101,"rost":4102,"hali":4103,"Ġnastoupil":4104,"tali":4105,"zovÃ¡nÃŃ":4106,"Ã³n":4107,"Cena":4108,"ĠbÄĽÅ¾nÃ©":4109,"Ġdovolenou":4110,"ĠHav":4111,"ĠletiÅ¡tÄĽ":4112,"Ġmohu":4113,"Ã¤":4114,"venÃŃ":4115,"ĠbydlÃŃ":4116,"ĠÅĻÃŃjnu":4117,"ĠCon":4118,"ĠzÅĻÃŃ":4119,"ĠzmÄĽna":4120,"covÃ©":4121,"zena":4122,"ĠdaÅĻÃŃ":4123,"Ġkousek":4124,"dnÃŃm":4125,"ĠnevÄĽ":4126,"vost":4127,"ĠbudovÄĽ":4128,"Ġtest":4129,"ĠsÃŃlu":4130,"zni":4131,"roz":4132,"Ġ65":4133,"Ġobsah":4134,"Mi":4135,"ĠkaÅ¾dÃ¡":4136,"SpoleÄįnost":4137,"ĠKarlovÃ½ch":4138,"ĠvodÄĽ":4139,"ET":4140,"ĠpomÅ¯Å¾e":4141,"ĠÃºnoru":4142,"Ġkus":4143,"ĠobÄĽtÃŃ":4144,"ĠpotrvÃ¡":4145,"dÃŃme":4146,"Ġobyvatele":4147,"tku":4148,"ĠuhlÃŃ":4149,"Ġhosty":4150,"Ġdomova":4151,"MÅ¯Å¾e":4152,"zka":4153,"ĠcenÄĽ":4154,"NO":4155,"Ġplochy":4156,"ĠKr":4157,"Ġodchodu":4158,"Ġihned":4159,"ĠvÃ½zkum":4160,"ÅĻel":4161,"ĠBrod":4162,"ĠzkuÅ¡enost":4163,"slu":4164,"Ġdojem":4165,"Ġ1993":4166,"Ġhudba":4167,"ĠfinancovÃ¡nÃŃ":4168,"Åłkoda":4169,"Nez":4170,"chÅ¯":4171,"ĠpÅĻednÃŃ":4172,"rd":4173,"hly":4174,"ĠzÃ¡leÅ¾ÃŃ":4175,"ĠzÃ¡zemÃŃ":4176,"ĠodbornÃŃci":4177,"ĠvÃ½sledkem":4178,"ĠvÃ½chodnÃŃ":4179,"ĠEl":4180,"ĠÅ¾ijÃŃ":4181,"zenÃŃm":4182,"Ġbodu":4183,"ĠÄįeÅ¡tÃŃ":4184,"ĠÅłi":4185,"ĠtrestnÃ©ho":4186,"ĠjÃŃm":4187,"ĠjÃŃzdy":4188,"Ġhrad":4189,"ĠodbornÃ©":4190,"ĠvojenskÃ©":4191,"for":4192,"ĠhistorickÃ©":4193,"ĠVÃ¡":4194,"ĠfondÅ¯":4195,"ĠnejbliÅ¾Å¡ÃŃ":4196,"JednÃ¡":4197,"ĠAuto":4198,"ĠobvinÄĽnÃŃ":4199,"JakÃ©":4200,"ĠplÃ¡":4201,"Ġapod":4202,"ĠSP":4203,"ĠdostateÄįnÄĽ":4204,"Toto":4205,"znÃ¡":4206,"ĠnÃ¡kup":4207,"rich":4208,"zenÃ½ch":4209,"ĠvyjÃ¡dÅĻenÃŃ":4210,"ĠpravÃ©":4211,"ĠulicÃŃch":4212,"line":4213,"ĠhlavÄĽ":4214,"ĠFK":4215,"ker":4216,"ĠpÅĻedchozÃŃ":4217,"ĠSÃ¡zavou":4218,"ĠlÃŃbÃŃ":4219,"Ġ1992":4220,"ĠpÅĻÃŃspÄĽvek":4221,"ĠÃºvodu":4222,"ĠRobert":4223,"Äįa":4224,"60":4225,"On":4226,"ĠpÅ¯dÄĽ":4227,"ĠstraÅ¡nÄĽ":4228,"ĠCi":4229,"ĠvÃ½jimkou":4230,"ĠvÄĽnuje":4231,"ĠÄĮeska":4232,"Ġprocesu":4233,"Ġnebyli":4234,"ĠHavel":4235,"ĠÄįtyÅĻmi":4236,"ĠvÃ½stavbu":4237,"ĠÅĻÃ¡du":4238,"ĠsoudnÃŃ":4239,"ĠÄįÃ¡stky":4240,"br":4241,"ÅĻÃŃme":4242,"Ġnatolik":4243,"stru":4244,"ĠoznÃ¡menÃŃ":4245,"ĠznaÄįnÄĽ":4246,"rÃ©":4247,"ĠvÅ¡emi":4248,"Ġnahoru":4249,"Å¾enÃ¡":4250,"Ġbar":4251,"chod":4252,"ĠSport":4253,"Ġak":4254,"Ġdruhu":4255,"Ġchyb":4256,"ĠstavÄĽt":4257,"Å¾ÃŃme":4258,"ĠHol":4259,"klad":4260,"ĠblÃŃzko":4261,"ĠCzech":4262,"ĠKDU":4263,"Ġprodeji":4264,"ĠnemÅ¯Å¾eme":4265,"TrenÃ©r":4266,"AD":4267,"Ġhle":4268,"ĠstÅĻednÃŃch":4269,"Ġpobyt":4270,"ĠBal":4271,"enÃ©m":4272,"nicÃŃ":4273,"Ġzap":4274,"Ġzdaleka":4275,"Å¾enou":4276,"ĠpÅĻÃŃÄįku":4277,"ĠdaÅĪ":4278,"KU":4279,"Ġvloni":4280,"Ġchy":4281,"Ġekonomiky":4282,"Ġmistr":4283,"ĠBoleslavi":4284,"Ġkoho":4285,"rovÄĽ":4286,"zeny":4287,"ĠoficiÃ¡lnÃŃ":4288,"Ġlou":4289,"ĠpÅĻebor":4290,"ĠcentrÃ¡lnÃŃ":4291,"ĠFrantiÅ¡ka":4292,"lost":4293,"tor":4294,"Ġstudie":4295,"Ġsklo":4296,"Ġ]":4297,"ĠGo":4298,"ĠpojiÅ¡Å¥ovny":4299,"au":4300,"ĠplÃ¡nuje":4301,"Ġsouboru":4302,"Ġvozy":4303,"Ġpolitika":4304,"zenÃ¡":4305,"ĠfotbalovÃ©ho":4306,"alÃŃ":4307,"Äıte":4308,"ovÃ¡ni":4309,"Ġslo":4310,"Ġfotbalu":4311,"Å¾nÄĽ":4312,"Ġodhad":4313,"ĠNovÃ¡":4314,"Ġskupinu":4315,"ĠnÄĽjakÃ¡":4316,"ĠznÃŃ":4317,"ĠhlasovÃ¡nÃŃ":4318,"Å¾ovÃ¡nÃŃ":4319,"ÅĻskÃ½":4320,"ĠvzdÄĽlÃ¡nÃŃ":4321,"Ġpolovina":4322,"Ġdlouhou":4323,"ĠnoÄįnÃŃ":4324,"+":4325,"ĠstromÅ¯":4326,"ĠstupÅĪÅ¯":4327,"kovy":4328,"ĠzlepÅ¡enÃŃ":4329,"ĠnÃ¡sledujÃŃcÃŃ":4330,"IV":4331,"ĠvÃ½robkÅ¯":4332,"pek":4333,"ĠvysokÃ¡":4334,"tily":4335,"Ġ46":4336,"ĠsnÃŃÅ¾it":4337,"ĠDvoÅĻÃ¡k":4338,"ĠzvlÃ¡Å¡Å¥":4339,"ara":4340,"ĠstupnÄĽ":4341,"DÄĽ":4342,"nÄĽn":4343,"Ġsrpnu":4344,"ĠvzdÄĽlÃ¡vÃ¡nÃŃ":4345,"ĠLucie":4346,"ĠslouÅ¾it":4347,"hrÃ¡":4348,"SKO":4349,"ĠÄįtrnÃ¡cti":4350,"Nikdo":4351,"Ġnajevo":4352,"lky":4353,"ĠHan":4354,"Ġautomobil":4355,"ĠFilip":4356,"ĠkÅĻi":4357,"Firma":4358,"Sou":4359,"ĠmateÅĻskÃ©":4360,"Ġ09":4361,"ĠzruÅ¡enÃŃ":4362,"Ġdresu":4363,"Ġprozradil":4364,"Ġnejsem":4365,"ĠMon":4366,"ĠlÃ¡tky":4367,"Å¡la":4368,"ĠKateÅĻina":4369,"ĠÂ§":4370,"Ġherec":4371,"ĠBylo":4372,"ĠpodmÃŃnkÃ¡ch":4373,"Ġblo":4374,"Ġsko":4375,"ĠÅ¡kolÃ¡ch":4376,"ĠpÅĻÃŃjem":4377,"Ġmas":4378,"ĠJohn":4379,"ĠBÃŃ":4380,"ĠmnozÃŃ":4381,"ĠprovedenÃŃ":4382,"Ġvyjde":4383,"Ġmon":4384,"ĠÃºdajÅ¯":4385,"stickÃ¡":4386,"CI":4387,"ĠFa":4388,"Ġkan":4389,"ĠpokraÄįoval":4390,"Ġriziko":4391,"ĠklubÅ¯":4392,"ĠotevÅĻenÃŃ":4393,"ĠmusÃŃte":4394,"Ġmysli":4395,"ĠvyÅ¡etÅĻenÃŃ":4396,"ĠrozhodujÃŃcÃŃ":4397,"ĠÃºvodnÃŃ":4398,"Ġspeciali":4399,"log":4400,"Ġpotvrdila":4401,"Ġ43":4402,"ĠHornÃŃ":4403,"hel":4404,"Ġjed":4405,"ĠlidskÃ©":4406,"ĠdajÃŃ":4407,"Ġhou":4408,"ĠzbranÃŃ":4409,"tajÃŃ":4410,"Ġ47":4411,"inÃ¡ch":4412,"Ġschopni":4413,"ĠpotÅĻebujÃŃ":4414,"Ġ000":4415,"Ġ44":4416,"hlÃŃ":4417,"snÃ©":4418,"Ġbudoucnost":4419,"lÃŃn":4420,"ĠdÅ¯sledku":4421,"nd":4422,"ĠsluÅ¾ba":4423,"ĠdÃŃtÄĽte":4424,"Ġrychlosti":4425,"vit":4426,"ĠpÅĻipravili":4427,"ĠKSÄĮM":4428,"Ġpotravin":4429,"Ġmaso":4430,"ĠpÅĻehled":4431,"DÃ¡":4432,"nÃŃkem":4433,"Ã¶":4434,"dÄĽli":4435,"ĠpÅĻÃŃrodnÃŃ":4436,"ĠskonÄįilo":4437,"Ġvlasy":4438,"ĠztrÃ¡ty":4439,"IL":4440,"ĠTen":4441,"ĠmÃŃstem":4442,"ĠpÅĻede":4443,"Ġschopnost":4444,"Ġpachatel":4445,"Ġzjistit":4446,"nes":4447,"Ġplyn":4448,"Ġdopis":4449,"ĠbrnÄĽnskÃ©":4450,"ĠrÃ¡na":4451,"Ġmnohdy":4452,"ĠukÃ¡zal":4453,"Kde":4454,"ĠpodstatnÄĽ":4455,"ĠRuska":4456,"ĠsilnÃ½":4457,"ĠpoloÄįas":4458,"ĠnabÃŃzejÃŃ":4459,"Ġzisku":4460,"Ġobjekt":4461,"ĠuzavÅĻel":4462,"Ġkolegy":4463,"Ġposlanci":4464,"Ġkroky":4465,"Ġstanici":4466,"Å¡ila":4467,"nova":4468,"rÅ¯m":4469,"ĠÅĺÃŃ":4470,"Ġinternet":4471,"ĠStu":4472,"ĠnabÃŃdne":4473,"ĠpochopitelnÄĽ":4474,"ĠdovolenÃ©":4475,"ĠÅ¡li":4476,"we":4477,"ĠTur":4478,"Ġvysoko":4479,"ĠvstÅĻÃŃc":4480,"PodobnÄĽ":4481,"ĠvÄĽdÄĽl":4482,"snÃŃ":4483,"ĠZdeÅĪka":4484,"ĠOSN":4485,"Ġstaveb":4486,"tickÃ½ch":4487,"Hra":4488,"ĠstÃ¡la":4489,"ĠformÄĽ":4490,"ĠminutÃ¡ch":4491,"ĠpryÄį":4492,"zky":4493,"hÃ½":4494,"mÃ½":4495,"ĠvyuÅ¾ÃŃvat":4496,"ĠjedinÃ½m":4497,"Å¡kovÃ¡":4498,"ĠJaromÃŃr":4499,"Ġtan":4500,"ĠÅ¡estnÃ¡ct":4501,"ÅĻskÃ©ho":4502,"80":4503,"ĠosobnÃŃch":4504,"nskÃ¡":4505,"Ġvyh":4506,"ĠobÄįan":4507,"one":4508,"wa":4509,"ĠfÃ¡zi":4510,"ĠregionÃ¡lnÃŃ":4511,"Ġtrestu":4512,"mÄĽr":4513,"Ġhotel":4514,"lovÃ½ch":4515,"Ġnedostatek":4516,"Jedna":4517,"Ġzdi":4518,"ĠprodlouÅ¾enÃŃ":4519,"Di":4520,"Ġdata":4521,"Ġligu":4522,"ĠpamÄĽti":4523,"ĠpraÅ¾skÃ©m":4524,"ĠzmÄĽn":4525,"ĠdruÅ¾stev":4526,"ban":4527,"telnou":4528,"ĠoÄįekÃ¡vÃ¡":4529,"ujete":4530,"Ġagentura":4531,"Tady":4532,"ĠpÅĻechod":4533,"ĠbÄĽ":4534,"SvÃ©":4535,"ĠzahradÄĽ":4536,"ĠzvÃ½Å¡il":4537,"ĠzÃ¡vodÅ¯":4538,"rovÃ©":4539,"tÃ¡ch":4540,"Ġknihovny":4541,"ĠminimÃ¡lnÃŃ":4542,"ĠupozorÅĪuje":4543,"ovku":4544,"Ostrava":4545,"Ġotce":4546,"ĠnÃ¡rÅ¯st":4547,"Ġknihu":4548,"Ġvedli":4549,"ĠvÄįerejÅ¡ÃŃ":4550,"Pa":4551,"ĠÅĻÃŃkajÃŃ":4552,"ĠCD":4553,"ĠmateriÃ¡lu":4554,"ĠBez":4555,"tic":4556,"ĠÄįeskÃ½m":4557,"Ġjel":4558,"ĠvydÃ¡":4559,"ĠuÄįitel":4560,"Ġslovy":4561,"ĠzÅ¯stala":4562,"ĠvysokÃ½":4563,"ĠBen":4564,"Ġochrany":4565,"ĠmÄĽstskÃ½ch":4566,"ovÃ©mu":4567,"Ġstudent":4568,"ĠmÄĽsÃŃÄįnÄĽ":4569,"Ġpomohl":4570,"var":4571,"ÅĻily":4572,"Ġpobytu":4573,"hled":4574,"ĠmobilnÃŃ":4575,"lovÄĽ":4576,"Ġschopen":4577,"ÄįnÃ½m":4578,"Ġneroz":4579,"ÅĻenÃ½":4580,"ĠMÄĽ":4581,"ĠKy":4582,"ĠRudolf":4583,"Ġkonat":4584,"hlo":4585,"Te":4586,"Ġdokument":4587,"Ġkostel":4588,"ĠÅ¾elezniÄįnÃŃ":4589,"Ġkar":4590,"ĠtÅĻe":4591,"ĠRusku":4592,"ĠMladÃ©":4593,"Ġposu":4594,"Å¾nÃ½":4595,"Ġmalou":4596,"ĠnehodÄĽ":4597,"stÅ¯m":4598,"Ġspol":4599,"ĠtudÃŃÅ¾":4600,"eru":4601,"inky":4602,"Ġkontrolu":4603,"Celkem":4604,"ĠpÅĻipravil":4605,"Ġruky":4606,"NÄļ":4607,"Ġoperaci":4608,"Ġprvky":4609,"ĠzadnÃŃ":4610,"Ġman":4611,"PA":4612,"ĠvÃ½konem":4613,"ĠzbyteÄįnÄĽ":4614,"ĠDÄĽ":4615,"Ġkonkurenci":4616,"ĠÄįtvrtfinÃ¡le":4617,"NicmÃ©nÄĽ":4618,"Ġasistent":4619,"ĠodvolÃ¡nÃŃ":4620,"Ġvlivem":4621,"Ġprosadit":4622,"ĠstarÃ½":4623,"ĠpÅĻijel":4624,"Ġfungovat":4625,"Ġor":4626,"vod":4627,"dnÃŃch":4628,"ĠstarÅ¡ÃŃch":4629,"ĠtÅĻetinÄĽ":4630,"nÄĽji":4631,"ruÅ¡":4632,"Ġalkohol":4633,"Ġprogramy":4634,"ĠatmosfÃ©ru":4635,"Ġvelikosti":4636,"ĠÄįeho":4637,"ĠlÃ©to":4638,"ato":4639,"Nic":4640,"Ġfond":4641,"Ġrovnou":4642,"ĠsobotnÃŃ":4643,"Ġnikoliv":4644,"lenÃ½":4645,"ĠzaloÅ¾enÃŃ":4646,"ĠNovÃ©m":4647,"ĠAleÅ¡":4648,"ĠBou":4649,"ĠtÅĻÃŃda":4650,"ĠbavÃŃ":4651,"Ġokrese":4652,"ĠzÃ¡mÄĽr":4653,"stickÃ½ch":4654,"ĠnÃ¡hradnÃŃ":4655,"ÅĻstvÃŃ":4656,"ĠpÅĻiprav":4657,"Jsme":4658,"Ġnemohli":4659,"Ġkniha":4660,"ĠMÃ¡me":4661,"TentokrÃ¡t":4662,"Å¡li":4663,"ĠprostorÃ¡ch":4664,"dovÃ¡":4665,"tla":4666,"ĠbrÃ¡nÃŃ":4667,"Ġpostav":4668,"Ġhodnotu":4669,"ĠHradce":4670,"ĠskvÄĽle":4671,"Ġrad":4672,"vÄĽjÅ¡ÃŃ":4673,"NejvÃŃce":4674,"Ġteplo":4675,"pky":4676,"ĠTV":4677,"ĠhvÄĽzdy":4678,"itou":4679,"Ġdrog":4680,"Ġreakce":4681,"ĠhorÃ¡ch":4682,"ÄĮSL":4683,"ĠskonÄįenÃŃ":4684,"ĠAntonÃŃn":4685,"ĠvolnÃ½":4686,"Ġnap":4687,"ĠdÃŃvky":4688,"Ġkrve":4689,"Ġ2014":4690,"ĠPu":4691,"nicÃŃch":4692,"Ġzahrady":4693,"Ġfoto":4694,"rajÃŃ":4695,"Ġakcie":4696,"ĠobÄĽma":4697,"Ġpolitice":4698,"ft":4699,"Ġobsa":4700,"ĠpatÅĻil":4701,"Ġovoce":4702,"ĠLenka":4703,"Jestli":4704,"hor":4705,"rÃ¡k":4706,"ki":4707,"ĠmÄĽsÃŃci":4708,"ÄįÃŃch":4709,"Ġzve":4710,"ps":4711,"ĠtakovÃ©m":4712,"Ġosobnosti":4713,"ĠhospodÃ¡ÅĻstvÃŃ":4714,"ĠtakÅĻka":4715,"ĠtÅĻetÃŃho":4716,"zer":4717,"Ġzdroj":4718,"Ġdovo":4719,"ĠdenÃŃk":4720,"ĠsoukromÃ©":4721,"ĠobrazÅ¯":4722,"rala":4723,"Ġvydat":4724,"lenÃŃm":4725,"ĠruskÃ©":4726,"Ġrodin":4727,"die":4728,"Ġvelko":4729,"ĠodvÃ¡":4730,"ĠvÃ½voje":4731,"Ġkoruny":4732,"lal":4733,"nku":4734,"Ġtisk":4735,"ĠvyplÃ½vÃ¡":4736,"ĠpolitikÅ¯":4737,"kovÃ©m":4738,"Ġprodat":4739,"Ġar":4740,"ĠudÄĽlali":4741,"ĠzÃ¡chranu":4742,"ĠstrÃ¡Å¾nÃŃci":4743,"ĠMil":4744,"ĠvÄĽÅĻÃŃm":4745,"dÃ¡me":4746,"ĠMeziÅĻÃŃÄįÃŃ":4747,"ĠvÃ½hÅĻe":4748,"Zde":4749,"ĠpoÄįÃŃtaÄįe":4750,"dÃ¡ch":4751,"Ġpodniky":4752,"Ġtvrdil":4753,"Äįov":4754,"ĠpouÅ¾ÃŃvat":4755,"ĠÄĮeskou":4756,"ĠukÃ¡zalo":4757,"Å¾enÃ½ch":4758,"Ġdcera":4759,"ĠkrÃ¡tkÃ©":4760,"ĠpoblÃŃÅ¾":4761,"stvÃŃm":4762,"stala":4763,"Ġrov":4764,"ĠnastoupÃŃ":4765,"stech":4766,"Ġrestauraci":4767,"ĠvelkÃ©m":4768,"ĠNÃ¡rodnÃŃho":4769,"tat":4770,"berg":4771,"ĠoficiÃ¡lnÄĽ":4772,"Ġja":4773,"ĠvolnÃ©":4774,"ĠmlÃ¡deÅ¾":4775,"ĠNovotnÃ½":4776,"kovice":4777,"ĠDen":4778,"ĠzvÃŃÅĻata":4779,"Ġhudbu":4780,"pol":4781,"ĠnarozenÃŃ":4782,"Ġdopad":4783,"Ġhlad":4784,"ĠsvÄĽtlo":4785,"ĠnÃ¡silÃŃ":4786,"ĠBudÄĽjovicÃŃch":4787,"Ġpravidel":4788,"ÅĪa":4789,"Ġvl":4790,"Ġelektro":4791,"ĠÅĻÃŃdÃŃ":4792,"HA":4793,"SouÄįÃ¡stÃŃ":4794,"ÄįkÅ¯":4795,"Ġtj":4796,"Ġulic":4797,"ĠfanouÅ¡ky":4798,"ĠhospodÃ¡ÅĻskÃ©":4799,"ret":4800,"Ġmost":4801,"ĠpÄĽ":4802,"ĠGi":4803,"rÃ¡lnÃŃ":4804,"atu":4805,"Ġvlevo":4806,"ub":4807,"ĠzkuÅ¡enostÃŃ":4808,"ĠzdÅ¯raznil":4809,"Ġvesnice":4810,"Ġbudoucna":4811,"Ġdohody":4812,"ĠpÅĻipraven":4813,"ĠklientÅ¯":4814,"Ġokresu":4815,"Ġpopis":4816,"ĠpÅĻedÃ¡":4817,"ĠnabÃŃdka":4818,"ĠuvidÃŃ":4819,"ĠdrÃ¡hy":4820,"Ġpolitiku":4821,"ĠpozemkÅ¯":4822,"Å¡ili":4823,"koliv":4824,"ĠMyslÃŃm":4825,"Ġ49":4826,"ĠveÄįera":4827,"Ġjdou":4828,"inami":4829,"ĠpÅĻedstavenstva":4830,"ĠveÅĻejnÄĽ":4831,"ĠdÄĽlal":4832,"ĠJen":4833,"ĠtrestnÃŃ":4834,"Ġduchu":4835,"ĠdÄĽnÃŃ":4836,"ĠoznaÄįil":4837,"ĠpÅĻidal":4838,"Pe":4839,"ĠkampaÅĪ":4840,"rg":4841,"ĠstrÃ¡nce":4842,"ĠGe":4843,"ĠslavÃŃ":4844,"gie":4845,"cenÃ½":4846,"ĠpÅĻesvÄĽdÄįen":4847,"ĠZlÃŃnÄĽ":4848,"ĠSlovenska":4849,"ĠjÃŃdlo":4850,"ĠTra":4851,"NaÅ¡e":4852,"hÃ¡nÃŃ":4853,"Ġdokud":4854,"ĠnÃ¡roÄįnÃ©":4855,"Kou":4856,"Ġsvaz":4857,"ĠrÃ¡":4858,"ĠVer":4859,"24":4860,"ĠuvÃ¡":4861,"ĠoÄįekÃ¡vÃ¡nÃŃ":4862,"ĠsnaÅ¾it":4863,"ĠÄįervenci":4864,"Ġoblastech":4865,"Ġverzi":4866,"ĠdruÅ¾stvo":4867,"ĠsnaÅ¾ili":4868,"Å¾ky":4869,"ĠpodzimnÃŃ":4870,"Ġned":4871,"ĠpÅĻÃŃjmy":4872,"ĠsnÃŃh":4873,"ÄįnÃ½ch":4874,"ĠbytÄĽ":4875,"dky":4876,"mil":4877,"Äįet":4878,"fer":4879,"ĠvidÄĽli":4880,"nÃ¡nÃŃ":4881,"ĠvojÃ¡kÅ¯":4882,"ĠpracujÃŃ":4883,"Ġeuro":4884,"ÃŃme":4885,"sit":4886,"ĠcviÄįenÃŃ":4887,"ĠkaÅ¾doroÄįnÄĽ":4888,"fu":4889,"tika":4890,"ĠzabÃ½vÃ¡":4891,"ĠLip":4892,"ĠIII":4893,"ĠzamÄĽstnance":4894,"ĠtÅĻinÃ¡ct":4895,"ĠpÃ¡tÃ©":4896,"ĠTom":4897,"ĠvyuÅ¾ÃŃvÃ¡":4898,"ĠukonÄįenÃŃ":4899,"pon":4900,"Ġnemoci":4901,"ĠhlÃ¡sÃŃ":4902,"Ġdostalo":4903,"ĠokresnÃŃho":4904,"ĠÃºÄįet":4905,"ĠdosÃ¡hl":4906,"rej":4907,"ĠoÄįekÃ¡vat":4908,"ĠstejnÃ©m":4909,"ĠzajiÅ¡tÄĽnÃŃ":4910,"ĠpÅĻÃŃÅ¡tÃŃch":4911,"TÅĻetÃŃ":4912,"ĠprovÄĽ":4913,"Ġvideo":4914,"Ġmode":4915,"Ġtradice":4916,"Ġ190":4917,"ĠKarlovy":4918,"ĠsprÃ¡vnÃ©":4919,"ĠzÃ¡jemce":4920,"ĠNovÃ©ho":4921,"ĠvysÃŃlÃ¡nÃŃ":4922,"Ġbank":4923,"nÄĽna":4924,"ĠoblastÃŃ":4925,"ĠoÄįima":4926,"ĠvysvÄĽtlila":4927,"Ġokruhu":4928,"zovanÃ©":4929,"Ġnato":4930,"kÅ¯v":4931,"ĠPr":4932,"lujÃŃ":4933,"ĠVladimÃŃra":4934,"rad":4935,"rovou":4936,"ĠpoÅĻadu":4937,"ovanÃ©m":4938,"ĠprohrÃ¡l":4939,"ĠÃºstav":4940,"par":4941,"ĠnÃ½brÅ¾":4942,"IE":4943,"kÃ½ch":4944,"JestliÅ¾e":4945,"Ġvrchol":4946,"Å¡tÄĽnÃŃ":4947,"Äįer":4948,"itÃ©":4949,"lenÃ¡":4950,"ĠHar":4951,"ĠzkrÃ¡tka":4952,"telnÄĽ":4953,"Ġnebudu":4954,"Ġsouboj":4955,"mon":4956,"ĠDaniel":4957,"Ġsla":4958,"ĠÅłe":4959,"ĠpÅĻedchozÃŃch":4960,"Ġnemoc":4961,"Ġkrizi":4962,"ĠautomobilÅ¯":4963,"ĠpÅĻestup":4964,"ÄįovÃ¡":4965,"ĠnabÃŃ":4966,"ovnÃŃ":4967,"las":4968,"vÅ¯":4969,"ĠnechtÄĽjÃŃ":4970,"Å¾ovat":4971,"ĠhlÃ¡":4972,"Ġpozemky":4973,"lena":4974,"oni":4975,"Ġles":4976,"Ġpark":4977,"ĠnÃ¡hodou":4978,"Ġnevz":4979,"Ġkolech":4980,"Ġmikro":4981,"ĠKladno":4982,"nik":4983,"ĠproblÃ©mem":4984,"Ġdar":4985,"ĠsvatÃ©ho":4986,"Ġ1991":4987,"%":4988,"Ġkoncertu":4989,"Ġjihu":4990,"Å¡nÄĽ":4991,"Tedy":4992,"JednÃŃm":4993,"Ġkomedie":4994,"ĠpoÅ¾Ã¡ru":4995,"Ġstaro":4996,"lÃ©ho":4997,"aty":4998,"ĠstÃ¡tech":4999,"ĠokolnostÃŃ":5000,"sila":5001,"ĠDalÅ¡ÃŃ":5002,"ĠpÅĻÃŃklad":5003,"Ġstadion":5004,"Ġsmlouva":5005,"mal":5006,"ovacÃŃch":5007,"Ġvar":5008,"Ġvedou":5009,"OS":5010,"Ġredakce":5011,"MI":5012,"Ġzachy":5013,"Ġobjevila":5014,"NÄĽkdy":5015,"nickou":5016,"sli":5017,"ĠsilnÄĽ":5018,";":5019,"ĠinvestiÄįnÃŃ":5020,"ĠKrÃ¡":5021,"Ġur":5022,"ĠmladÃŃk":5023,"Sta":5024,"rovÃ½":5025,"SÃ¡m":5026,"Ġsty":5027,"ĠnabÃŃdnout":5028,"Ġobjem":5029,"ĠhokejovÃ©":5030,"Ġ=":5031,"Ġcoby":5032,"Pan":5033,"Ġdoprava":5034,"ĠnegativnÃŃ":5035,"ĠsnÃŃmek":5036,"ĠpÅĻipomnÄĽl":5037,"Ġnechali":5038,"ĠstÅĻediska":5039,"AÅ¥":5040,"ÅĻky":5041,"ĠprÅ¯bÄĽh":5042,"ĠSte":5043,"ĠpremiÃ©ru":5044,"ĠstÅĻÃŃ":5045,"ĠAdam":5046,"Ġkontroly":5047,"Potom":5048,"ĠÅ¾Ã¡dnÃ©m":5049,"Ġtradici":5050,"pila":5051,"id":5052,"ĠhvÄĽzd":5053,"ruje":5054,"Ġvystav":5055,"itÄĽ":5056,"ĠscÃ©nÄĽ":5057,"ĠsedÃŃ":5058,"Ġchybu":5059,"ĠlidskÃ½ch":5060,"Ġkluby":5061,"ĠsouÄįasnÃ½":5062,"Ġmr":5063,"ĠnadÄĽji":5064,"ĠnapÄĽtÃŃ":5065,"enÃ½mi":5066,"ĠkÃ¡dru":5067,"kovÃ¡nÃŃ":5068,"ĠvÄĽtÅ¡iny":5069,"ĠâĢ¢":5070,"ĠdÃ©le":5071,"Ġtrhy":5072,"Program":5073,"Ġnahra":5074,"ĠmaximÃ¡lnÃŃ":5075,"ĠRichard":5076,"tickÃ©ho":5077,"Ġlesa":5078,"ĠvÃ½raz":5079,"Ġfotograf":5080,"ĠStÅĻe":5081,"hnou":5082,"Ġkro":5083,"Ġpropad":5084,"Ġseveru":5085,"ĠkusÅ¯":5086,"ĠÄįtvrtletÃŃ":5087,"ĠdodÃ¡":5088,"ĠmÄĽstu":5089,"ĠukÃ¡zat":5090,"ĠpÅĻÃŃrodÄĽ":5091,"Ġnechci":5092,"ĠAni":5093,"ĠpoÄįÃŃtaÄį":5094,"ĠMiroslava":5095,"ĠvÄĽdÃŃ":5096,"th":5097,"ĠLibor":5098,"MÃ¡te":5099,"ĠÄįekal":5100,"ĠItÃ¡lie":5101,"voj":5102,"lav":5103,"qu":5104,"ĠÄįernÃ©":5105,"ove":5106,"Ex":5107,"chÃ¡zÃŃ":5108,"nej":5109,"ĠpopulÃ¡rnÃŃ":5110,"ĠzabÃ½vat":5111,"ĠsvÄĽtovÃ½ch":5112,"mana":5113,"ĠdopravnÃŃch":5114,"Ġvypadat":5115,"ĠMost":5116,"Ġsoudce":5117,"ĠvyÅ¡el":5118,"stky":5119,"ĠturistÅ¯":5120,"ĠPardubicÃŃch":5121,"ĠpoÅĻad":5122,"deme":5123,"Nejprve":5124,"ÄįÃ¡":5125,"ĠzbranÄĽ":5126,"ĠpouhÃ½ch":5127,"ĠSy":5128,"ĠYorku":5129,"Ġnajdou":5130,"ĠhostujÃŃcÃŃ":5131,"ĠPri":5132,"tivnÃŃ":5133,"ĠmajitelÃ©":5134,"ÄįenÃ¡":5135,"ĠzabrÃ¡nit":5136,"ĠnÃ¡jem":5137,"ĠnejdÅ¯leÅ¾itÄĽjÅ¡ÃŃ":5138,"ĠkrajskÃ½":5139,"ĠsevernÃŃ":5140,"ĠkonÄĽ":5141,"lova":5142,"ĠscÃ©ny":5143,"Å¾Ã¡":5144,"inovÃ©":5145,"Ġnepod":5146,"Ġhlasy":5147,"ĠhospodaÅĻenÃŃ":5148,"Ġhaly":5149,"Ġkina":5150,"Ġkontakt":5151,"Branky":5152,"ĠLiberce":5153,"ĠfotbalistÅ¯":5154,"zku":5155,"ĠvyvÃ¡":5156,"Ġpodobu":5157,"ĠnÄĽmeckÃ©ho":5158,"ĠsvÃŃ":5159,"Å¡nÃ©":5160,"avÃŃ":5161,"ĠosmnÃ¡ct":5162,"ĠobrovskÃ©":5163,"Ġcom":5164,"ĠmanÅ¾elka":5165,"Ġodpor":5166,"ĠhistorickÃ½ch":5167,"Ġpodvod":5168,"Ġbratr":5169,"ĠumoÅ¾nÃŃ":5170,"ĠOpen":5171,"Ġautem":5172,"ĠodpovÄĽdÄĽl":5173,"ĠLÃŃ":5174,"ĠzÃ¡sah":5175,"Ġkomory":5176,"ĠvÃ½zkumu":5177,"ĠdanÃ©":5178,"ble":5179,"ich":5180,"Ã¡tor":5181,"ÅĻice":5182,"ĠpÅ¯dy":5183,"Ġnoviny":5184,"MÃŃ":5185,"ĠpÅĻÃŃpadnÃ©":5186,"Ġoperace":5187,"lenÃ½ch":5188,"ĠnejhorÅ¡ÃŃ":5189,"ĠpÅĻijetÃŃ":5190,"ĠsvÄĽdÄįÃŃ":5191,"ĠÅ¾Ã¡dosti":5192,"Ġopravu":5193,"ĠvÃŃtÄĽze":5194,"ĠsoustÅĻedÄĽnÃŃ":5195,"Ġjednak":5196,"nali":5197,"ĠzÃ¡klad":5198,"ĠdÃ¡lnice":5199,"cy":5200,"ĠcelkovÄĽ":5201,"Ġpodzimu":5202,"Å¡em":5203,"Ġdivize":5204,"ĠbÄĽhu":5205,"hajÃŃ":5206,"ĠnÃ¡rok":5207,"Å¾ek":5208,"Ġtroj":5209,"ĠTour":5210,"Pou":5211,"ĠprÅ¯vod":5212,"ĠstavÃŃ":5213,"anÃ©ho":5214,"krÃ¡":5215,"Å¾nÃ¡":5216,"dne":5217,"ĠklasickÃ©":5218,"Ġposlanec":5219,"Ġmistra":5220,"ĠpÄĽknÄĽ":5221,"Ġvyrovnat":5222,"Ġvedla":5223,"ĠposlancÅ¯":5224,"telÅ¯":5225,"ĠtiskovÃ©":5226,"Ġplo":5227,"Ġzpravidla":5228,"Ġobrat":5229,"Ġmostu":5230,"Ġodpadu":5231,"ĠprÅ¯zkumu":5232,"ĠÅ¾Ã¡":5233,"ĠsvÄĽdomÃŃ":5234,"Ġporazil":5235,"jak":5236,"Ġhejtman":5237,"'":5238,"tujÃŃ":5239,"ĠmanÅ¾elstvÃŃ":5240,"rku":5241,"ĠvytvoÅĻenÃŃ":5242,"ĠStar":5243,"RÃģ":5244,"vec":5245,"ĠvÃ½Å¡":5246,"ĠVla":5247,"ĠVr":5248,"ĠkariÃ©ru":5249,"ng":5250,"ĠohroÅ¾enÃŃ":5251,"Ġvyhra":5252,"ĠPet":5253,"rÃ¡m":5254,"ĠtÃ¡bor":5255,"stro":5256,"ĠcÃŃtÃŃ":5257,"Ġnapad":5258,"ĠrychlÃ©":5259,"Ġrozhod":5260,"ĠvysokÃ½ch":5261,"ĠAmerice":5262,"tickou":5263,"ĠtÃ¡":5264,"Ġzastav":5265,"Kam":5266,"Ġinstituce":5267,"ĠterÃ©nu":5268,"Ġste":5269,"stek":5270,"ĠbÃŃlÃ©":5271,"novÃ½":5272,"Äįice":5273,"Ġdotaz":5274,"ĠdostÃ¡vÃ¡":5275,"Ġhe":5276,"ĠPre":5277,"ĠJihlavÄĽ":5278,"tilo":5279,"Ġzlato":5280,"ĠÅĻidiÄįÅ¯":5281,"ĠnemÄĽlo":5282,"Ġkonference":5283,"Ġpokutu":5284,"Ġstolu":5285,"ĠspokojenÃ½":5286,"ĠJeÅ¡tÄĽ":5287,"ĠprobÄĽhne":5288,"ĠvzÃ¡pÄĽtÃŃ":5289,"Ġkomunikaci":5290,"ĠhrÃ¡la":5291,"ĠGra":5292,"Ġtalent":5293,"tami":5294,"anÅ¯":5295,"Ġsezona":5296,"ĠparkoviÅ¡tÄĽ":5297,"ĠslavnostnÃŃ":5298,"stickÃ©ho":5299,"ĠtÄĽÅ¾ce":5300,"mot":5301,"ĠprohlÃ©dnout":5302,"Ġpas":5303,"ĠpodÃ©l":5304,"ĠdÅ¯raz":5305,"Ġviz":5306,"LÃģ":5307,"Ġvyho":5308,"ĠdÃ¡vat":5309,"ĠvlastnÃŃho":5310,"ĠAu":5311,"zal":5312,"ĠzÃ¡konem":5313,"Ã¡na":5314,"Liberec":5315,"CelÃ½":5316,"rami":5317,"Ġvlast":5318,"ĠÄįlÃ¡nek":5319,"Ġpovinnosti":5320,"bili":5321,"ĠpÅĻinesl":5322,"MÄĽ":5323,"ĠtechnologiÃŃ":5324,"mek":5325,"Ġkup":5326,"ĠsnÄĽmovny":5327,"ÅĻÅ¯m":5328,"zovali":5329,"Martin":5330,"ÄįujÃŃ":5331,"22":5332,"ĠprodÃ¡":5333,"Ġalbum":5334,"ĠpodobnÃ½":5335,"hrad":5336,"jel":5337,"Ġstovek":5338,"ĠkulturnÃŃho":5339,"Ġkopu":5340,"uk":5341,"NejlepÅ¡ÃŃ":5342,"MÄĽli":5343,"Ġup":5344,"ĠodehrÃ¡l":5345,"Ġcykli":5346,"Ġrostlin":5347,"ÄįÃ¡k":5348,"ĠÄĮernÃ½":5349,"ĠmÃ©dia":5350,"Ġkostele":5351,"ĠjakÃ¡":5352,"ÄĮtyÅĻi":5353,"Å¾el":5354,"Ġnajde":5355,"ĠvÄĽdomÃŃ":5356,"Ġstudenty":5357,"kaly":5358,"ĠspojenÃ©":5359,"Ġkap":5360,"ĠnÄĽkdejÅ¡ÃŃ":5361,"ĠtrpÃŃ":5362,"ÄįÃŃme":5363,"ĠpokraÄįovÃ¡nÃŃ":5364,"Ġmechani":5365,"ĠnecelÃ½ch":5366,"ctvÃŃ":5367,"Å¾enÃŃm":5368,"ĠotÃ¡zkou":5369,"rod":5370,"ÅĪoval":5371,"ĠSvÄĽt":5372,"ĠÃºsmÄĽvem":5373,"jÃŃch":5374,"Ġseznamu":5375,"Ġ600":5376,"vce":5377,"Ġ52":5378,"Ġdovolit":5379,"Ġkartu":5380,"ĠÅ¾ebÅĻÃŃÄįku":5381,"ser":5382,"ĠcestujÃŃcÃŃ":5383,"ĠvidÃŃm":5384,"Ġbio":5385,"ĠzmÄĽnÃŃ":5386,"ĠpÅĻijede":5387,"ĠtermÃŃnu":5388,"rÃ½":5389,"ÄįkovÃ©":5390,"RozhodÄįÃŃ":5391,"Ġobje":5392,"ĠIvo":5393,"Ġuprav":5394,"ĠdÄĽtstvÃŃ":5395,"Ġslou":5396,"ĠpromÄĽ":5397,"ĠpamÃ¡tky":5398,"ĠreÅ¾im":5399,"ĠpatrnÄĽ":5400,"Dokonce":5401,"ĠÅ¾il":5402,"Ġbudova":5403,"ĠbrÃ¡t":5404,"ĠdanÃŃ":5405,"Ã¡lu":5406,"Ġpodob":5407,"OB":5408,"Å¾ena":5409,"ĠkonÃŃ":5410,"Ġteploty":5411,"ĠzkouÅ¡ky":5412,"ĠItÃ¡lii":5413,"knout":5414,"ĠkÅĻÃŃÅ¾":5415,"Ġnaplno":5416,"ĠdÅ¯vody":5417,"rom":5418,"gan":5419,"ĠreprezentaÄįnÃŃ":5420,"ĠJihlava":5421,"Ġzjistil":5422,"ĠdÅĻeva":5423,"Ġ57":5424,"ĠvyprÃ¡vÃŃ":5425,"Pavel":5426,"ĠNÄĽmecko":5427,"tom":5428,"jnÃŃ":5429,"vin":5430,"ĠÅ¾i":5431,"ĠotevÅĻel":5432,"Ġstranou":5433,"ĠvÃ½stavby":5434,"nce":5435,"mov":5436,"Ġstrom":5437,"ĠNenÃŃ":5438,"ĠvÃ½hra":5439,"Å¡ko":5440,"ĠpÅĻÃŃjmÅ¯":5441,"Ġmasa":5442,"ĠRusko":5443,"ros":5444,"ĠnimiÅ¾":5445,"Ã©ra":5446,"ĠloÅĪskÃ©":5447,"ĠuznÃ¡":5448,"ĠnÃ¡vÅ¡tÄĽvÄĽ":5449,"Ġ|":5450,"ĠPar":5451,"ĠSokolov":5452,"ĠosobnostÃŃ":5453,"ĠtakovÃ½m":5454,"Ġobranu":5455,"Å¡lo":5456,"ĠdÃ¡vajÃŃ":5457,"ĠneÅ¡lo":5458,"ĠvoliÄįÅ¯":5459,"kom":5460,"ĠHradiÅ¡tÄĽ":5461,"bus":5462,"lÃŃm":5463,"ovskÃ©":5464,"ĠzavedenÃŃ":5465,"Ġzdr":5466,"ENÃį":5467,"Ġhlu":5468,"Äįel":5469,"ĠIrÃ¡ku":5470,"ĠvÃ½chod":5471,"ĠjinÃŃ":5472,"ĠrelativnÄĽ":5473,"Ġzastupitel":5474,"Ġwww":5475,"zor":5476,"tera":5477,"HlavnÄĽ":5478,"Ġdoklady":5479,"ĠumÄĽleckÃ©":5480,"ĠvÃ½bornÄĽ":5481,"Ġzastavit":5482,"Ġfo":5483,"ĠnavÅ¡tÃŃvit":5484,"Å¡ÃŃme":5485,"RE":5486,"ĠInter":5487,"UM":5488,"ĠpoloÄįasu":5489,"Ġsva":5490,"21":5491,"Ġlistu":5492,"Ġtisku":5493,"tÃ¡m":5494,"AT":5495,"TÄĽ":5496,"Ġjistotu":5497,"ĠskonÄįit":5498,"ĠKam":5499,"ĠBritÃ¡nie":5500,"ĠobjektÅ¯":5501,"ĠsamotnÃ©":5502,"ĠnÃ¡ro":5503,"Å¡enÃ½":5504,"Akce":5505,"ĠzvÃŃtÄĽzil":5506,"pili":5507,"Ġmuselo":5508,"Ġsouladu":5509,"ĠosmdesÃ¡t":5510,"vÃ½m":5511,"Ġtel":5512,"ĠÅĻeÄį":5513,"ĠnÃ¡vrhy":5514,"ĠtÄĽmi":5515,"ĠbrÃ¡nit":5516,"Ġtelefonu":5517,"dennÃŃ":5518,"ski":5519,"Ġbarev":5520,"VÃ½sledky":5521,"ks":5522,"ĠmÄĽnit":5523,"Ġdokonale":5524,"Ġpotvrzuje":5525,"Ġ53":5526,"fo":5527,"ĠkonkrÃ©tnÄĽ":5528,"Ġdostaly":5529,"Ġkomuni":5530,"ĠlÃ©ky":5531,"Ġ56":5532,"Ġwebu":5533,"Ġslib":5534,"ĠminulÃ©":5535,"ĠfotbalovÃ½":5536,"DvÄĽ":5537,"hala":5538,"Ġ54":5539,"ĠÄĮÃŃ":5540,"por":5541,"ery":5542,"ĠpÃ¡du":5543,"ĠudÃ¡lostÃŃ":5544,"Pla":5545,"Ġkoncerty":5546,"Ġprofesor":5547,"ĠvztahÅ¯":5548,"ĠobrovskÃ½":5549,"ĠPolska":5550,"sin":5551,"sech":5552,"loval":5553,"Ġvra":5554,"ace":5555,"ÄĮÃŃm":5556,"ĠnejstarÅ¡ÃŃ":5557,"ĠblÃŃÅ¾ÃŃ":5558,"DO":5559,"ÅłÃ©f":5560,"Äįany":5561,"ĠzavÃ¡":5562,"ĠvyuÅ¾ÃŃvajÃŃ":5563,"ĠostatnÃŃmi":5564,"Ġmatky":5565,"ĠprÃ¡zdnin":5566,"Lu":5567,"lÃ¡k":5568,"ĠfinanÄįnÄĽ":5569,"Ġinformovala":5570,"ĠMezi":5571,"ĠnÄĽmeckÃ½":5572,"ED":5573,"Teprve":5574,"ĠpÅĻÃŃjemnÃ©":5575,"OP":5576,"tes":5577,"ĠvÃŃno":5578,"inka":5579,"ĠPeter":5580,"Ġnastav":5581,"ĠpraÅ¾skÃ½ch":5582,"gr":5583,"ĠjedenÃ¡cti":5584,"lina":5585,"tin":5586,"zovala":5587,"ĠÅłtÄĽpÃ¡n":5588,"ĠsilnicÃŃch":5589,"Velmi":5590,"ĠMer":5591,"ĠMichaela":5592,"istÃ©":5593,"bila":5594,"vÃ©ho":5595,"onÃ¡":5596,"ĠJiÄįÃŃn":5597,"ĠKot":5598,"Ġbudov":5599,"ĠMen":5600,"Ġpodporuje":5601,"ĠvyÅ¡la":5602,"ĠzÃ¡loÅ¾nÃŃk":5603,"ICE":5604,"ĠOl":5605,"ĠnedoÅ¡lo":5606,"ĠHy":5607,"anÃ½m":5608,"ĠÄįlÃ¡nku":5609,"ĠJako":5610,"Ġporazili":5611,"lejÅ¡ÃŃ":5612,"rnu":5613,"IM":5614,"Ġvzor":5615,"ĠtrÃ¡pÃŃ":5616,"ujÃŃcÃŃch":5617,"rÃ¡n":5618,"Ġnapo":5619,"ĠupÅĻesnil":5620,"ĠmateriÃ¡ly":5621,"ĠÅĻekli":5622,"pre":5623,"najÃŃ":5624,"ĠsbÃŃrky":5625,"nala":5626,"ĠmÃŃstopÅĻedseda":5627,"ĠTÄĽ":5628,"StaÄįÃŃ":5629,"Ġ180":5630,"ĠKÃ¡":5631,"loÅ¾":5632,"ĠÅ½e":5633,"ĠSlovensko":5634,"jÃ¡":5635,"set":5636,"ĠvaÅ¡ÃŃ":5637,"Ġlodi":5638,"StÃ¡le":5639,"ĠpÅĻÃŃprava":5640,"ĠSlavii":5641,"Ġdot":5642,"Ã¡nÃŃ":5643,"ĠOlomouce":5644,"ĠvyzkouÅ¡et":5645,"70":5646,"ĠnÄĽÅ¾":5647,"ĠoblÃ©":5648,"Ġpes":5649,"Ġvpravo":5650,"ĠznÃ¡mÃ½ch":5651,"ĠdrobnÃ©":5652,"Ġstarostka":5653,"ĠvÃ½znamnÃ©":5654,"35":5655,"ĠÅ¡i":5656,"Ġmj":5657,"pli":5658,"vem":5659,"23":5660,"Ġnem":5661,"ĠlÃ¡sky":5662,"ĠnÃ¡vÅ¡tÄĽvu":5663,"Ġrozsahu":5664,"ĠnaÅ¡la":5665,"Ġslibuje":5666,"ĠsouÄįasnÃ©ho":5667,"Ġservis":5668,"ĠvlastnictvÃŃ":5669,"Ġhory":5670,"Ġcca":5671,"ĠpÅĻiznÃ¡vÃ¡":5672,"ĠvolnÄĽ":5673,"Foto":5674,"ĠvyÅĻeÅ¡it":5675,"Ġsmr":5676,"Ġjede":5677,"Ġstudium":5678,"ĠzÅ¯stÃ¡vajÃŃ":5679,"dnÃ©":5680,"ĠnejmenÅ¡ÃŃ":5681,"Ġspokojen":5682,"Ġpostavy":5683,"Ġide":5684,"ĠAnna":5685,"ĠpÅĻedstavitelÃ©":5686,"ĠelektrÃ¡rny":5687,"ĠzÃ¡kaznÃŃkÅ¯":5688,"ĠspÃ¡":5689,"ĠprogramÅ¯":5690,"Ġskla":5691,"ĠÄįtvrtÃ½":5692,"Ġvznik":5693,"IA":5694,"ĠHon":5695,"Ġbere":5696,"Ġdokon":5697,"ĠsystÃ©my":5698,"ĠVÃŃt":5699,"hovÃ©":5700,"ovan":5701,"Ministr":5702,"ĠpÅĻiÅ¡ly":5703,"sh":5704,"Ġzv":5705,"ĠTÅĻi":5706,"ĠDnes":5707,"ĠtvÃ¡ÅĻÃŃ":5708,"ĠturnÃ©":5709,"ĠostatnÄĽ":5710,"Ġpraxe":5711,"ĠDolnÃŃ":5712,"Pardubice":5713,"ĠDPH":5714,"Ġnasa":5715,"ĠÅ¾Ã¡ky":5716,"ĠpeÄįlivÄĽ":5717,"ĠvÃŃme":5718,"ĠdÅ¯leÅ¾itÃ½":5719,"ĠhledÃ¡nÃŃ":5720,"ano":5721,"ĠobranÄĽ":5722,"ĠstranÃ¡ch":5723,"enci":5724,"ĠsouÄįasnÃ½ch":5725,"vku":5726,"tiky":5727,"Ġobjev":5728,"ĠbÄĽÅ¾nÄĽ":5729,"Äįnost":5730,"Ġautobus":5731,"ĠsnÃŃ":5732,"ĠnÃ¡sledujÃŃcÃŃch":5733,"kÃ½m":5734,"Å¡ilo":5735,"ĠprÅ¯mÄĽr":5736,"Ġmini":5737,"ĠZlÃŃna":5738,"ĠÃºÄįastnÃŃci":5739,"Ġchlad":5740,"ĠBÄĽ":5741,"ĠzÃ¡kony":5742,"ĠmalÃ©ho":5743,"Ġpostavil":5744,"ĠstavbÄĽ":5745,"ĠvojÃ¡ci":5746,"teÄį":5747,"ĠprÅ¯myslovÃ©":5748,"ĠvteÅĻin":5749,"Å¾ily":5750,"Ru":5751,"bnÃŃ":5752,"ĠkvÄĽt":5753,"ĠpÅĻÃŃleÅ¾itostÃŃ":5754,"ĠhrÃ¡":5755,"ĠFu":5756,"Ġlid":5757,"ĠudÃ¡lost":5758,"Ġuz":5759,"ĠTOP":5760,"ĠprvenstvÃŃ":5761,"ĠzvyÅ¡uje":5762,"Be":5763,"ĠjinÃ©m":5764,"ĠmomentÃ¡lnÄĽ":5765,"ĠpoÅĻadatelÃ©":5766,"ĠudÄĽlÃ¡":5767,"Ġsestav":5768,"ĠkariÃ©ry":5769,"ĠzÃ¡Å¾itek":5770,"ktu":5771,"AM":5772,"ĠJsme":5773,"dku":5774,"ĠsedmdesÃ¡t":5775,"Å¡enÃŃm":5776,"kle":5777,"ĠPolsku":5778,"ĠsouvisÃŃ":5779,"ley":5780,"ĠpÃŃsnÄĽ":5781,"ort":5782,"ĠmÄĽÅĻenÃŃ":5783,"ĠstÃŃ":5784,"enÃ½m":5785,"procentnÃŃ":5786,"Ġexistence":5787,"Ġhost":5788,"tace":5789,"ĠunikÃ¡tnÃŃ":5790,"DÅ¯vodem":5791,"ĠIV":5792,"slov":5793,"ĠnebezpeÄįnÃ©":5794,"ĠlÃ¡tek":5795,"ĠvÃ½robÄĽ":5796,"spÄĽ":5797,"ĠznÃ¡mo":5798,"Ġmuzeu":5799,"ĠskvÄĽlÃ©":5800,"nika":5801,"Ġjasno":5802,"ĠmateriÃ¡lÅ¯":5803,"ĠangaÅ¾mÃ¡":5804,"ĠproblÃ©mu":5805,"tora":5806,"Ġ85":5807,"ĠvytvoÅĻil":5808,"kÃ¡ÅĻ":5809,"Ġberou":5810,"ÅĻenÃ¡":5811,"Ġus":5812,"ĠobchodnÃŃho":5813,"ĠovlÃ¡":5814,"ĠLidÃ©":5815,"ĠurÄįitou":5816,"vor":5817,"Ġspisovatel":5818,"Ġnovo":5819,"Ġtrvat":5820,"Vz":5821,"penÃŃ":5822,"ĠdaÅĻilo":5823,"Ministerstvo":5824,"StÅĻe":5825,"ajÃŃ":5826,"zujÃŃcÃŃ":5827,"Kdy":5828,"Ġschopnosti":5829,"Ġpovedlo":5830,"ĠpÅĻelomu":5831,"ĠzÃŃskÃ¡nÃŃ":5832,"ĠsvÄĽtovÃ©ho":5833,"PÅĻedevÅ¡ÃŃm":5834,"raci":5835,"Ġnemohla":5836,"Ġzapo":5837,"ĠvyjÃ¡dÅĻil":5838,"Ġmetru":5839,"ovnÃ©":5840,"ĠztrÃ¡tu":5841,"Ġmaminka":5842,"ĠzÃ¡jmy":5843,"ĠStÅĻednÃŃ":5844,"ĠjednoduÅ¡e":5845,"Ġ58":5846,"ĠZatÃŃm":5847,"ĠProstÄĽjov":5848,"ĠsnÃŃmky":5849,"jev":5850,"Vo":5851,"Ġban":5852,"lici":5853,"PoÄįet":5854,"ĠstÅĻetnutÃŃ":5855,"ĠBritÃ¡nii":5856,"UT":5857,"ĠneznamenÃ¡":5858,"Ġknize":5859,"Ġry":5860,"Ġabyste":5861,"ĠmÃ©diÃŃ":5862,"Ġrozhodlo":5863,"rovÃ½ch":5864,"ĠpÅ¯vodu":5865,"ĠvÃ½hradnÄĽ":5866,"ĠloÄı":5867,"ĠLondÃ½nÄĽ":5868,"our":5869,"ĠTeplice":5870,"ĠchystajÃŃ":5871,"ĠÄįtyÅĻiceti":5872,"ĠsÃŃti":5873,"Ġran":5874,"ĠvrÃ¡tila":5875,"mati":5876,"bel":5877,"ÅĻenÃŃm":5878,"ĠÅ¡estnÃ¡cti":5879,"ĠdÅ¯vodem":5880,"ĠkrÃ¡deÅ¾e":5881,"Ġdoposud":5882,"Ġfyzi":5883,"Ġdisku":5884,"ĠSenÃ¡tu":5885,"ĠDub":5886,"Ġtro":5887,"ĠdomÃ¡cnosti":5888,"Ġdiskuse":5889,"Ġpartner":5890,"ĠgÃ³lu":5891,"Ġprojev":5892,"Ġbolesti":5893,"vila":5894,"ĠmÅ¯Å¾u":5895,"Äįeno":5896,"Ġ800":5897,"Ġprezidentem":5898,"Ġposkytuje":5899,"ÄįenÃ½ch":5900,"ĠelektÅĻiny":5901,"ĠKor":5902,"ĠtvrzenÃŃ":5903,"kalo":5904,"ĠjÃŃzdÄĽ":5905,"ĠindividuÃ¡lnÃŃ":5906,"ĠexistujÃŃ":5907,"Å¾enÃ©ho":5908,"TomÃ¡Å¡":5909,"ĠosvÄĽtlenÃŃ":5910,"xe":5911,"ĠKub":5912,"NevÃŃm":5913,"MajÃŃ":5914,"osti":5915,"ĠstÃ¡vajÃŃcÃŃ":5916,"Ġpoplatky":5917,"ĠsoudÃŃ":5918,"jet":5919,"ĠSpo":5920,"Bu":5921,"Ġodchod":5922,"ĠvlÃ¡":5923,"ĠMÃ¡m":5924,"ĠPardubic":5925,"Ġtextu":5926,"ĠklÃ¡nÃŃ":5927,"ĠgÃ³lmana":5928,"ĠNÄĽmci":5929,"Ġpru":5930,"Ġpostoj":5931,"ĠMichael":5932,"Ġdosti":5933,"Ġfirmou":5934,"Ġbronz":5935,"VlÃ¡da":5936,"Ġnebudeme":5937,"Ġmetr":5938,"ĠobchodÅ¯":5939,"Ġzav":5940,"Ġzprac":5941,"ĠnezamÄĽstnanosti":5942,"Ġsnaha":5943,"ĠmÃ½":5944,"ĠbrÃ¡ny":5945,"pÅĻe":5946,"hÃ©":5947,"Ġok":5948,"lik":5949,"ĠodejÃŃt":5950,"ĠÄįÃ¡stka":5951,"ĠBanÃŃku":5952,"ĠJeho":5953,"ĠÃºspÄĽÅ¡nÃ©":5954,"ĠMezinÃ¡rodnÃŃ":5955,"alÃ¡":5956,"pali":5957,"rÃ¡l":5958,"Ġnestalo":5959,"Ġdesky":5960,"ĠrozhodovÃ¡nÃŃ":5961,"ĠvyÅ¡":5962,"ĠobÄįanskÃ©":5963,"ĠvÃ½let":5964,"ĠmimoÅĻÃ¡dnÄĽ":5965,"Radnice":5966,"Ġpl":5967,"Ġdoplnila":5968,"Ġjara":5969,"ĠsprÃ¡vnÃŃ":5970,"ĠhrÃ¡lo":5971,"ĠpÅ¯j":5972,"zacÃŃ":5973,"ĠtroÅ¡ku":5974,"ĠznaÄįnÃ©":5975,"ĠVol":5976,"ĠnaÅĻÃŃ":5977,"DruhÃ¡":5978,"vili":5979,"ĠpodobnÃ½ch":5980,"losti":5981,"PoprvÃ©":5982,"Å¡et":5983,"Ġ41":5984,"pÅĻÃŃ":5985,"ĠBr":5986,"sal":5987,"ĠrodinnÃ©":5988,"Ġneexistuje":5989,"ĠNÄĽmec":5990,"ĠpouÅ¾ÃŃvajÃŃ":5991,"ĠÅłtÄĽ":5992,"ĠLet":5993,"Ġpolicisty":5994,"Ġukradl":5995,"vnÃŃm":5996,"Å¾ÃŃm":5997,"Ġzastavil":5998,"ĠvyhlÃ¡Å¡enÃŃ":5999,"Ġztratil":6000,"ĠstÃ¡lo":6001,"Ġcelky":6002,"ĠsvÄĽtla":6003,"Ġjet":6004,"Ġpane":6005,"Ġzato":6006,"ĠVÃ¡noce":6007,"ĠmÃŃstnÃŃho":6008,"pala":6009,"Ġletadla":6010,"ĠJindÅĻich":6011,"ĠpÅĻijeli":6012,"livÄĽ":6013,"Ġkrev":6014,"Ġopozice":6015,"ĠBohemians":6016,"lovÃ©ho":6017,"Ġtvorby":6018,"Ġhodnota":6019,"ĠvyÅ¡lo":6020,"Ġsed":6021,"Hradec":6022,"ĠatraktivnÃŃ":6023,"ĠpozdÄĽ":6024,"NaÅ¡tÄĽstÃŃ":6025,"ĠRakousku":6026,"Ġkonkurence":6027,"ĠÃºsilÃŃ":6028,"Ġslunce":6029,"ĠkrÃ¡le":6030,"ĠliÅ¡ÃŃ":6031,"ĠkaÅ¾dÃ½m":6032,"Ġodstra":6033,"Ġzni":6034,"ĠChomutov":6035,"ĠtÅĻÃŃd":6036,"plo":6037,"Å¾ujÃŃ":6038,"Kolik":6039,"ĠsnÄĽ":6040,"lenou":6041,"ĠzÃ¡pasem":6042,"ĠvyrovnÃ¡nÃŃ":6043,"Ġpovrchu":6044,"bar":6045,"Ġjmenuje":6046,"oby":6047,"ĠÄįtenÃŃ":6048,"ĠvÃŃtr":6049,"ĠzmÄĽnil":6050,"ĠduÅ¡e":6051,"ZlÃŃn":6052,"ĠsÃ¡l":6053,"Ġtla":6054,"ĠzajÃŃmÃ¡":6055,"ĠvznikÃ¡":6056,"Ġskle":6057,"ĠvÃ½roba":6058,"Ġnarazil":6059,"Spolu":6060,"ĠsedmnÃ¡ct":6061,"kujÃŃ":6062,"ĠnelÃŃbÃŃ":6063,"Ġkino":6064,"KÃģ":6065,"ĠtÃ½dnech":6066,"ĠslovenskÃ©":6067,"Nikdy":6068,"Ġcvi":6069,"Ġplav":6070,"Projekt":6071,"slava":6072,"ĠgymnÃ¡zia":6073,"ĠcestovnÃŃ":6074,"Ġspravedlnosti":6075,"Ġpozemku":6076,"ĠmÃ½ch":6077,"US":6078,"pce":6079,"ĠznamenÃŃ":6080,"ĠvyuÅ¾il":6081,"ĠdospÄĽlÃ©":6082,"zd":6083,"Ġgra":6084,"ĠnÃ¡sledky":6085,"VÃŃ":6086,"JakÃ½":6087,"ĠpodÃ¡":6088,"ĠRus":6089,"ĠbazÃ©nu":6090,"ĠbÅĻehu":6091,"ĠBudÄĽjovic":6092,"vanÃ½":6093,"Ġkonstrukce":6094,"ĠpovÄĽst":6095,"Ġnechala":6096,"ĠautorÅ¯":6097,"Ġinspi":6098,"Ġdobou":6099,"ĠÅĻÃŃdit":6100,"mie":6101,"ĠzahÃ¡jÃŃ":6102,"nutÃ©":6103,"ĠpÃ¡d":6104,"Ġsoudem":6105,"kci":6106,"ÅĻa":6107,"ĠpÅĻevzal":6108,"ĠvÅ¾dyÅ¥":6109,"Ġ51":6110,"Dr":6111,"Ġkomu":6112,"Ġvybav":6113,"ĠosmnÃ¡cti":6114,"OL":6115,"ĠpÅĻedsedou":6116,"vosti":6117,"SS":6118,"Ġbrance":6119,"ĠsituacÃŃ":6120,"ĠAno":6121,"Ġkamen":6122,"Ġoken":6123,"ĠpodobnÃ©ho":6124,"ĠgenerÃ¡l":6125,"Ġsouboji":6126,"ChtÄĽl":6127,"ĠtakzvanÃ©":6128,"Ġstudiu":6129,"Ġrozhodovat":6130,"ĠsmÄĽr":6131,"Ġzkou":6132,"Ġobnov":6133,"orÅ¯":6134,"ĠLÃ¡":6135,"PenÃŃze":6136,"Ġnaz":6137,"ĠvÃŃtÄĽzÅ¯":6138,"DalÅ¡ÃŃm":6139,"ÅĻela":6140,"ĠvÃ½voji":6141,"ĠTÃ¡bor":6142,"Chceme":6143,"ĠhodnotÃŃ":6144,"Prezident":6145,"ĠPÅĻÃŃbram":6146,"ĠprodÃ¡vÃ¡":6147,"ĠpohodÄĽ":6148,"chala":6149,"BÄĽ":6150,"Ġfakulty":6151,"Ġmat":6152,"isty":6153,"ĠtÃ½Äįe":6154,"ĠdokonÄįenÃŃ":6155,"ĠhostovÃ¡nÃŃ":6156,"jÃŃm":6157,"ĠVarech":6158,"ĠukÃ¡Å¾e":6159,"ĠotevÅĻe":6160,"stickou":6161,"ĠvysvÄĽtlit":6162,"ĠkrajskÃ½ch":6163,"ĠnemovitostÃŃ":6164,"ĠTÃ½":6165,"Ġgene":6166,"Ġbal":6167,"mr":6168,"lÃŃka":6169,"ĠbÃ½valÃ½ch":6170,"avÃ¡":6171,"MusÃŃme":6172,"BO":6173,"Ġstaly":6174,"Ġdole":6175,"ĠVysoÄįina":6176,"Olomouc":6177,"ĠZemÄĽ":6178,"cent":6179,"ĠÅła":6180,"ĠhroznÄĽ":6181,"ĠbÃ½vajÃŃ":6182,"ĠnestaÄįÃŃ":6183,"Ġposil":6184,"rnÃ©":6185,"ĠzÃ¡stupcÅ¯":6186,"ĠPolicie":6187,"Ġtre":6188,"Ġpodepsal":6189,"ĠubytovÃ¡nÃŃ":6190,"Ġbra":6191,"bli":6192,"ĠpÅĻedmÄĽty":6193,"dia":6194,"pech":6195,"ĠarmÃ¡da":6196,"ĠvÄĽtÅ¡ÃŃch":6197,"ĠKÅĻi":6198,"up":6199,"Ġpokoj":6200,"ĠmÃŃstnÃŃm":6201,"raÅ¾":6202,"Ġkru":6203,"ĠzemÄĽdÄĽlskÃ©":6204,"dovÃ©":6205,"Ġsklad":6206,"ĠvÄĽnoval":6207,"ince":6208,"ĠpÅĻevÃ¡":6209,"Ġdoktor":6210,"kÃ¡ÅĻi":6211,"Ġplayoff":6212,"niÄįka":6213,"ĠÄįtenÃ¡ÅĻi":6214,"zl":6215,"Ġobor":6216,"ĠJir":6217,"ĠdÄĽtskÃ½ch":6218,"Å¡Ã¡":6219,"ĠnÄĽkam":6220,"ĠpÅĻekvapivÄĽ":6221,"ĠodpovÄĽdnost":6222,"rit":6223,"Ġdorost":6224,"ĠdÃŃvka":6225,"Ġvolbami":6226,"liv":6227,"Ġkomplex":6228,"ĠvÃ½daje":6229,"Ġpara":6230,"Ġnebe":6231,"ĠIng":6232,"ÄįovÃ¡nÃŃ":6233,"ĠnÄĽmeckÃ½ch":6234,"ĠpÅĻedpoklÃ¡dÃ¡":6235,"ĠpÅĻedstavil":6236,"LetoÅ¡nÃŃ":6237,"ĠpsÃ¡t":6238,"ÅĪÃ¡k":6239,"ĠpodpoÅĻit":6240,"ĠprÅ¯kaz":6241,"ÄįÃŃn":6242,"ĠPÅĻÃŃbrami":6243,"ĠÃºdolÃŃ":6244,"sed":6245,"Ġono":6246,"ĠpÃ¡tku":6247,"ĠÅ¡patnÃ½":6248,"ham":6249,"Ġlinky":6250,"ĠhoÅĻ":6251,"ĠmalÃŃ":6252,"bat":6253,"Ġtrasy":6254,"ĠpÅĻipadÃ¡":6255,"ĠzvÃŃÅĻe":6256,"ĠpÅĻesvÄĽdÄįit":6257,"ĠinternetovÃ©":6258,"ord":6259,"Ã¡lÅ¯":6260,"dov":6261,"nec":6262,"mili":6263,"ĠmarnÄĽ":6264,"kÃ©m":6265,"ĠnÃ¡vÅ¡tÄĽvy":6266,"ovatelÃ©":6267,"Ġformy":6268,"Ġsestavy":6269,"Ġjednotek":6270,"ĠosobnÃŃho":6271,"Mar":6272,"Ġ95":6273,"ĠnatÃ¡ÄįenÃŃ":6274,"ĠSal":6275,"Ġaktivit":6276,"anem":6277,"ĠvyÅ¾aduje":6278,"ĠKla":6279,"Ġfi":6280,"ticky":6281,"Ġpodpora":6282,"ĠDO":6283,"ĠBro":6284,"ĠpÅĻinese":6285,"ĠpohÃ¡":6286,"Ġ59":6287,"Ġchemi":6288,"Ġinvestic":6289,"pisu":6290,"Ġohledem":6291,"Ġdohod":6292,"Ã©ry":6293,"Ġparlament":6294,"ĠSb":6295,"vÄĽt":6296,"Ġot":6297,"cit":6298,"Ġ1945":6299,"ĠStÃ¡tnÃŃ":6300,"ĠÅĻekne":6301,"ĠÄĮechÅ¯":6302,"ĠjÃŃzdu":6303,"Ġrespekt":6304,"DE":6305,"Ġcharakter":6306,"ĠprodÃ¡vat":6307,"ĠsezÃ³ny":6308,"ĠhrÃ¡ÄįÅ¯m":6309,"ĠoddÃŃlu":6310,"ĠdÄĽjin":6311,"ld":6312,"tan":6313,"zaÄįnÃŃ":6314,"ĠÅ¡ampionÃ¡t":6315,"ĠPohÃ¡ru":6316,"dÄĽly":6317,"vedl":6318,"ĠLan":6319,"ĠNez":6320,"ĠsprÃ¡vce":6321,"Ġorganizaci":6322,"mÃŃn":6323,"ĠPrahu":6324,"lt":6325,"ĠvÃ½stavÄĽ":6326,"Ġvlak":6327,"nÃŃmu":6328,"ĠdotacÃŃ":6329,"Ġinvestovat":6330,"Ġreagoval":6331,"ĠvÅ¡ÃŃm":6332,"ĠkuchynÄĽ":6333,"oda":6334,"sad":6335,"stva":6336,"ovanÃ½mi":6337,"ĠÃºvahu":6338,"ĠotevÅĻenÃ©":6339,"Ġri":6340,"ĠloÅĪskÃ½":6341,"Nejen":6342,"Å¡nÃŃ":6343,"ĠÃºspÄĽÅ¡nÃ½":6344,"ĠbÄĽÅ¾":6345,"ĠpÅĻipo":6346,"fil":6347,"Ġobjevily":6348,"Å¡tÄĽm":6349,"Ġolej":6350,"Ġsub":6351,"ĠpostavÃŃ":6352,"ĠlÃ©":6353,"ĠuÄįÃŃ":6354,"Ġzahraje":6355,"ĠÃºspÄĽchy":6356,"ĠPRAHA":6357,"EZ":6358,"VÅ¡echno":6359,"ĠpamÃ¡t":6360,"Ġunii":6361,"chi":6362,"ĠMÄĽstskÃ©":6363,"chat":6364,"alou":6365,"Ġoce":6366,"OVÃī":6367,"Ġhrou":6368,"Ġherci":6369,"ĠtÄĽle":6370,"Ġautora":6371,"ĠneplatÃŃ":6372,"ÅĪÃ¡":6373,"ĠJiÅ¾nÃŃ":6374,"Ġmzdy":6375,"ĠsportovnÃŃch":6376,"Ġvypadalo":6377,"ĠkÅ¯Å¾i":6378,"Ġnohou":6379,"hlav":6380,"tÃŃn":6381,"Lo":6382,"ĠstandardnÃŃ":6383,"nÄĽnÃ¡":6384,"ĠjejÃŃmÅ¾":6385,"Ġenergii":6386,"La":6387,"Ġvybral":6388,"ĠdrÅ¾et":6389,"ĠPÅĻerov":6390,"Sto":6391,"ĠotevÅĻÃŃt":6392,"Ġkoupil":6393,"ĠjinÃ½mi":6394,"ĠzpÄĽvÃ¡k":6395,"sÃŃm":6396,"Ġuni":6397,"jeli":6398,"ĠpÅĻipravujÃŃ":6399,"ĠpoÄį":6400,"jen":6401,"Ġkost":6402,"ĠzÃ¡kaznÃŃky":6403,"ĠsystÃ©mem":6404,"Ġinformaci":6405,"ĠpÅĻedstavujÃŃ":6406,"Ġnor":6407,"lilo":6408,"benÃŃ":6409,"Su":6410,"ĠzÃ¡leÅ¾itosti":6411,"tnÃŃch":6412,"Ġen":6413,"ĠsenÃ¡tor":6414,"ÅĺÃį":6415,"ĠpobÃŃ":6416,"ĠKru":6417,"ĠdemokratÃ©":6418,"ĠÅ¡tÃŃ":6419,"ÅĻad":6420,"ĠMichala":6421,"ĠoÄįÃŃ":6422,"stika":6423,"ĠnÄĽkomu":6424,"ĠpoÅ¾Ã¡r":6425,"Ġshod":6426,"ĠkoneÄįnÃ©":6427,"que":6428,"ĠdlouhÃ½":6429,"ĠstarÃ©ho":6430,"SKÃī":6431,"ĠDavida":6432,"Ġ[":6433,"ĠÃºvÄĽr":6434,"ĠnovinÃ¡ÅĻi":6435,"ĠreÅ¾isÃ©ra":6436,"ĠPaÅĻÃŃÅ¾i":6437,"Al":6438,"rb":6439,"ĠmlÃ©ka":6440,"Ġnikomu":6441,"Ġorganiz":6442,"Byli":6443,"ĠnÃŃmÅ¾":6444,"Josef":6445,"Ġmodely":6446,"ĠAlena":6447,"ĠpÅĻipravila":6448,"Ġsouhlas":6449,"ĠfunkcÃŃ":6450,"novou":6451,"ĠFin":6452,"ĠPrÅ¯":6453,"HodnÄĽ":6454,"ĠnasazenÃŃ":6455,"ĠFran":6456,"Ġforma":6457,"Ġrozhovor":6458,"ĠsnÃŃÅ¾il":6459,"ĠopakovanÄĽ":6460,"ĠBeneÅ¡":6461,"ĠsÃŃtÃŃ":6462,"ĠuÅ¾i":6463,"Ġproudu":6464,"Ġhodinou":6465,"vanÃ½ch":6466,"ĠFe":6467,"ĠYork":6468,"Ġkombinaci":6469,"Autor":6470,"Ġpodal":6471,"ĠPÃ¡":6472,"ĠCup":6473,"vatel":6474,"ĠzÅĻejmÃ©":6475,"ĠtvÃ¡ÅĻe":6476,"ovskÃ©ho":6477,"TÃ½m":6478,"ĠlitrÅ¯":6479,"Ã©n":6480,"ĠobecnÃŃ":6481,"Å¡tÄĽnÃ©":6482,"Ġpolitickou":6483,"ĠinternetovÃ½ch":6484,"Ġznamenalo":6485,"Ġvysoce":6486,"Ġnekon":6487,"Ġdrah":6488,"bl":6489,"Ġjazyk":6490,"ĠsoupeÅĻem":6491,"Ġjo":6492,"ert":6493,"ĠÅĻeditelem":6494,"Ġvrch":6495,"ĠtÃ½dnÄĽ":6496,"ĠBur":6497,"ĠpamÃ¡tek":6498,"ĠÃºÅĻadÅ¯":6499,"Ġobjemu":6500,"Ġoko":6501,"Ġreprezentant":6502,"VÃ¡":6503,"kaz":6504,"Ġjaro":6505,"ĠpoÅ¡kozenÃŃ":6506,"ĠdosÃ¡hla":6507,"ĠUS":6508,"ation":6509,"Ġmusely":6510,"ast":6511,"Ġvyu":6512,"ĠstÅĻelou":6513,"ĠZA":6514,"OD":6515,"ĠdoufÃ¡m":6516,"Ġome":6517,"Ġtenis":6518,"dÃ½":6519,"Ġskladby":6520,"ĠtrÃ©nink":6521,"Ġtrend":6522,"ĠnÃ¡stroje":6523,"orem":6524,"ÅĪujÃŃcÃŃ":6525,"boj":6526,"Ġbran":6527,"ĠhledajÃŃ":6528,"ĠÃºtoÄįnÃŃka":6529,"lad":6530,"dice":6531,"Ġvybudovat":6532,"ĠstrojÅ¯":6533,"ĠÃºÅĻednÃŃci":6534,"zou":6535,"ĠporovnÃ¡nÃŃ":6536,"nutÃŃm":6537,"ĠdevadesÃ¡tÃ½ch":6538,"kÃ¡n":6539,"inci":6540,"Ġautomaticky":6541,"ĠtÅĻinÃ¡cti":6542,"ĠmÃŃÅĻe":6543,"Kraj":6544,"Ġpodnikatele":6545,"ZÃ¡pas":6546,"ĠlevnÄĽjÅ¡ÃŃ":6547,"ovacÃŃho":6548,"ĠjelikoÅ¾":6549,"ĠJsou":6550,"ĠvybudovÃ¡nÃŃ":6551,"ĠvÃ½hodu":6552,"ĠvyrÃ¡bÄĽ":6553,"ĠkolegovÃ©":6554,"Ġtlaku":6555,"ĠvytvoÅĻili":6556,"ĠVÃ½stava":6557,"ĠJitka":6558,"ia":6559,"ĠByla":6560,"Ġroman":6561,"ĠÅ¾Ã¡dÃ¡":6562,"Pra":6563,"stili":6564,"tiva":6565,"ĠvÃ¡Å¾nÃ©":6566,"VÄĽÅĻÃŃm":6567,"ĠBruselu":6568,"cena":6569,"ĠmezinÃ¡rodnÃŃho":6570,"ĠDagmar":6571,"Ġmozku":6572,"ĠnesmÃŃrnÄĽ":6573,"ĠmenÅ¡ÃŃch":6574,"Ġvtip":6575,"Å¡ice":6576,"Ġobchody":6577,"cie":6578,"Ġrod":6579,"ĠrozÅ¡ÃŃ":6580,"ĠvybÃŃrat":6581,"Ġspokojeni":6582,"Ġlogi":6583,"kovali":6584,"ĠNova":6585,"ĠzastÅĻe":6586,"Ġlimit":6587,"ĠdÅ¯leÅ¾itÃ¡":6588,"ĠAb":6589,"ĠtÅĻetinu":6590,"ĠpokaÅ¾dÃ©":6591,"Ġdluh":6592,"ĠnÃ¡klad":6593,"ĠevropskÃ©ho":6594,"ĠzloÄįin":6595,"ĠzvÃ½Å¡ÃŃ":6596,"ĠjÃŃdla":6597,"Ġpocity":6598,"Ġklienty":6599,"ĠzÃ¡vÄĽreÄįnÃ©":6600,"ĠvyjÃ¡dÅĻit":6601,"ĠprestiÅ¾nÃŃ":6602,"ĠobchodnÃŃch":6603,"Ġpochyb":6604,"razil":6605,"Ġ1968":6606,"ĠÅ¾Ã¡dostÃŃ":6607,"oviÄį":6608,"ĠJablonec":6609,"ĠtisÃŃci":6610,"Å¡ly":6611,"Ġkontaktu":6612,"Ġobjevili":6613,"Ġsehnat":6614,"ĠÄįemu":6615,"ĠnedÄĽlnÃŃ":6616,"Å½i":6617,"ĠWal":6618,"ĠpoÄįÃ¡tkem":6619,"ĠjemuÅ¾":6620,"Ġobsadil":6621,"ÅĻena":6622,"ĠnakladatelstvÃŃ":6623,"Ġozdob":6624,"jÅ¡ÃŃm":6625,"ĠznÃ¡mÃ¡":6626,"pel":6627,"Ġnahradit":6628,"Ġpacient":6629,"Äįena":6630,"ĠkancelÃ¡ÅĻ":6631,"stvo":6632,"ĠhereÄįka":6633,"Ġvzduch":6634,"ĠvÃ¡lka":6635,"ĠÄįinnostÃŃ":6636,"ĠseriÃ¡l":6637,"ĠpÅĻechodu":6638,"ĠÄįesko":6639,"Ġweb":6640,"ÄįnÃŃk":6641,"NÃ¡vÅ¡tÄĽvnÃŃci":6642,"Ġkvalita":6643,"Ġvydala":6644,"vanÃ¡":6645,"Soud":6646,"Ġopat":6647,"PÅĻiprav":6648,"ĠÅĻeÄįi":6649,"SKÃĿ":6650,"ĠnÃŃzkÃ©":6651,"Ġpode":6652,"ĠtechnickÃ½ch":6653,"Ġvznikne":6654,"Å¾ka":6655,"liÅ¡":6656,"Ġrock":6657,"ĠnabÃŃdl":6658,"Ġzahrnuje":6659,"Ġves":6660,"Ġdem":6661,"Ġreagovat":6662,"CÃŃlem":6663,"kop":6664,"Ġpopsala":6665,"Ġsam":6666,"ĠdennÃŃ":6667,"vÃŃm":6668,"ĠSO":6669,"ĠvstÅĻelil":6670,"zenou":6671,"ĠzÃ¡vodech":6672,"ĠRakouska":6673,"ÃļstÃŃ":6674,"ĠLigy":6675,"ĠHou":6676,"inovÃ¡":6677,"port":6678,"Ġ64":6679,"ĠPÃŃsku":6680,"Ġtlu":6681,"ĠpovaÅ¾ujÃŃ":6682,"vnÃŃho":6683,"ĠzÃ¡konÅ¯":6684,"Ġzakou":6685,"cel":6686,"ĠohlednÄĽ":6687,"zat":6688,"bur":6689,"Ġdodat":6690,"ĠnejlepÅ¡ÃŃho":6691,"tÃ¡nÃŃ":6692,"era":6693,"ĠautÄĽ":6694,"Ġdoprovod":6695,"ĠvydÃ¡vÃ¡":6696,"ĠtrestnÃ½":6697,"ZÃ¡jem":6698,"ĠsamÃ©":6699,"ĠUnie":6700,"Ġnas":6701,"ĠpsÅ¯":6702,"ĠdÅ¯vÄĽry":6703,"ĠzaloÅ¾il":6704,"ĠvyrÃ¡bÃŃ":6705,"ĠÂ°":6706,"ĠHÃ¡":6707,"ĠÄįela":6708,"ĠKdo":6709,"ĠAmeriky":6710,"Ġstopy":6711,"ĠzdÃ¡lo":6712,"Ġobjekty":6713,"Ġzima":6714,"dru":6715,"ĠpÅĻipravena":6716,"PÅĻÃŃpad":6717,"ĠpÅĻiblÃŃÅ¾il":6718,"Ġprovo":6719,"ĠEd":6720,"sili":6721,"ĠoznaÄį":6722,"ĠnÃ¡kupu":6723,"LU":6724,"rus":6725,"Ġvypu":6726,"ĠvaÅ¡eho":6727,"Ġoslavy":6728,"rÃ¡ch":6729,"ĠCha":6730,"Ġostrov":6731,"ĠbezmÃ¡la":6732,"bami":6733,"ĠkampanÄĽ":6734,"ĠzpÅ¯sobu":6735,"rum":6736,"ĠpoznÃ¡":6737,"ĠnynÄĽjÅ¡ÃŃ":6738,"ĠrychlostÃŃ":6739,"Ġstali":6740,"ĠRou":6741,"kly":6742,"NI":6743,"ZaÄįÃ¡tek":6744,"ĠÄįasopisu":6745,"An":6746,"Ġsotva":6747,"Ġprodukty":6748,"Ġtypy":6749,"mysl":6750,"Ġrozum":6751,"Ġcelo":6752,"Ġcharakteri":6753,"ĠzveÅĻej":6754,"nÄĽnÃŃm":6755,"ĠJed":6756,"ĠptÃ¡":6757,"Ġodnesl":6758,"ĠChceme":6759,"ĠpÅĻinesla":6760,"Ġpoplatek":6761,"Ġzastupitelstvo":6762,"ĠkulturnÃŃch":6763,"ÄĮasto":6764,"ĠzajÃŃmavÃ½":6765,"Ġnesou":6766,"ĠsÃŃ":6767,"ĠnÄĽkterÃ¡":6768,"ĠpotÅĻeb":6769,"Ġpol":6770,"Ġnos":6771,"ĠmÃ¡lem":6772,"tura":6773,"Ġmodelu":6774,"ĠpÅĻenos":6775,"ĠfilmovÃ©":6776,"ÄįanÃ©":6777,"Ġvzniknout":6778,"kcÃŃ":6779,"ĠpÄĽta":6780,"ĠkulturnÃŃm":6781,"ĠsystÃ©mÅ¯":6782,"ĠpÅĻeje":6783,"ĠskÃ¡":6784,"tacÃŃ":6785,"Ġturisty":6786,"Ġrohu":6787,"Ġrozporu":6788,"ĠrodinnÃ½ch":6789,"ĠPou":6790,"ĠpÅĻÃŃstupu":6791,"ĠÄįtenÃ¡ÅĻÅ¯":6792,"MO":6793,"ĠBy":6794,"Ġmetropole":6795,"Ġosoba":6796,"Ġvazby":6797,"Ġpoznat":6798,"ĠÅĻeditelstvÃŃ":6799,"ĠNAD":6800,"Ġrizika":6801,"ĠobjevujÃŃ":6802,"grafie":6803,"ĠAd":6804,"ĠsvÄĽtovÃ½":6805,"ĠfrancouzskÃ©":6806,"ĠhvÄĽzda":6807,"Ġvozidlo":6808,"ĠmagistrÃ¡t":6809,"26":6810,"ĠmÄĽsÃŃÄįnÃŃ":6811,"ill":6812,"ĠaktivnÄĽ":6813,"Ġbavit":6814,"Ġchyba":6815,"Ġvelitel":6816,"ĠOldÅĻich":6817,"ĠSuper":6818,"ĠvÄĽk":6819,"bav":6820,"bem":6821,"Ġtvo":6822,"ĠÅ¡etÅĻenÃŃ":6823,"ĠdoplÅĪuje":6824,"Ġjunior":6825,"Ġregist":6826,"ĠnepÅĻÃŃ":6827,"ĠsouÄįÃ¡st":6828,"cher":6829,"OT":6830,"Ġgo":6831,"ĠdraÅ¾Å¡ÃŃ":6832,"ĠspoÄįÃŃvÃ¡":6833,"Jedno":6834,"ĠpatÅĻit":6835,"ĠbojÃŃ":6836,"ĠlyÅ¾ovÃ¡nÃŃ":6837,"ĠvybÃŃ":6838,"Ġproud":6839,"lel":6840,"ĠokamÅ¾ik":6841,"ĠhlÃŃ":6842,"ĠLen":6843,"Ġpsy":6844,"Ġposti":6845,"Ġnutno":6846,"ĠodpovÄĽdi":6847,"ĠpomÄĽru":6848,"Åĺe":6849,"Ġklient":6850,"ĠBohu":6851,"ĠdostÃ¡vajÃŃ":6852,"mani":6853,"Ġvyrazil":6854,"ĠTÅĻe":6855,"Ġnesp":6856,"ĠmodrÃ©":6857,"lÃ¡m":6858,"tiku":6859,"jezd":6860,"bali":6861,"ĠznajÃŃ":6862,"ĠzÃ¡leÅ¾itostÃŃ":6863,"ĠdneÅ¡nÃŃho":6864,"ĠÅĻÃŃkÃ¡m":6865,"Ġpartnera":6866,"ĠAÅ¾":6867,"asi":6868,"Ġsestra":6869,"lku":6870,"ĠChu":6871,"ĠporuÅ¡enÃŃ":6872,"Ġrodinou":6873,"Ã¡tky":6874,"ĠmyÅ¡lenky":6875,"ĠatmosfÃ©ra":6876,"ĠVan":6877,"VÃ¡clav":6878,"Ġdceru":6879,"stÃ½":6880,"ĠpÅĻene":6881,"ĠstrÃ¡Å¾nÃŃkÅ¯":6882,"KINO":6883,"ĠdÅ¯chodu":6884,"ĠuÄįit":6885,"ĠdohodÄĽ":6886,"avi":6887,"ProstÄĽ":6888,"kin":6889,"Ġpodat":6890,"UD":6891,"ĠvrÃ¡tili":6892,"ĠGroup":6893,"Ġcho":6894,"vnÃŃch":6895,"ĠzÃ¡pad":6896,"Ġreprezentaci":6897,"ĠuvÃŃ":6898,"ĠzprÃ¡v":6899,"Ġobdiv":6900,"pas":6901,"Ġpublikum":6902,"ĠmanÅ¾elkou":6903,"ĠJÃŃ":6904,"ĠbÃ¡":6905,"ĠvÃ¡mi":6906,"Ġdokumenty":6907,"lon":6908,"ĠsmÄĽje":6909,"ĠkandidÃ¡t":6910,"ĠovÄĽ":6911,"ĠcÃŃtit":6912,"ĠnÄĽjakÃ©ho":6913,"ĠrÃ¡nu":6914,"ĠpÅĻÃŃstroje":6915,"lÃ½m":6916,"jÅ¡ÃŃch":6917,"Ġbudovu":6918,"ĠbritskÃ©":6919,"sob":6920,"ĠBel":6921,"nÄĽte":6922,"ĠdospÄĽlÃ½ch":6923,"99":6924,"ĠproÅ¡el":6925,"stÃ¡vÃ¡":6926,"MusÃŃ":6927,"Ġbeze":6928,"ĠSpartÄĽ":6929,"ĠkW":6930,"Ġdohodu":6931,"ÅĻeno":6932,"ĠtvrdÄĽ":6933,"ĠvolnÃ©ho":6934,"Ġropy":6935,"Ġvlastnosti":6936,"ProblÃ©m":6937,"ĠsoukromÃ½ch":6938,"Poz":6939,"Ġminutu":6940,"ĠzÃ³ny":6941,"Ġat":6942,"lez":6943,"ĠoznaÄįenÃŃ":6944,"Ġfederace":6945,"Ġpozn":6946,"ÄĮlovÄĽk":6947,"Ġsporu":6948,"RU":6949,"Ġkolega":6950,"chÃ½":6951,"ĠnahrÃ¡":6952,"ĠtrestnÃ©":6953,"ĠcÃŃrkve":6954,"ÅĺidiÄį":6955,"ĠvytvÃ¡ÅĻÃŃ":6956,"snÃ½":6957,"Ġzuby":6958,"Ġslad":6959,"ĠPR":6960,"Ġpojede":6961,"Ġkvalifikaci":6962,"PRO":6963,"tion":6964,"Ã©ÅĻi":6965,"nalo":6966,"Ġpy":6967,"ĠpomÄĽr":6968,"Ġpromile":6969,"ĠproduktÅ¯":6970,"pt":6971,"ĠME":6972,"ĠnevadÃŃ":6973,"MÅ¯Å¾ete":6974,"telnÃ½ch":6975,"Ġbrankou":6976,"ĠostatnÃŃm":6977,"Ġsoli":6978,"ÅłÃį":6979,"ÅĻov":6980,"ĠpÅ¯lnoci":6981,"ĠskonÄįili":6982,"ĠokolnÃŃch":6983,"ĠdalÅ¡ÃŃmu":6984,"ĠstÅĻelu":6985,"ĠdÃ¡lnici":6986,"Ġtem":6987,"ĠmezinÃ¡rodnÃŃch":6988,"ĠporÃ¡Å¾ku":6989,"ĠzÅ¯staly":6990,"uÅ¡":6991,"Ġis":6992,"Ã©ru":6993,"Ġpokry":6994,"Ġtru":6995,"ĠzÃ¡chrannÃ©":6996,"mail":6997,"ĠorgÃ¡ny":6998,"Ġmotiv":6999,"zet":7000,"ĠkaÅ¾dÃ©mu":7001,"aku":7002,"ĠÄįa":7003,"Ġkoupi":7004,"Ġmyslet":7005,"ĠChy":7006,"Ġdvor":7007,"ĠÄįervenÃ©":7008,"Ġokruh":7009,"Ġ>":7010,"ĠBan":7011,"cenÃ½ch":7012,"ĠChebu":7013,"Ġut":7014,"ĠnÃ¡rod":7015,"stin":7016,"ĠpoloÅ¾":7017,"nskÃ½ch":7018,"pilo":7019,"Ġpokoje":7020,"ĠpÅĻedstavu":7021,"Ġmulti":7022,"Ġgalerii":7023,"ĠpracoviÅ¡tÄĽ":7024,"peÄį":7025,"ĠvÄĽtÅ¡ÃŃm":7026,"dlÃŃ":7027,"ĠÃºsek":7028,"ĠinstitucÃŃ":7029,"Ġsocha":7030,"Ġpacienty":7031,"Ġporu":7032,"rozen":7033,"out":7034,"ĠÅ¡irokÃ©":7035,"Ġprivatizace":7036,"ĠsloÅ¾itÃ©":7037,"Ġtepla":7038,"ĠztrÃ¡cÃŃ":7039,"ĠHora":7040,"Ġpal":7041,"ĠpotÅĻetÃŃ":7042,"Ġkrku":7043,"Ġautobusy":7044,"ĠsilnÄĽjÅ¡ÃŃ":7045,"stali":7046,"ĠbrÃ¡":7047,"Å¡enÃ¡":7048,"Ġpad":7049,"ĠkapitÃ¡l":7050,"Ġrychleji":7051,"ĠstÅ¯l":7052,"stÅĻi":7053,"ĠoriginÃ¡lnÃŃ":7054,"niÄįky":7055,"ĠstÅĻechy":7056,"ÅĻskou":7057,"ling":7058,"ĠhrÃ¡Äįky":7059,"ĠplzeÅĪskÃ©":7060,"cenÃ¡":7061,"ĠDou":7062,"Ġtenhle":7063,"ĠcÃŃ":7064,"Ġrespektive":7065,"teÄįnÃŃ":7066,"ĠPol":7067,"Ġjednalo":7068,"ĠvÃ½Å¡ky":7069,"Ġlov":7070,"Ġmod":7071,"Ġproje":7072,"ĠdÅĻevo":7073,"Ġ130":7074,"ĠoblÃŃbenÃ©":7075,"ÃŃk":7076,"avy":7077,"ĠcennÃ©":7078,"ĠkilogramÅ¯":7079,"JE":7080,"Ġpoku":7081,"TakovÃ½":7082,"ĠSdruÅ¾enÃŃ":7083,"Ġokraji":7084,"Ġtip":7085,"fikace":7086,"Ġdrama":7087,"ĠzastupitelÅ¯":7088,"ĠNor":7089,"ĠamerickÃ¡":7090,"ĠtÄĽÅ¾kÃ½":7091,"pak":7092,"duje":7093,"ĠtÃ½":7094,"Ceny":7095,"zenÃ©ho":7096,"Ġaktiv":7097,"ĠCom":7098,"ĠBrit":7099,"ĠprovÃ¡":7100,"Ra":7101,"ĠmÄĽstskÃ¡":7102,"ĠpÅĻizpÅ¯sob":7103,"Ġmoment":7104,"dar":7105,"Ġosudu":7106,"ĠstavebnÃŃch":7107,"Ġstro":7108,"Ġryb":7109,"ÅĪka":7110,"nÄĽno":7111,"ĠMorav":7112,"ĠDy":7113,"ĠdÃŃlny":7114,"ĠvÃ½hody":7115,"sÅ¥":7116,"Ġzvy":7117,"danÃ©":7118,"ĠpeÄį":7119,"ĠpÅ¯le":7120,"ĠJihlavy":7121,"ÅĺÃŃ":7122,"ĠTam":7123,"ĠÅ¾enÄĽ":7124,"ruh":7125,"ĠNÄĽm":7126,"ĠnÃ¡sil":7127,"Ġodst":7128,"ĠlÃ©kaÅĻskÃ©":7129,"ĠmlÃ¡dÃŃ":7130,"ĠDva":7131,"ĠnabÃŃdce":7132,"ĠPospÃŃÅ¡il":7133,"jde":7134,"Ġ1000":7135,"ĠobcÃŃch":7136,"Ja":7137,"ĠÅ¡estÃ©":7138,"ĠzajiÅ¡Å¥uje":7139,"lar":7140,"ĠpapÃŃr":7141,"Ġtvaru":7142,"ĠtyÄį":7143,"logie":7144,"ĠCupu":7145,"Ġtriumf":7146,"Ġmet":7147,"Ġcukru":7148,"ĠÄįistÃ©":7149,"ĠHej":7150,"Ġprosadil":7151,"ĠhÅĻÃŃ":7152,"Tr":7153,"lÃŃme":7154,"ĠnejniÅ¾Å¡ÃŃ":7155,"Ġkvalifikace":7156,"Ġ66":7157,"ĠkariÃ©ÅĻe":7158,"ĠjÃŃzda":7159,"Va":7160,"Ġnedal":7161,"ĠzabezpeÄįenÃŃ":7162,"ĠlÃ¡kÃ¡":7163,"ĠStarÃ©":7164,"ĠvadÃŃ":7165,"ĠGeorge":7166,"Ġbrambor":7167,"ĠstÅĻedisko":7168,"ĠKolÃŃn":7169,"Ġhy":7170,"Ġprodejny":7171,"ĠkandidÃ¡tÅ¯":7172,"Ġkle":7173,"Ġpri":7174,"Ġsch":7175,"ĠBude":7176,"ĠsmlouvÄĽ":7177,"Ġodtud":7178,"lis":7179,"Ġnemohu":7180,"ĠzjiÅ¡tÄĽnÃŃ":7181,"ĠzaznÃŃ":7182,"ĠKraj":7183,"kti":7184,"Ġhro":7185,"ĠzelenÃ©":7186,"ĠProchÃ¡zka":7187,"ĠlevÃ©":7188,"27":7189,"ĠpÅĻÃŃmÃ©":7190,"ĠsedmnÃ¡cti":7191,"ĠpÅ¯sobit":7192,"letÃŃ":7193,"Ġstanovisko":7194,"Tuto":7195,"ĠveÄįernÃŃ":7196,"ĠBob":7197,"ĠreÅ¾ii":7198,"ĠpÅĻijmout":7199,"Ġvesnici":7200,"jan":7201,"ĠzachrÃ¡nit":7202,"ĠAt":7203,"Ġkriti":7204,"ĠtrÃ¡":7205,"ĠnemÄĽly":7206,"ĠnejrÅ¯znÄĽjÅ¡ÃŃch":7207,"Ġodstav":7208,"Ġznalosti":7209,"Ġkomentoval":7210,"Ġdcery":7211,"ĠjistÃ½":7212,"ĠstÅĻel":7213,"stila":7214,"ĠHel":7215,"ĠÄįasy":7216,"Ġefekt":7217,"ĠtÃ½kajÃŃcÃŃ":7218,"ĠdÅĻe":7219,"Ġlese":7220,"Ġaneb":7221,"ĠzaslouÅ¾ÃŃ":7222,"Ġtechniku":7223,"ĠprÅ¯zkum":7224,"TakovÃ©":7225,"Å¡tÃŃch":7226,"Ġnikde":7227,"ĠÄįist":7228,"ĠpÅĻÃŃÄįinou":7229,"ĠstejnÃ½m":7230,"NÃī":7231,"slÃŃ":7232,"Å½ena":7233,"ĠdevadesÃ¡t":7234,"ĠpÅĻinÃ©st":7235,"Film":7236,"ĠtenkrÃ¡t":7237,"kol":7238,"Ġodp":7239,"OstatnÃŃ":7240,"ĠdesetiletÃŃ":7241,"adu":7242,"HasiÄįi":7243,"kÄįnÃŃ":7244,"ĠpoboÄįky":7245,"ĠKat":7246,"Ġhodnot":7247,"hÃ¡m":7248,"Ġnevyu":7249,"Ġhejtmana":7250,"Ġaplikace":7251,"ĠFo":7252,"Ġopustit":7253,"ĠuplynulÃ½ch":7254,"ĠpomÃ¡hat":7255,"ĠMiloslav":7256,"Ġrepubliku":7257,"Ġvyzna":7258,"NeÅ¾":7259,"DS":7260,"Ġsamy":7261,"ktivnÃŃ":7262,"ĠÅ¾enou":7263,"rok":7264,"ĠostÅĻe":7265,"Ġzakon":7266,"Ġreformy":7267,"ĠhodÃŃ":7268,"ĠmÄĽÅĻÃŃ":7269,"ĠKlause":7270,"Ġsleduje":7271,"ĠotevÅĻena":7272,"ĠÄĮeskÃ©m":7273,"Ġmyslel":7274,"Ġau":7275,"ĠoznÃ¡mila":7276,"ĠliterÃ¡rnÃŃ":7277,"Ġdota":7278,"Ġnemocnic":7279,"ĠnedokÃ¡zali":7280,"ĠpÅĻijal":7281,"ĠmÃŃnÄĽnÃŃ":7282,"ĠzbÃ½vÃ¡":7283,"Äįnosti":7284,"ĠzkrÃ¡":7285,"ĠtrenÃ©rem":7286,"ĠBru":7287,"ĠduchovnÃŃ":7288,"ĠÃºdaj":7289,"ĠÅ¾ivotem":7290,"Ã¡lka":7291,"Ġskal":7292,"Ġtexty":7293,"ĠpÃŃsnÃŃ":7294,"tah":7295,"ĠnedokÃ¡zal":7296,"Ġ160":7297,"nera":7298,"Å¡ÃŃk":7299,"ĠEvropskÃ¡":7300,"ĠÃºvod":7301,"ĠKli":7302,"ĠdomnÃŃvÃ¡":7303,"ĠkategoriÃŃch":7304,"ĠrÅ¯znÃ½mi":7305,"ĠvymÄĽ":7306,"Ġtvorbu":7307,"ĠdÃŃlem":7308,"ÅĻÃŃt":7309,"Ġzvolen":7310,"ĠzpÄĽvaÄįka":7311,"ĠpolicejnÃŃho":7312,"pri":7313,"ĠvydrÅ¾ÃŃ":7314,"ĠÃºÄįtu":7315,"ĠVes":7316,"ĠLos":7317,"Ġmetropoli":7318,"ID":7319,"ĠtrÃ©novat":7320,"onÅ¯":7321,"ĠkouÄįe":7322,"ĠnaÅ¡ÃŃm":7323,"Ġpoh":7324,"ĠkrÃ¡lov":7325,"ĠopoziÄįnÃŃ":7326,"ĠobÄĽti":7327,"ĠdoporuÄįenÃŃ":7328,"Ġ77":7329,"ĠtÄĽmto":7330,"ĠmÃŃsty":7331,"Ġsvobodu":7332,"Ġznamenat":7333,"ĠJde":7334,"ĠlehkÃ©":7335,"ĠÃºto":7336,"ĠposlÃ©ze":7337,"Ġrozhodnuto":7338,"ĠvÃ½robnÃŃ":7339,"Ġpos":7340,"ĠAsi":7341,"ĠpoÄįtem":7342,"ĠletiÅ¡ti":7343,"kovÃ½mi":7344,"kovskÃ½":7345,"ĠdneÅ¡nÃŃm":7346,"Ġnet":7347,"ben":7348,"ĠkrÃ¡l":7349,"ĠWe":7350,"ĠkoupaliÅ¡tÄĽ":7351,"28":7352,"Ġnavr":7353,"Ġsled":7354,"Ġkonto":7355,"ĠÃºÄįastnÃŃky":7356,"atÅĻicetiletÃ½":7357,"ĠZuzana":7358,"ĠdÅ¯vÄĽru":7359,"ĠRÃ¡":7360,"Ġtituly":7361,"ĠstrÃ¡vil":7362,"ĠpÅĻednÃ¡":7363,"net":7364,"ĠgenerÃ¡lnÃŃho":7365,"ĠsÃŃla":7366,"MusÃŃm":7367,"Å¾eli":7368,"Ġpoly":7369,"Ġ189":7370,"Ġprakti":7371,"ĠUni":7372,"Ġplnou":7373,"daly":7374,"Ġlikvidaci":7375,"Ġver":7376,"ĠnÄĽjakÃ½m":7377,"ĠsmÃŃch":7378,"Ġchla":7379,"ĠnevidÄĽl":7380,"ĠzlatÃ©":7381,"Ġge":7382,"dÄĽnÃ©":7383,"ĠhrÃ¡Äįem":7384,"toÅĻi":7385,"ĠsÃŃdlÃŃ":7386,"nula":7387,"Ġsnahu":7388,"ĠdokÃ¡zala":7389,"Å¡ela":7390,"ĠvÄĽdÄĽli":7391,"aka":7392,"ĠdigitÃ¡lnÃŃ":7393,"ĠLy":7394,"Å¡ily":7395,"ĠBanÃŃk":7396,"ĠRych":7397,"pod":7398,"Ġvyd":7399,"ĠÄĮÃŃnÄĽ":7400,"Ġskupinou":7401,"Ġneboli":7402,"ĠvÄĽÅĻit":7403,"Ġlinku":7404,"ĠsnadnÃ©":7405,"itÃ¡":7406,"Ġdneska":7407,"Ġautomobilu":7408,"ĠdÅ¯chod":7409,"Ġvenkov":7410,"Ġodcizil":7411,"Ġovlivnit":7412,"Ġhmot":7413,"ĠVlastimil":7414,"Ġosobnost":7415,"ĠCheb":7416,"ĠdÃ©lce":7417,"dnÃ¡":7418,"ĠDÄĽÄįÃŃn":7419,"alizace":7420,"ĠMÄĽstskÃ©ho":7421,"Ġim":7422,"ĠnÃ¡stup":7423,"ĠsociÃ¡lnÃŃho":7424,"Neu":7425,"ĠtÅĻetina":7426,"ĠmÃŃr":7427,"Åĺeditel":7428,"ĠKle":7429,"ĠprÅ¯mysl":7430,"tivnÄĽ":7431,"ĠodliÅ¡":7432,"ĠVÅ¡e":7433,"Ġzo":7434,"mÄĽnÃŃ":7435,"ĠneÄįekanÄĽ":7436,"ĠprovÃ©st":7437,"ĠBank":7438,"ye":7439,"mÃŃr":7440,"Ġvolit":7441,"Ġ188":7442,"VÄĽtÅ¡inou":7443,"ĠzÃ¡sahu":7444,"Ġvze":7445,"Ġhub":7446,"Ġsal":7447,"ĠpostiÅ¾enÃ©":7448,"nÄĽny":7449,"ĠBÅĻe":7450,"Ġda":7451,"ZÃ¡kladnÃŃ":7452,"Ġsmluv":7453,"ĠzakÃ¡zky":7454,"VelkÃ©":7455,"Ġregion":7456,"ĠzajistÃŃ":7457,"ĠploÅ¡e":7458,"ĠumÄĽlcÅ¯":7459,"ĠtelefonnÃŃ":7460,"ĠrostoucÃŃ":7461,"ĠuvaÅ¾uje":7462,"Ġubyt":7463,"rovÃ©ho":7464,"ĠlodÃŃ":7465,"VÄļ":7466,"sat":7467,"Å¡le":7468,"55":7469,"ĠobÄįerstvenÃŃ":7470,"ĠhernÃŃ":7471,"Ġexistenci":7472,"ĠzvlÃ¡dnout":7473,"ĠelektrickÃ©":7474,"advacetiletÃ½":7475,"ĠpÅ¯":7476,"Ġvzniklo":7477,"ĠÃºrovnÄĽ":7478,"ĠosmÃ©":7479,"ĠzlepÅ¡it":7480,"ĠKi":7481,"ĠvÃŃte":7482,"ĠKuÄįera":7483,"Ġzvu":7484,"Ġzimu":7485,"ono":7486,"ĠCor":7487,"cuje":7488,"ĠslÃŃbil":7489,"ĠrodinnÃ©ho":7490,"Ġzd":7491,"novi":7492,"ĠsociÃ¡lnÄĽ":7493,"Ġokra":7494,"ĠSil":7495,"Ġpovzbu":7496,"ĠMladÃ¡":7497,"ĠpÅĻipraveni":7498,"Kom":7499,"Mimo":7500,"Ġvybrali":7501,"Ġ68":7502,"ĠvozÃŃ":7503,"Ġzalo":7504,"ĠvylouÄįenÃŃ":7505,"bÃ¡ch":7506,"ĠstejnÃ¡":7507,"ĠvyÅ¡etÅĻ":7508,"Spo":7509,"ĠvÄįerejÅ¡ÃŃm":7510,"PÅĻedseda":7511,"ĠÄįlovÄĽku":7512,"Ġvnu":7513,"inace":7514,"Ġzby":7515,"ĠvÄĽÅ¾":7516,"ĠChrudim":7517,"ĠnauÄįit":7518,"Karel":7519,"ĠMilana":7520,"Jakmile":7521,"ĠtÄĽÅ¡ÃŃm":7522,"bÃ½":7523,"ĠvÃ½stav":7524,"ĠbÄĽÅ¾ÃŃ":7525,"ĠuzavÅĻenÃŃ":7526,"ĠkamarÃ¡d":7527,"ĠUEFA":7528,"Ġnejenom":7529,"tovat":7530,"Ġnesmysl":7531,"ĠSlÃ¡":7532,"ĠKri":7533,"ĠkomunikacÃŃ":7534,"ĠpevnÄĽ":7535,"Nepo":7536,"ÄįtÄĽjÅ¡ÃŃ":7537,"Ġosobu":7538,"ĠpÅĻÃŃstroj":7539,"Ġkanalizace":7540,"Ġprodlou":7541,"TÃ©mÄĽÅĻ":7542,"ĠgÃ³lem":7543,"Ġmaximum":7544,"Ġobvodu":7545,"ĠstÅĻelec":7546,"skovÃ¡":7547,"Ġnavzdory":7548,"ĠprovoznÃŃ":7549,"ĠletnÃŃch":7550,"Ġsme":7551,"Ġjindy":7552,"fy":7553,"Ġtrase":7554,"ĠdÃ¡rek":7555,"oz":7556,"bec":7557,"Ġ63":7558,"ÅĪovÃ¡":7559,"ĠvÃ½robci":7560,"ĠpobÅĻeÅ¾ÃŃ":7561,"Ġvzala":7562,"Ġprodukt":7563,"Ġvstoupil":7564,"ĠhokejistÅ¯":7565,"ĠJar":7566,"ĠWindows":7567,"VÃį":7568,"Ġprotest":7569,"ĠkÅ¯Å¾e":7570,"ĠzÃ¡jemcÅ¯":7571,"000":7572,"ĠKur":7573,"Ġoz":7574,"ĠsvojÃŃ":7575,"ĠnÃ¡kladnÃŃ":7576,"ĠotÃ¡":7577,"Ġnemovitosti":7578,"lig":7579,"Ġfan":7580,"Ġhranic":7581,"ĠVÄĽra":7582,"ĠjedinÃ©ho":7583,"Ġkuli":7584,"Ġpotraviny":7585,"ĠzavÃŃ":7586,"tce":7587,"Sa":7588,"ĠvraÅ¾dy":7589,"Ġstarost":7590,"Ġodsu":7591,"PS":7592,"ĠudÄĽlala":7593,"Ġtechnika":7594,"PÅ¯vodnÄĽ":7595,"ĠorganizÃ¡toÅĻi":7596,"HlavnÃŃm":7597,"ĠpÅĻichÃ¡zejÃŃ":7598,"ĠmÃ³dnÃŃ":7599,"Ġlisty":7600,"Ġpohybovat":7601,"ĠVl":7602,"ĠÅĻÃŃkat":7603,"Ġkaret":7604,"ĠkÃ¡dr":7605,"ĠWil":7606,"PrÅ¯":7607,"Ġstromu":7608,"ĠzmÄĽnila":7609,"Ġpozoru":7610,"Ġsle":7611,"Dob":7612,"ĠzbyteÄįnÃ©":7613,"BÃ½valÃ½":7614,"avou":7615,"jov":7616,"Ġobvod":7617,"stickÃ½m":7618,"ĠZÃģ":7619,"asa":7620,"Ġem":7621,"ĠlÃ¡ska":7622,"Ġobsahu":7623,"Ġkonal":7624,"ted":7625,"ers":7626,"ĠzkuÅ¡enÃ½":7627,"Tohle":7628,"Ġruchu":7629,"ĠplatebnÃŃ":7630,"ĠcelkovÃ©ho":7631,"Ġtlakem":7632,"ĠProÄį":7633,"Ġkor":7634,"Ġzeptal":7635,"ÅĻÃŃch":7636,"ĠpÅĻipustil":7637,"wi":7638,"ĠbrnÄĽnskÃ©ho":7639,"Ġpopulace":7640,"pp":7641,"spo":7642,"ĠskvÄĽlÃ½":7643,"ĠnÃ¡hle":7644,"ĠkategoriÃŃ":7645,"Ġinspekce":7646,"MÄĽla":7647,"Ġzach":7648,"Ġinform":7649,"ĠnejpozdÄĽji":7650,"ĠJE":7651,"ĠÅłu":7652,"rant":7653,"ĠneÅĻe":7654,"dalo":7655,"ĠsoupeÅĻÅ¯":7656,"ĠtÄĽmito":7657,"Ġmetody":7658,"Ġhla":7659,"Ġrostou":7660,"ket":7661,"ĠpÅĻÃŃznivci":7662,"jÃŃme":7663,"ĠpozadÃŃ":7664,"jela":7665,"vÃ¡nÃŃm":7666,"Ġpoj":7667,"anech":7668,"ÅĻenÃ½ch":7669,"sion":7670,"ĠvÃ½znamnÃ½ch":7671,"ĠdaÅĪovÃ©":7672,"novÄĽ":7673,"Dodal":7674,"ĠdovnitÅĻ":7675,"Äįkovi":7676,"Kra":7677,"Ġovliv":7678,"ĠoÄįÃŃch":7679,"ĠDan":7680,"ĠpopÃŃ":7681,"dej":7682,"ĠpÅĻipojenÃŃ":7683,"ĠzamÄĽstnÃ¡":7684,"ĠpoÅ¾Ã¡dal":7685,"ĠpÅĻevahu":7686,"ĠOs":7687,"ĠAg":7688,"ĠprÃ¡zdniny":7689,"ĠMUZEUM":7690,"Ġrealizaci":7691,"livÃ©":7692,"ĠnejrÅ¯znÄĽjÅ¡ÃŃ":7693,"rovanÃ©":7694,"ĠVojtÄĽch":7695,"ĠnepatÅĻÃŃ":7696,"ĠkoncertÅ¯":7697,"Ġsazby":7698,"ĠPÃŃ":7699,"Ġnarozeniny":7700,"Ġvyrovnal":7701,"ĠpohybujÃŃ":7702,"Ġparty":7703,"Ġryby":7704,"Ġpacienta":7705,"dÄĽlÃ¡":7706,"ĠlesnÃŃ":7707,"ĠuÅ¾ÃŃvÃ¡nÃŃ":7708,"ĠdÃŃvat":7709,"chla":7710,"PÄĽt":7711,"hodnÃ©":7712,"mali":7713,"Ġoku":7714,"Ġnastoupit":7715,"Ġbur":7716,"hro":7717,"Ġsektoru":7718,"nÄĽnÃ½ch":7719,"Ġdnem":7720,"Ġboty":7721,"ĠplnÃ¡":7722,"ĠlokalitÄĽ":7723,"Ġbolest":7724,"ÅĻek":7725,"Ġplus":7726,"ĠustanovenÃŃ":7727,"UtkÃ¡nÃŃ":7728,"ĠTou":7729,"ĠstaÄįilo":7730,"ĠzÅ¯stalo":7731,"ĠDVD":7732,"enice":7733,"Ġodbo":7734,"Ġozna":7735,"Ġzbav":7736,"ĠvÅ¯dce":7737,"ĠsezÃ³nÄĽ":7738,"Ġjazz":7739,"AS":7740,"KOV":7741,"lenÃ©ho":7742,"ĠzÃŃskalo":7743,"ovek":7744,"ĠTento":7745,"lily":7746,"Ġkrajiny":7747,"ĠdruÅ¾":7748,"ĠuvÃ©st":7749,"ĠuniverzitÄĽ":7750,"ĠzÃ¡da":7751,"ink":7752,"ĠHen":7753,"Ġasociace":7754,"ĠspoleÄįenstvÃŃ":7755,"RozhodnÄĽ":7756,"tak":7757,"Ġ99":7758,"ĠÅĺ":7759,"tnÃŃho":7760,"ĠOP":7761,"ĠVelkÃ¡":7762,"Ġkontrole":7763,"ÄĮÃ¡st":7764,"ĠprohlÃŃ":7765,"ĠneÃº":7766,"Ġov":7767,"ĠvÅ¯le":7768,"ĠKaÅ¾dÃ½":7769,"ZE":7770,"ĠodpovÄĽdÄĽt":7771,"ĠPot":7772,"Ġdluhy":7773,"ĠprozatÃŃm":7774,"Ġkdybych":7775,"ĠpÅĻÃŃbÄĽhu":7776,"Ġpoko":7777,"Å¾eny":7778,"vkou":7779,"Ġseniory":7780,"bla":7781,"Ġlan":7782,"ĠpraÅ¾skÃ½":7783,"ĠcÃŃli":7784,"ĠAC":7785,"ĠmÅ¯Å¾ou":7786,"ĠRomana":7787,"ĠdobrÃ©ho":7788,"Pi":7789,"gh":7790,"ĠÃºkoly":7791,"ĠTeÄı":7792,"ĠnejdÅĻÃŃv":7793,"ĠHro":7794,"ĠMas":7795,"Å¡kem":7796,"Ġrych":7797,"ĠpÅĻev":7798,"ĠEvropa":7799,"teri":7800,"ĠkamarÃ¡dy":7801,"jdou":7802,"ĠdÅ¯chodcÅ¯":7803,"Ġfar":7804,"ĠpovolÃ¡nÃŃ":7805,"ĠzahÃ¡jil":7806,"ĠBlesku":7807,"ĠklesÃ¡":7808,"ĠdÄĽdictvÃŃ":7809,"gar":7810,"ĠGrand":7811,"Ġet":7812,"ĠnavÅ¡tÃŃvil":7813,"ĠSlov":7814,"ĠNeÄįas":7815,"voz":7816,"Moc":7817,"ĠPoli":7818,"ĠnaÅ¡im":7819,"Ġhala":7820,"Ġpodpor":7821,"zÃ¡nÃŃ":7822,"ĠmladÃ¡":7823,"ĠtvorbÄĽ":7824,"Ġplno":7825,"OstatnÄĽ":7826,"Ġopustil":7827,"ĠnemÅ¯Å¾u":7828,"Ġoleje":7829,"ĠshromÃ¡Å¾dÄĽnÃŃ":7830,"ĠHelena":7831,"ĠNeu":7832,"ĠÅ¾iv":7833,"Ã¡z":7834,"Ġprodukci":7835,"ĠtiskovÃ¡":7836,"Ġmrt":7837,"Ġdres":7838,"nan":7839,"har":7840,"ĠDana":7841,"So":7842,"nii":7843,"Ġknihovna":7844,"ĠBud":7845,"ĠSlu":7846,"Ġposkytnout":7847,"stnÃ©":7848,"ĠvyplatÃŃ":7849,"ĠjakÃ©m":7850,"ujÃŃcÃŃm":7851,"ĠpÅĻÃŃbÄĽhy":7852,"Ġbud":7853,"Ġponi":7854,"Ġvyv":7855,"ĠpÃ¡tÃ½":7856,"ĠGross":7857,"Ġstan":7858,"Å¡ovi":7859,"ĠpoznÃ¡nÃŃ":7860,"ĠÅ¡lech":7861,"ĠMax":7862,"ĠpÅĻevod":7863,"SvÄĽt":7864,"Ġpotvr":7865,"ĠGar":7866,"Ġplu":7867,"Ġredaktor":7868,"Ġdech":7869,"Ġtesty":7870,"DI":7871,"ĠurÄįen":7872,"dÄĽjÃŃ":7873,"ĠvzÃ¡jemnÃ©":7874,"ĠspodnÃŃ":7875,"ĠrozsÃ¡hlÃ©":7876,"Ġakademie":7877,"ĠKarvinÃ©":7878,"ĠÄįtvrti":7879,"ĠViktor":7880,"tnÃŃm":7881,"Ġ201":7882,"kva":7883,"ĠoÅ¡etÅĻ":7884,"ĠÃºspor":7885,"ĠGer":7886,"ĠuplatnÄĽnÃŃ":7887,"Ġkombinace":7888,"Ġcon":7889,"TV":7890,"ĠpÃ¡n":7891,"ĠstudiÃŃ":7892,"ZdÃ¡":7893,"ĠnevÄĽdÄĽl":7894,"NÃĿ":7895,"Ġslav":7896,"ĠpÄĽÅ¡ÃŃ":7897,"The":7898,"ody":7899,"Ġjist":7900,"Ġ700":7901,"Ġboku":7902,"ĠrychlÃ½":7903,"ĠpodnikatelÅ¯":7904,"ĠpotÅĻebu":7905,"mÄĽst":7906,"rin":7907,"ĠnejvÄĽtÅ¡ÃŃho":7908,"ĠurÄįit":7909,"Ġplech":7910,"ĠotevÅĻenÃ½ch":7911,"Ġvzali":7912,"ĠzatÃ¡":7913,"ela":7914,"ĠsÃŃdliÅ¡tÄĽ":7915,"ĠbojÅ¯":7916,"StÃ¡":7917,"Ġpivovaru":7918,"ĠvaÅ¡i":7919,"ĠvysvÄĽtlenÃŃ":7920,"cin":7921,"ĠstrÃ¡":7922,"ĠnÃ¡stroj":7923,"stil":7924,"Ġzbavit":7925,"ovatele":7926,"Ġvol":7927,"ĠvybranÃ½ch":7928,"dÃ¡vÃ¡":7929,"zech":7930,"Åĩ":7931,"ĠpravdÄĽpodobnostÃŃ":7932,"ĠÅĺÃŃm":7933,"Ġohni":7934,"ĠblÃŃzkÃ©":7935,"Kri":7936,"hoda":7937,"Ġdorostu":7938,"Ġpuk":7939,"Ġvrcholu":7940,"pÅĻi":7941,"ĠtajemnÃŃk":7942,"ĠkÅĻÃŃ":7943,"sie":7944,"ĠzÃ¡vÄĽ":7945,"ĠhudebnÃŃch":7946,"Ġvyme":7947,"razÃŃ":7948,"ĠnavzÃ¡jem":7949,"spe":7950,"ĠtrestnÃ½ch":7951,"ĠtajemstvÃŃ":7952,"ĠPoslednÃŃ":7953,"ĠTan":7954,"Ġkurz":7955,"ĠKÅĻe":7956,"zra":7957,"Ġsever":7958,"Ġrozhlas":7959,"Ġhokeji":7960,"ĠWa":7961,"Ġpokusil":7962,"taÄįnÃŃ":7963,"asu":7964,"Hle":7965,"ĠstavebnÃŃho":7966,"Ġarchitekt":7967,"Ġvyda":7968,"ĠtÄĽÅ¾Å¡ÃŃ":7969,"ĠzÃºÄįastnÃŃ":7970,"Å¾enÃ½m":7971,"ilu":7972,"ĠoslabenÃŃ":7973,"ĠuvedenÃ©":7974,"ĠfÃ¡ze":7975,"ĠsÃ³":7976,"Ġplaty":7977,"Ġvych":7978,"ĠbazÃ©n":7979,"VÃŃtÄĽz":7980,"ĠLuboÅ¡":7981,"ĠstÃŃhÃ¡nÃŃ":7982,"Ã¡tÅ¯":7983,"Ġjazyka":7984,"ĠsloÅ¾":7985,"ĠpodÅĻÃŃ":7986,"ĠsvÃ¡tek":7987,"ĠjasnÃ½":7988,"ĠplnÄĽnÃŃ":7989,"ĠnezbytnÃ©":7990,"ĠÅĻÃ¡dnÄĽ":7991,"Ġrostliny":7992,"mel":7993,"Ġrukama":7994,"ĠodstranÄĽnÃŃ":7995,"ĠpovaÅ¾uji":7996,"ĠvyrovnÃ¡":7997,"Ġpun":7998,"ĠprojÃŃt":7999,"ĠQu":8000,"ĠzpoÄįÃ¡tku":8001,"ves":8002,"ĠztrÃ¡ta":8003,"Åĺekl":8004,"niky":8005,"Ġsr":8006,"Starosta":8007,"ĠpomÃ¡hajÃŃ":8008,"Ġsel":8009,"ĠÃºzemnÃŃ":8010,"Ġpokuty":8011,"ĠurÄįena":8012,"ĠsnaÅ¾ÃŃme":8013,"ĠstrÃ¡nek":8014,"ĠdÃŃ":8015,"ĠpovÃŃ":8016,"ologie":8017,"Ġdoporu":8018,"ĠnaznaÄįil":8019,"ĠbankovnÃŃ":8020,"Ġsponzor":8021,"nut":8022,"ĠmediÃ¡lnÃŃ":8023,"ĠspÃŃ":8024,"Ġgolf":8025,"ĠvÄĽdci":8026,"RAV":8027,"HrÃ¡Äįi":8028,"ĠEn":8029,"ĠzpÅ¯soby":8030,"ktor":8031,"@":8032,"ĠabsolutnÃŃ":8033,"ĠzachovÃ¡nÃŃ":8034,"Ġoto":8035,"Ġodsou":8036,"inskÃ½":8037,"ĠvzdÃ¡lenosti":8038,"GALERIE":8039,"Ġprovozuje":8040,"burg":8041,"Ġlev":8042,"ĠukÃ¡zala":8043,"Å¾nou":8044,"Ġautobusu":8045,"ĠpÄĽknÃ©":8046,"Ġspolupracovat":8047,"snÃ¡":8048,"novÃ½ch":8049,"ckem":8050,"ĠpojiÅ¡Å¥ovna":8051,"Skupina":8052,"ĠrodiÄįÅ¯m":8053,"Ġministerstvu":8054,"ĠrodiÄįi":8055,"Ġobdob":8056,"ĠpoÅ¡ko":8057,"bod":8058,"ĠhovoÅĻit":8059,"ĠÅ¾lu":8060,"Å¡enÃ½ch":8061,"Ġfin":8062,"chl":8063,"xy":8064,"ĠbÃŃ":8065,"Ni":8066,"ĠnejbliÅ¾Å¡ÃŃch":8067,"ĠKro":8068,"Rad":8069,"ĠurÄįenÃ©":8070,"ĠÅ¡kolky":8071,"Pr":8072,"Ġplochu":8073,"Ġ67":8074,"ĠvedoucÃŃho":8075,"Jihlava":8076,"ĠFal":8077,"ĠjÃŃzdnÃŃ":8078,"ĠcelÃ½ch":8079,"Ġreakci":8080,"ĠstejnÃ©ho":8081,"PrÃ¡ce":8082,"ĠÅĻek":8083,"ĠDivadlo":8084,"ako":8085,"Koncert":8086,"ĠvÃ¡l":8087,"niku":8088,"DÄļ":8089,"Ġchat":8090,"ĠdrÅ¾el":8091,"Ġples":8092,"Äįoval":8093,"ĠKom":8094,"ĠVil":8095,"Ġfyzicky":8096,"byt":8097,"ĠturistÃ©":8098,"est":8099,"ĠpololetÃŃ":8100,"rot":8101,"Ġpsychi":8102,"tik":8103,"ĠKÅĻÃŃÅ¾":8104,"ĠnovÃ½mi":8105,"Ġsm":8106,"hru":8107,"ĠzastoupenÃŃ":8108,"Ã¡nskÃ©":8109,"ĠvyhlÃŃ":8110,"ĠdopravnÃŃho":8111,"ĠobÄįanÅ¯m":8112,"ĠVen":8113,"ĠzÅ¯stanou":8114,"Ġsex":8115,"ĠspÄĽ":8116,"ĠvÃ½stavba":8117,"ĠpÅĻedmÄĽtÅ¯":8118,"Ġadrese":8119,"ĠLÃŃpa":8120,"Mnoho":8121,"ĠWi":8122,"Ġdisk":8123,"ĠOrlicÃŃ":8124,"Ġspecifi":8125,"Ġsestry":8126,"Å¾et":8127,"NÄĽkolik":8128,"ĠjedinÄĽ":8129,"ĠÄįinÅ¯":8130,"Ġnavrh":8131,"Ġvoz":8132,"DoufÃ¡m":8133,"ĠspoleÄįenskÃ©":8134,"ym":8135,"ĠPal":8136,"ĠpovinnostÃŃ":8137,"ĠsexuÃ¡lnÃŃ":8138,"ken":8139,"Ġregu":8140,"mus":8141,"vanÃ©ho":8142,"Å¡uje":8143,"ĠvyÅ¡Å¡ÃŃch":8144,"Äįenou":8145,"Ð":8146,"ĠvÃ½Å¡ce":8147,"ĠzÃ¡sadnÄĽ":8148,"rnÃŃch":8149,"ĠAm":8150,"Ġzadarmo":8151,"ĠkontÄĽ":8152,"Ġstarou":8153,"ovacÃŃm":8154,"ĠlÃŃstky":8155,"plÃ¡":8156,"Ġdistribu":8157,"tici":8158,"Ġpojmen":8159,"ĠdÄĽtskÃ©ho":8160,"lid":8161,"ĠodpovÃŃ":8162,"lev":8163,"Ġnedostal":8164,"ĠnÃ¡vÅ¡tÄĽvnÃŃkÅ¯m":8165,"ĠreklamnÃŃ":8166,"ĠdobrÃ½ch":8167,"ĠuÄįitele":8168,"ĠpÅĻeprav":8169,"ĠpÅĻÃŃtomnost":8170,"ĠorgÃ¡nÅ¯":8171,"Ġstanic":8172,"Ġvypro":8173,"29":8174,"ZÃ¡vod":8175,"cela":8176,"ĠsobotnÃŃm":8177,"ĠpÅĻibÃ½vÃ¡":8178,"ĠSla":8179,"ĠrychlejÅ¡ÃŃ":8180,"cker":8181,"75":8182,"Ġgeo":8183,"ĠzÃ¡vodnÃŃkÅ¯":8184,"vaÄį":8185,"Ġjakoby":8186,"ĠSlovan":8187,"Ġhlava":8188,"lnÃŃk":8189,"ĠsebevÄĽdomÃŃ":8190,"ĠdlouhÃ½ch":8191,"ĠlepÅ¡ÃŃm":8192,"ĠrannÃŃ":8193,"Ġpivovar":8194,"ĠKan":8195,"ĠOn":8196,"Ġpolitik":8197,"anka":8198,"Ġhumor":8199,"ĠnevidÃŃ":8200,"ĠdÃ¡rky":8201,"Ġzavr":8202,"ĠzmÃŃnÄĽnÃ©":8203,"ĠSk":8204,"Ġdostav":8205,"ĠAnglii":8206,"Ġvolno":8207,"ĠzdravotnÃŃch":8208,"Ġtrvalo":8209,"Ġpartnery":8210,"Ġrodu":8211,"fin":8212,"INA":8213,"laci":8214,"ĠÄįekali":8215,"ĠstÅĻechu":8216,"Ġdokumentu":8217,"ĠÄįistÄĽ":8218,"vÃ½mi":8219,"Ġobjevit":8220,"ĠoperaÄįnÃŃ":8221,"Ġ140":8222,"car":8223,"Ġpenalty":8224,"Ġzranil":8225,"ora":8226,"Ġnale":8227,"ĠÃºmrtÃŃ":8228,"ĠMari":8229,"ĠprosÃŃm":8230,"Ġly":8231,"Ġklad":8232,"Ġmluvil":8233,"ĠslavnostnÄĽ":8234,"Ġzneu":8235,"buje":8236,"leÅ¡":8237,"Ġbrou":8238,"ĠÄįet":8239,"ĠvyuÅ¾ili":8240,"ĠzÃºÄįastnilo":8241,"ise":8242,"ĠnosÃŃ":8243,"ĠÅĻadou":8244,"Ġodstranit":8245,"ĠpoÅĻÃŃdit":8246,"Ġresp":8247,"ction":8248,"ĠsoutÄĽÅ¾ÃŃch":8249,"rch":8250,"ĠzahrÃ¡t":8251,"Ġasist":8252,"ĠpÅĻispÄĽt":8253,"ĠnalÃ©":8254,"ĠHaÅ¡ek":8255,"Ġmajiteli":8256,"cal":8257,"Ġvrcho":8258,"Ġsekund":8259,"ĠVysoÄįinÄĽ":8260,"ĠnÃ¡sled":8261,"ĠVoj":8262,"ĠÄįerven":8263,"ĠrozdÄĽlenÃŃ":8264,"ĠMag":8265,"Ġbor":8266,"Ġkonzu":8267,"Ã³za":8268,"ĠdivÃ¡kÅ¯m":8269,"ĠbÄĽh":8270,"ĠÃºtoky":8271,"ĠpolitickÃ½":8272,"ĠNem":8273,"ĠwebovÃ½ch":8274,"ĠdÃ¡vky":8275,"Ġpotvrdit":8276,"Ġpokoji":8277,"rol":8278,"ĠkoaliÄįnÃŃ":8279,"ĠoddÃŃl":8280,"lala":8281,"Åĺada":8282,"Ġzasa":8283,"KaÅ¾dÃ¡":8284,"Ġfotbalista":8285,"ĠpracovnÃŃky":8286,"Ġorgani":8287,"Ġoper":8288,"ĠÅ¡irÅ¡ÃŃ":8289,"Ġdesku":8290,"sovÃ©":8291,"Ġkonala":8292,"Ġzani":8293,"ĠNaÅ¡e":8294,"ĠkvalitÄĽ":8295,"Ġdomin":8296,"anta":8297,"Ã¡ny":8298,"Ġvydali":8299,"ĠpostiÅ¾enÃ½ch":8300,"Ġvybud":8301,"Ġzle":8302,"Ġdiskusi":8303,"nuta":8304,"ĠpamÄĽtnÃŃ":8305,"Ġodsouzen":8306,"stnÄĽ":8307,"ĠpÅ¯vodnÃŃho":8308,"ĠMA":8309,"ĠdrÃ¡":8310,"BRNO":8311,"ĠslavnÃ©":8312,"Ġdopadne":8313,"Ġdomku":8314,"ceny":8315,"ĠpoplatkÅ¯":8316,"ĠÃºkolem":8317,"ĠsilniÄįnÃŃ":8318,"ĠdodÃ¡vky":8319,"ĠzvÃ½Å¡ila":8320,"ĠVysoÄįiny":8321,"Ġvybojoval":8322,"ĠmanÅ¾ela":8323,"Ġpochod":8324,"Ġsjezd":8325,"ĠslabÅ¡ÃŃ":8326,"ĠRady":8327,"ĠitalskÃ©":8328,"loÅ¾il":8329,"ĠNovo":8330,"Ġzaznamenali":8331,"Auto":8332,"ind":8333,"ĠSvÄĽtovÃ©ho":8334,"Ġcenou":8335,"plnÄĽ":8336,"Ġ1948":8337,"Ġinstal":8338,"ĠUSD":8339,"Ġcentrem":8340,"ĠpÃŃsk":8341,"ĠzÃºÄįastnit":8342,"ÅĺE":8343,"ĠruskÃ©ho":8344,"ĠChar":8345,"Å¡ova":8346,"Ġmono":8347,"ĠCity":8348,"dob":8349,"padÃ¡":8350,"Ġzastupitelstvu":8351,"ĠposÃŃ":8352,"ĠOpava":8353,"ĠdomÃ¡cnostÃŃ":8354,"mec":8355,"ĠneznÃ¡":8356,"Ġchlapce":8357,"vejte":8358,"Ju":8359,"Äįeny":8360,"ĠlÅ¾ÃŃce":8361,"zeni":8362,"ĠTer":8363,"tnÃ©":8364,"Ġsho":8365,"ĠKrÃ¡l":8366,"Ġtrvale":8367,"Ġzaznamenal":8368,"ĠnahoÅĻe":8369,"ĠzvÄĽ":8370,"Ġnepou":8371,"ĠzelenÃ½ch":8372,"ĠsedmÃ©":8373,"Ġvylou":8374,"ĠvÃ½robcÅ¯":8375,"ĠpolitickÃ¡":8376,"PozdÄĽji":8377,"Cho":8378,"Ġag":8379,"ĠvedlejÅ¡ÃŃ":8380,"Tra":8381,"Ġslavnosti":8382,"Ġfigu":8383,"ĠodpovÃŃdajÃŃcÃŃ":8384,"bin":8385,"Ġtop":8386,"Ġkuchyni":8387,"ĠobÅĻÃŃ":8388,"AK":8389,"Obec":8390,"ZlodÄĽj":8391,"ĠudrÅ¾enÃŃ":8392,"Ġobrovskou":8393,"Ġnau":8394,"ĠcestujÃŃcÃŃch":8395,"hovÃ¡":8396,"ĠpolitickÃ©ho":8397,"dly":8398,"Ġpozemek":8399,"jed":8400,"ĠsoukromÃŃ":8401,"Ġsnaze":8402,"Ġnomin":8403,"zili":8404,"hnu":8405,"ĠrozdÃŃly":8406,"ĠKol":8407,"ĠstupeÅĪ":8408,"kovala":8409,"ĠskonÄįily":8410,"lnÃ©":8411,"VÅ¯bec":8412,"Å¡nÃ½":8413,"Å¡nÃ¡":8414,"Ġztra":8415,"Ġobnovu":8416,"Jaroslav":8417,"ĠpÃ¡trÃ¡nÃŃ":8418,"ĠzajÃŃmavÃ½ch":8419,"Ġposlou":8420,"HL":8421,"ĠvÃ½hry":8422,"ĠsvÄĽÅĻenci":8423,"ĠHr":8424,"ĠmrzÃŃ":8425,"ĠRada":8426,"ĠzajÃŃmavÃ¡":8427,"ĠzvlÃ¡dli":8428,"Ġ110":8429,"ĠsouhlasÃŃ":8430,"Ġutr":8431,"AV":8432,"ĠÃºÄįely":8433,"Ġveletrhu":8434,"Ġemi":8435,"obÄĽ":8436,"Ġvejce":8437,"ĠÃºspÄĽchem":8438,"LÃį":8439,"ĠobÄįanskÃ©ho":8440,"ĠJiÅ¾":8441,"Ġministrem":8442,"ĠsportovnÃŃho":8443,"ĠtrzÃŃch":8444,"ĠSokola":8445,"ĠTri":8446,"rnou":8447,"mene":8448,"Ġcy":8449,"Ġreklamy":8450,"Ġsochy":8451,"ĠpÅĻÃŃtel":8452,"stoupÃŃ":8453,"ĠDom":8454,"ĠnedaÅĻÃŃ":8455,"ĠÄįlenstvÃŃ":8456,"ĠpracovnÃŃho":8457,"ZÃ¡jemci":8458,"mÄĽÅĻ":8459,"ĠLubomÃŃr":8460,"KrÃ¡":8461,"ĠJÃ¡gr":8462,"hen":8463,"DivÃ¡ci":8464,"ĠÄĮeskoslovenska":8465,"ĠteleviznÃŃch":8466,"Ġobrana":8467,"ĠrestauracÃŃ":8468,"bran":8469,"ĠvÃ½stavbÄĽ":8470,"Å¡u":8471,"Ġporadce":8472,"ĠnovinÃ¡ch":8473,"Ġvlaku":8474,"stan":8475,"ĠovzduÅ¡ÃŃ":8476,"ĠudrÅ¾":8477,"ĠvÅ¯li":8478,"ĠUrban":8479,"Ġlistopad":8480,"ĠvÄĽn":8481,"ĠosvÄĽd":8482,"ĠoÅ¡etÅĻenÃŃ":8483,"Ġtvar":8484,"ĠplnÃŃ":8485,"ĠukonÄįil":8486,"ĠpromÄĽnil":8487,"ĠdÄĽlali":8488,"ĠvÃ½tvarnÃ©":8489,"ĠpÃŃsniÄįky":8490,"Toho":8491,"ĠSed":8492,"ĠsÅ¯l":8493,"leny":8494,"stoupil":8495,"ĠpojetÃŃ":8496,"ĠvÄĽÅ¾e":8497,"Ġslab":8498,"ZÃ¡kon":8499,"ĠnÃ¡vÅ¡tÄĽva":8500,"ĠmoÅĻi":8501,"ĠsmrtÃŃ":8502,"CoÅ¾":8503,"entnÃŃ":8504,"ĠuÄįenÃŃ":8505,"Ġinici":8506,"ĠVel":8507,"IST":8508,"ĠKrumlov":8509,"hujÃŃ":8510,"ria":8511,"ĠpapÃŃru":8512,"ĠpodÃŃlel":8513,"Ġdosah":8514,"ĠpÅĻÃŃstav":8515,"pan":8516,"Ġvarianta":8517,"ÄĮer":8518,"Ġmra":8519,"Ġprogramem":8520,"ĠschvÃ¡lila":8521,"Ġpomohla":8522,"ĠzÃ¡znam":8523,"Ġobjevuje":8524,"Ġrozhoduje":8525,"ĠÃºvodnÃŃm":8526,"nci":8527,"Ġsoboty":8528,"Ġspal":8529,"ĠpoÄįkat":8530,"Ġposlance":8531,"ĠzlodÄĽji":8532,"ĠÄįÃŃst":8533,"ĠPat":8534,"Ġuva":8535,"MnozÃŃ":8536,"FotbalistÃ©":8537,"Ġabsolvoval":8538,"ÄįujÃŃcÃŃ":8539,"ĠfungovÃ¡nÃŃ":8540,"Ġtajem":8541,"ĠznaÄįek":8542,"ĠkrÃ¡snÃ½":8543,"Ġleh":8544,"stÅĻÃŃ":8545,"Ġploch":8546,"nskÃ©m":8547,"ĠzaÅ¾il":8548,"rel":8549,"Ġpoledne":8550,"ĠradÄĽ":8551,"ĠskuteÄįnÃ©":8552,"Ġhrob":8553,"Ġnejsme":8554,"ĠfyzickÃ©":8555,"Ġzaru":8556,"mila":8557,"Äįte":8558,"ĠodmÃŃtla":8559,"Ġpsycho":8560,"ĠpouÅ¾ÃŃvÃ¡nÃŃ":8561,"Ġkomisi":8562,"Ġsvobod":8563,"ĠobtÃŃÅ¾nÃ©":8564,"ĠBre":8565,"SE":8566,"ĠdÄĽjstvÃŃ":8567,"ĠhnÄĽ":8568,"ĠhektarÅ¯":8569,"Ġpolicista":8570,"ĠCel":8571,"Ġdosahuje":8572,"ĠzÃ¡sad":8573,"hn":8574,"Ġuvede":8575,"Ġzapla":8576,"ĠMÄĽl":8577,"Ġkot":8578,"ĠsilnÃ¡":8579,"Å¡eno":8580,"Jo":8581,"Ġfinanc":8582,"ĠznÃ¡mÃ©ho":8583,"ĠotevÅĻeno":8584,"ĠPÄĽ":8585,"ĠsprÃ¡vnÃ½":8586,"Pouze":8587,"ĠmluvÄįÃŃho":8588,"stÃ¡t":8589,"Ġporadit":8590,"SP":8591,"chÃ¡zel":8592,"ÄĽjÅ¡ÃŃ":8593,"ĠRadim":8594,"Ġ2015":8595,"ĠkabinÄĽ":8596,"ĠdrahÃ©":8597,"ĠvÃŃtÄĽzstvÃŃm":8598,"Ġdop":8599,"ĠpracovnÃŃk":8600,"des":8601,"Ġstabili":8602,"Budou":8603,"cti":8604,"ĠmalÃ½m":8605,"Lze":8606,"ĠmyÅ¡lenÃŃ":8607,"ĠscÃ©nu":8608,"ĠVY":8609,"Zda":8610,"ĠkonÃ¡nÃŃ":8611,"ĠmalÃ©m":8612,"ĠÅ¡edesÃ¡ti":8613,"hodu":8614,"ĠkÃ¡men":8615,"ĠlidovÃ©":8616,"Ġprojevu":8617,"gem":8618,"ĠdobrÃ½m":8619,"Ġ73":8620,"SoutÄĽÅ¾":8621,"Ġpen":8622,"Ġvstupenky":8623,"Ġfotbalisty":8624,"ĠnastavenÃŃ":8625,"StÃ¡t":8626,"ĠÄįtyÅĻikrÃ¡t":8627,"Ġzjistila":8628,"Ġpartnerem":8629,"ĠrÃ½":8630,"ĠochranÄĽ":8631,"Ġfinance":8632,"Bi":8633,"ĠvÃ½bÄĽrovÃ©":8634,"ĠBÃ¡":8635,"ĠkrajskÃ©m":8636,"Ġtempo":8637,"ĠcestovÃ¡nÃŃ":8638,"PoÅĻÃ¡d":8639,"Ġkluk":8640,"Ġsobota":8641,"Ġdomem":8642,"ĠvÃ¡Å¾":8643,"klÃŃ":8644,"ĠpÅĻÃŃspÄĽvky":8645,"ĠSam":8646,"Ġkorunu":8647,"Jed":8648,"ĠukÃ¡zky":8649,"ĠkÅĻe":8650,"ĠMiku":8651,"ĠÄįÃŃsel":8652,"ĠOpavÄĽ":8653,"ĠukazujÃŃ":8654,"ĠÃºvÄĽrÅ¯":8655,"ĠÃºÄįastnÃŃ":8656,"ĠpatÅĻila":8657,"ĠolympijskÃ©":8658,"ĠnadÅ¡enÃŃ":8659,"ĠzruÅ¡it":8660,"hrÃ¡l":8661,"cenou":8662,"ĠzastavenÃŃ":8663,"ĠosvÄĽt":8664,"ĠnejmladÅ¡ÃŃ":8665,"Ġvan":8666,"ĠstoupÃ¡":8667,"ĠtrenÃ©ÅĻi":8668,"ĠdÅ¯kaz":8669,"ĠvstupnÃ©":8670,"Ġprvo":8671,"Ġnavrhl":8672,"ĠsoutÄĽÅ¾nÃŃ":8673,"ĠuvidÃŃme":8674,"Ġvzhled":8675,"Å¡ena":8676,"hlÃ©":8677,"ĠpÅĻekonal":8678,"Ġkrokem":8679,"Ġpropoj":8680,"ĠpÅĻÃŃjmu":8681,"Ġdub":8682,"ÅĻÃ¡d":8683,"Chci":8684,"ĠvÄĽd":8685,"ĠMc":8686,"Ġautorem":8687,"Ġfotografii":8688,"Ġdrogy":8689,"vÄĽd":8690,"Stu":8691,"Ġmonitor":8692,"Ġbaru":8693,"ĠprÃ¡zdnÃ©":8694,"ĠsvÄĽdky":8695,"Å¾a":8696,"vÃ¡te":8697,"Ġposlat":8698,"ĠumÄĽlÃ©":8699,"ĠÅ¡ach":8700,"Ġhodno":8701,"Ġchud":8702,"OtevÅĻeno":8703,"ĠprovÃ¡dÃŃ":8704,"ĠnesouhlasÃŃ":8705,"NOV":8706,"Ġkin":8707,"Ġpachatele":8708,"JÃį":8709,"ĠHavla":8710,"sÃŃme":8711,"ovskÃ¡":8712,"ĠFrÃ½dku":8713,"ĠÃºÅĻednÃŃkÅ¯":8714,"ĠnedaÅĻilo":8715,"ĠOB":8716,"bert":8717,"pustil":8718,"ĠÄĮÃŃny":8719,"Ġstati":8720,"ĠmÃ½m":8721,"vech":8722,"ĠIN":8723,"kovu":8724,"cÃŃmi":8725,"ĠzÃ¡stupkynÄĽ":8726,"ĠnÃ¡roky":8727,"nar":8728,"Ġobrazu":8729,"Ġsma":8730,"ĠTereza":8731,"Ġjas":8732,"oba":8733,"ĠvysvÄĽt":8734,"Ġkroku":8735,"ĠÄįerno":8736,"Tomu":8737,"Ġ350":8738,"Ġtuhle":8739,"ĠzbraÅĪ":8740,"ĠscÃ©nÃ¡ÅĻ":8741,"ĠdokumentÅ¯":8742,"ĠolympijskÃ½ch":8743,"ĠvÃ½raznÃ©":8744,"ĠzapÃ¡":8745,"ĠCH":8746,"AÄįkoliv":8747,"ĠpoÅ¾Ã¡dat":8748,"ĠdlouhodobÃ©":8749,"CO":8750,"ĠBrodÄĽ":8751,"ĠrozÅ¡ÃŃÅĻit":8752,"Ġsexu":8753,"ENT":8754,"ĠsnÃŃmkÅ¯":8755,"Åłest":8756,"ĠMoskvÄĽ":8757,"ĠEvropskÃ©ho":8758,"Ġodve":8759,"Ġanaly":8760,"ĠÄįtvereÄįnÃŃch":8761,"ĠzapotÅĻebÃŃ":8762,"ĠlÃŃdr":8763,"ĠhlÃŃdka":8764,"ĠMostÄĽ":8765,"ĠMod":8766,"ĠdÄĽtskÃ½":8767,"ĠJablonci":8768,"ĠutrpÄĽl":8769,"ĠuzavÃŃrÃ¡":8770,"ĠvÃ½povÄĽÄı":8771,"Ã©rÅ¯":8772,"Ġhal":8773,"ĠKomerÄįnÃŃ":8774,"bral":8775,"PÅĻesnÄĽ":8776,"ĠpÃŃsem":8777,"ĠNisou":8778,"Ġvylep":8779,"stiky":8780,"Dosud":8781,"ĠvÃ½bornÃ½":8782,"ĠnemocnÃ½ch":8783,"ĠBeneÅ¡ov":8784,"ĠpohÃ¡d":8785,"ĠMiss":8786,"ĠzÃŃskaly":8787,"ÅĺI":8788,"Ġzapomenout":8789,"Ad":8790,"ZA":8791,"rac":8792,"ĠUrÄįitÄĽ":8793,"ĠmezitÃŃm":8794,"lÃŃch":8795,"Ġkoalici":8796,"ĠpÅĻedvedl":8797,"Ġpatro":8798,"jÃŃcÃŃmi":8799,"Ġalba":8800,"ĠtitulÅ¯":8801,"Ġdom":8802,"Ġocho":8803,"ĠudÄĽ":8804,"Ġpokusu":8805,"NY":8806,"Ġplocha":8807,"graf":8808,"ĠvÃ½bornÃ©":8809,"Ġobchodech":8810,"ĠsvÃ¡tky":8811,"ĠvidÄĽla":8812,"ĠotÃ¡zek":8813,"ĠjadernÃ©":8814,"hrÃ¡li":8815,"Ġporazit":8816,"ĠdospÄĽlÃŃ":8817,"ÄĮesko":8818,"Ġchovat":8819,"ĠpoÅ¡ty":8820,"Ġherce":8821,"Sport":8822,"ĠsvÄĽtovou":8823,"rnÃ½":8824,"ĠnormÃ¡lnÄĽ":8825,"ĠstÄĽny":8826,"Ġnov":8827,"ZejmÃ©na":8828,"ĠnabÃŃd":8829,"Ġzp":8830,"ĠnutnÄĽ":8831,"hody":8832,"ĠfunkÄįnÃŃ":8833,"Ġpodporovat":8834,"ĠCla":8835,"ĠosobnÃŃm":8836,"leb":8837,"ĠUl":8838,"ĠparkovÃ¡nÃŃ":8839,"Ġoka":8840,"ĠneÅ¡tÄĽstÃŃ":8841,"ĠvÄĽcech":8842,"Ã³nu":8843,"kovanÃ©":8844,"ĠpohÃ¡dky":8845,"ĠnahradÃŃ":8846,"nickÃ©m":8847,"ĠsprÃ¡va":8848,"Ġfavorita":8849,"ĠdÃ¡m":8850,"ĠpÅĻedvedli":8851,"ĠdopravÄĽ":8852,"rovskÃ½":8853,"lera":8854,"ĠsÃŃdlo":8855,"ĠKrejÄįÃŃ":8856,"ĠSevernÃŃ":8857,"ĠpotÅĻebujeme":8858,"AÄįkoli":8859,"ĠDivadla":8860,"ĠlÃ©kÅ¯":8861,"Ġpoto":8862,"ĠÄįtvrtÃ©m":8863,"Ġzad":8864,"ĠkolegÅ¯":8865,"ĠsbÃŃ":8866,"Ġrepubli":8867,"ĠtrÅ¾by":8868,"Ġ69":8869,"yer":8870,"VyplÃ½vÃ¡":8871,"ĠpovinnÃ©":8872,"chÃ¡zejÃŃ":8873,"Ġkontra":8874,"Ġbojuje":8875,"Ġdosa":8876,"ĠvyrÃ¡bÄĽt":8877,"odi":8878,"ÃģT":8879,"ĠÅ½iÅ¾kov":8880,"ĠfotbalovÃ½ch":8881,"tost":8882,"ĠpÅĻedpisÅ¯":8883,"ĠvÃ½sad":8884,"Ġvolba":8885,"ĠJedno":8886,"Ġzhor":8887,"ĠsignÃ¡l":8888,"poli":8889,"ĠTro":8890,"ĠRadka":8891,"ĠLin":8892,"dera":8893,"ĠVÃŃdni":8894,"ĠVÃŃtkovice":8895,"ĠKry":8896,"ovkou":8897,"Ġkousky":8898,"ĠzÃ¡vislosti":8899,"pin":8900,"ĠbÃ¡s":8901,"Ġrozvod":8902,"zovanÃ½":8903,"ĠÄįÃ¡stech":8904,"He":8905,"ĠstÅĻed":8906,"ĠÃºÄįin":8907,"MS":8908,"ĠurÄįitÃ½":8909,"Ġopery":8910,"Ġzvuk":8911,"ĠruskÃ½":8912,"ĠpouÅ¥":8913,"ĠpodÃŃlet":8914,"covat":8915,"ĠÅ¡kolou":8916,"Ġzamil":8917,"ĠpÅĻedmÄĽtem":8918,"ĠÃºvÄĽru":8919,"ĠautoÅĻi":8920,"Ġprote":8921,"Ġnovinky":8922,"Ġliteratury":8923,"ĠHal":8924,"Ġvykou":8925,"covÃ¡nÃŃ":8926,"Ġvlasti":8927,"ĠobÅ¾al":8928,"ĠÄįtenÃ¡ÅĻe":8929,"ĠlÃŃÄįÃŃ":8930,"ĠmladÃ©ho":8931,"Ġvyhro":8932,"Ġbeton":8933,"ĠzÃ¡kaznÃŃci":8934,"ĠzvÃŃtÄĽzili":8935,"Ġopravit":8936,"plat":8937,"ĠuÄįitelÃ©":8938,"ĠTeplicÃŃch":8939,"ĠzÅĻÃŃzenÃŃ":8940,"ĠprochÃ¡zÃŃ":8941,"vie":8942,"Ġobslu":8943,"zovÃ¡":8944,"ĠpÅĻedstavy":8945,"CelÃ¡":8946,"Ġpacienti":8947,"ĠkoupÃŃ":8948,"ĠpÅ¯vodnÃŃch":8949,"ĠpsanÃŃ":8950,"ĠMalÃ©":8951,"ĠÄįaj":8952,"Ġruka":8953,"Jste":8954,"telka":8955,"ude":8956,"ĠhrajÃŃcÃŃ":8957,"ĠpouhÃ©":8958,"prac":8959,"Ġveden":8960,"ĠSvat":8961,"Ġrevoluci":8962,"ĠmiliÃ³ny":8963,"VÅ¾dy":8964,"ĠsamostatnÃ©":8965,"ĠJaro":8966,"ĠspoleÄįnÃ½":8967,"SKÃģ":8968,"inger":8969,"ĠodvÄĽtvÃŃ":8970,"Ġskry":8971,"ĠstÅĻetu":8972,"tÃŃme":8973,"ĠzklamÃ¡nÃŃ":8974,"ĠseÅ¡li":8975,"pisy":8976,"zit":8977,"MladÃ¡":8978,"ÅĪovali":8979,"nin":8980,"ĠzÃŃskajÃŃ":8981,"ĠpovaÅ¾ovat":8982,"ĠHN":8983,"ĠZemana":8984,"Ġpracovnice":8985,"lacÃŃ":8986,"Ġmez":8987,"Äįela":8988,"ĠOt":8989,"bri":8990,"rub":8991,"Ġcyklu":8992,"ĠdÄĽlÃŃ":8993,"Ġstartem":8994,"ĠHorÃ¡":8995,"Ġopakovat":8996,"Ġnedovo":8997,"ĠpodÃŃlu":8998,"Nejde":8999,"ĠpodmÃŃ":9000,"ĠÃºzemnÃŃho":9001,"Ġkov":9002,"Ġbed":9003,"ĠpapÃŃ":9004,"Michal":9005,"MÅ¯j":9006,"ĠBÅĻez":9007,"anÃ©m":9008,"Ġdivo":9009,"ĠÅ¾Ã¡dat":9010,"Ġinvestor":9011,"ĠcestÃ¡ch":9012,"ĠmedailÃŃ":9013,"Ġspis":9014,"kej":9015,"ĠusnesenÃŃ":9016,"ĠÄįasopis":9017,"Ġteorie":9018,"ĠÄįÃŃsle":9019,"ĠVeselÃŃ":9020,"lovice":9021,"ĠcÃŃtil":9022,"ĠOstrav":9023,"ĠpÅĻedstavitelÅ¯":9024,"ĠpÅ¯vod":9025,"ĠtrÅ¾nÃŃ":9026,"enti":9027,"Ġinscenace":9028,"sticky":9029,"VelkÃ¡":9030,"dÃŃte":9031,"Ġvyhnout":9032,"zla":9033,"int":9034,"Ġdohoda":9035,"nnÃ©":9036,"ĠlesÅ¯":9037,"ĠpodnikatelÃ©":9038,"hrÃ¡la":9039,"Ġlidu":9040,"zar":9041,"ĠDukly":9042,"ĠvzÃ¡jemnÄĽ":9043,"ĠPak":9044,"ĠfrancouzskÃ½":9045,"ĠnÄĽÄįÃŃm":9046,"Ġrevoluce":9047,"Doma":9048,"telnÃ½m":9049,"ĠJiÅĻÃŃm":9050,"klÃ¡dajÃŃ":9051,"leg":9052,"ĠÃ¡":9053,"Ġdvojici":9054,"vis":9055,"ĠMach":9056,"chÃ¡zely":9057,"Ġpok":9058,"ĠpÅĻehlÃŃdky":9059,"bovÃ¡":9060,"ĠParoubek":9061,"govÃ©":9062,"Ġstrategie":9063,"Ġchlap":9064,"ĠFer":9065,"Ġdeska":9066,"jede":9067,"ĠmoÅ¾nÃ½ch":9068,"Ġcel":9069,"Äįovat":9070,"ĠGalerie":9071,"Ġam":9072,"ĠuspoÅĻÃ¡dÃ¡nÃŃ":9073,"Ġsli":9074,"Äįina":9075,"ĠzÃ¡mÄĽru":9076,"Ġvedlo":9077,"ĠstÅĻet":9078,"nÄĽnÃ©ho":9079,"ĠLed":9080,"ĠdÃŃly":9081,"Ġvyhodno":9082,"ĠoborÅ¯":9083,"Bar":9084,"ĠLÃ¡znÄĽ":9085,"ĠpÅĻiznÃ¡nÃŃ":9086,"ĠÅ¾a":9087,"PÅĻÃŃÅ¡tÃŃ":9088,"HN":9089,"Ġ76":9090,"ĠpatÅĻe":9091,"ĠPÃŃsek":9092,"ĠÅĻeÅ¡enÃŃm":9093,"zan":9094,"Ġprsty":9095,"dajÃŃcÃŃ":9096,"PR":9097,"Ġkoncepce":9098,"ĠKas":9099,"JI":9100,"Da":9101,"Å¾ela":9102,"klady":9103,"Nedo":9104,"Ġpostupem":9105,"odÄĽ":9106,"ĠpravidelnÃ©":9107,"ĠbritskÃ½":9108,"ĠzabezpeÄį":9109,"Ġnapadl":9110,"ĠfinanÄįnÃŃho":9111,"ĠbÃ¡t":9112,"NÃ¡Å¡":9113,"ĠuÅ¾ÃŃ":9114,"ĠÃºdrÅ¾bu":9115,"ÄĮÃį":9116,"ĠpÅĻidÃ¡":9117,"ĠPraÅ¾":9118,"ĠstrÃ¡Å¾":9119,"ĠspoÄįÃŃ":9120,"ovnÄĽ":9121,"ĠpotkÃ¡":9122,"Ġ158":9123,"ĠkolektivnÃŃ":9124,"ĠJeden":9125,"ĠmÄĽstskou":9126,"kÃ½mi":9127,"Ġsrazil":9128,"Ġmetra":9129,"Ġoprava":9130,"Ġdesign":9131,"Ġvznikly":9132,"ĠstÅĻele":9133,"ĠprÃ¡":9134,"Ġextralize":9135,"Äįt":9136,"Ġpodlehl":9137,"ĠnÄĽkterÃ½m":9138,"ĠvstoupÃŃ":9139,"ĠdÅ¯kazy":9140,"Ġsevero":9141,"MÄļ":9142,"padla":9143,"ĠpÅĻÃŃprav":9144,"gon":9145,"stku":9146,"ĠsouborÅ¯":9147,"Ġpoch":9148,"ĠBran":9149,"ls":9150,"ĠpokusÃŃ":9151,"ĠsniÅ¾uje":9152,"ZÅĻejmÄĽ":9153,"ĠtÃŃ":9154,"ĠnÃ¡dvoÅĻÃŃ":9155,"ĠMin":9156,"ĠpÅĻedlo":9157,"slo":9158,"Ġmobil":9159,"Ġfondy":9160,"ĠPit":9161,"ĠÅ¡aty":9162,"ME":9163,"ĠvolnÃ½ch":9164,"ĠdveÅĻmi":9165,"ĠNÃģ":9166,"Ġpsal":9167,"Ġkulturu":9168,"ĠMor":9169,"ĠpremiÃ©ÅĻe":9170,"Ġopera":9171,"ĠlegendÃ¡rnÃŃ":9172,"ĠsouÄįasnÃ¡":9173,"ĠkratÅ¡ÃŃ":9174,"ĠpolÃŃ":9175,"PrÃ½":9176,"Ġdrob":9177,"ĠOS":9178,"rati":9179,"Å¾eno":9180,"ĠâĢĿ":9181,"avÃ½":9182,"Ġopil":9183,"istÅ¯":9184,"kry":9185,"sled":9186,"ĠÃºstavy":9187,"ĠzÃ¡me":9188,"vedli":9189,"ĠcelostÃ¡tnÃŃ":9190,"ĠÄįÃ¡":9191,"ris":9192,"ĠtvrdÃ©":9193,"ĠSr":9194,"hodnÃ½":9195,"nÄĽnou":9196,"ĠpÅĻemÄĽ":9197,"dily":9198,"ĠÄĮa":9199,"ĠzahrÃ¡l":9200,"ĠseznÃ¡mit":9201,"kot":9202,"ĠÅ¾ivotu":9203,"menty":9204,"Ġstarat":9205,"ĠDar":9206,"ĠzdravotnÃŃm":9207,"Ġmoto":9208,"Ġchvilku":9209,"Ġ1500":9210,"ĠrybÃ¡":9211,"ĠuchazeÄįÅ¯":9212,"Ġutekl":9213,"ÄįÃŃtÃ¡":9214,"Kolem":9215,"Ġvedly":9216,"ĠodchÃ¡zÃŃ":9217,"ÅĻin":9218,"ĠbohatÃ©":9219,"ĠobchodnÃŃm":9220,"Ġekonomika":9221,"ĠprvkÅ¯":9222,"HC":9223,"ĠporÃ¡Å¾ky":9224,"ĠodpovÄĽdnosti":9225,"ĠkancelÃ¡ÅĻÃŃ":9226,"UP":9227,"Ġtrojice":9228,"itÃ½":9229,"ĠpotÅĻebovat":9230,"ĠmÃŃÄįe":9231,"ĠmÄĽstskÃ½":9232,"ĠAir":9233,"Ġhromad":9234,"Ġklienti":9235,"Ġ170":9236,"nese":9237,"ĠFischer":9238,"ĠAnglie":9239,"stÅĻel":9240,"ality":9241,"psal":9242,"ĠrekordnÃŃ":9243,"ĠBÄĽhem":9244,"ĠMostu":9245,"ĠÄĮerno":9246,"Me":9247,"Most":9248,"Ġmarketing":9249,"JistÄĽ":9250,"ĠÅ¡kolnÃŃho":9251,"ĠvÃ¡lku":9252,"Provoz":9253,"ĠvÄĽt":9254,"Chy":9255,"Ġnaproti":9256,"ĠspoÅĻitelny":9257,"ĠtajnÃ©":9258,"ĠTÅĻebÃŃÄį":9259,"ĠzÃ¡pis":9260,"ĠÅ¡etÅĻÃŃ":9261,"Ġnarodila":9262,"Ġnapsat":9263,"ĠtrÃ¡vnÃŃku":9264,"ĠODA":9265,"Ġfe":9266,"lia":9267,"ĠorganizÃ¡tor":9268,"VÃŃm":9269,"ĠpÅĻÃŃnos":9270,"ĠmladÅ¡ÃŃch":9271,"Budeme":9272,"ĠmuÅ¾em":9273,"ĠdobrÃ©m":9274,"ĠÅĻÃŃdil":9275,"ĠrozhodÄįÃŃch":9276,"Ġdemokracii":9277,"Ġpostu":9278,"ĠMI":9279,"nete":9280,"Ġhokeje":9281,"ĠnejsilnÄĽjÅ¡ÃŃ":9282,"ĠVÃ¡m":9283,"Ġpose":9284,"Å¡ta":9285,"Ġbla":9286,"rnÃŃho":9287,"ĠkomunistÃ©":9288,"ĠÃºst":9289,"UDÃģLOSTI":9290,"ĠdemokratickÃ©":9291,"Ġosma":9292,"Ġgu":9293,"ĠkÃ½":9294,"klÃ¡dÃ¡":9295,"Ġlidech":9296,"ĠsÃŃdliÅ¡ti":9297,"ĠÄįest":9298,"ĠvyÅĻe":9299,"Ġter":9300,"ĠÅ¾ivÃ©":9301,"ĠSamozÅĻejmÄĽ":9302,"ĠmÃ©m":9303,"ĠSI":9304,"FOTBAL":9305,"rych":9306,"ĠdÅĻevÄĽnÃ©":9307,"ĠdÅ¯chodce":9308,"Ġnominaci":9309,"lÃŃky":9310,"ĠpodobnÃ¡":9311,"Ġprocento":9312,"ĠSko":9313,"VeÄįer":9314,"ĠschvÃ¡lili":9315,"ĠpÅĻÃ¡telÃ©":9316,"star":9317,"ĠlidskÃ¡":9318,"ĠodbornÃ½ch":9319,"Ġkontrolou":9320,"Ġhlou":9321,"ĠKINO":9322,"ĠpÅĻednÃŃch":9323,"ĠslavnÃ©ho":9324,"Ġdynami":9325,"ĠsedÄĽl":9326,"ĠsledovÃ¡nÃŃ":9327,"Ġdoprovodu":9328,"ĠpÅĻipraveny":9329,"48":9330,"ĠnepÅĻÃŃjemnÃ©":9331,"StÃ¡tnÃŃ":9332,"fek":9333,"ĠGALERIE":9334,"ĠmanÅ¾elem":9335,"ĠzavraÅ¾":9336,"Ġuprch":9337,"Ġankety":9338,"ĠpÅĻÃŃchodu":9339,"ĠjakÃ©koliv":9340,"ĠprohlÃŃdky":9341,"Ġvelikost":9342,"ĠduÅ¡i":9343,"ĠprobÃŃhat":9344,"ĠsrovnÃ¡":9345,"OST":9346,"ĠKO":9347,"ĠhradÄĽ":9348,"ĠJanu":9349,"sf":9350,"rab":9351,"OVICE":9352,"Ġtrasa":9353,"taci":9354,"Ġ72":9355,"Ġteplota":9356,"Ġvon":9357,"ĠpoÅĻadatel":9358,"Ġnech":9359,"ĠzÅ¯stali":9360,"bala":9361,"ĠKdyby":9362,"ĠÅ¡edesÃ¡tÃ½ch":9363,"ĠÄįte":9364,"top":9365,"Ġpoklesu":9366,"ĠpenÄĽzi":9367,"ĠremÃŃzu":9368,"Ġ74":9369,"ĠprÃ¡zdninÃ¡ch":9370,"Ġodhaduje":9371,"ĠkrÃ¡snÄĽ":9372,"ĠaÄįkoli":9373,"odu":9374,"Å¾ÃŃch":9375,"Ġtito":9376,"ĠArt":9377,"nutÃ½":9378,"Ġspory":9379,"ĠvytvoÅĻÃŃ":9380,"Ġrecept":9381,"telÅ¯m":9382,"ĠKlu":9383,"vÃ¡ch":9384,"ĠmajitelÅ¯":9385,"ĠdoufÃ¡":9386,"Ġnapadlo":9387,"ĠpokraÄįovala":9388,"ĠneumÃŃ":9389,"ĠtotÃ©Å¾":9390,"uj":9391,"ĠpÅĻidat":9392,"ĠpÅĻedpisy":9393,"strÃ¡":9394,"ĠznaÄįku":9395,"Ġsplnit":9396,"ĠplnÃ©m":9397,"moc":9398,"ĠuÄįitelka":9399,"Ġpostavili":9400,"ĠmrtvÃ½ch":9401,"Ġbit":9402,"Ġsna":9403,"ĠmodelÅ¯":9404,"Ġminister":9405,"ĠobdrÅ¾ÃŃ":9406,"Ġpov":9407,"ĠEm":9408,"ĠnatÃ¡":9409,"Ġnemo":9410,"ĠnÃ¡stupu":9411,"stavenÃŃ":9412,"ĠvyÄįle":9413,"VelkÃ½":9414,"ĠKladnÄĽ":9415,"ĠelitnÃŃ":9416,"Mil":9417,"Ġdovoz":9418,"Ġstru":9419,"Ġpilot":9420,"ĠtiskovÃ½":9421,"ĠvÃ½hod":9422,"ĠstÃ¡tnÃŃm":9423,"vedla":9424,"ĠlÃŃdra":9425,"ĠlodÄĽ":9426,"ĠMarka":9427,"ĠHory":9428,"Ġprac":9429,"ĠbydliÅ¡tÄĽ":9430,"logickÃ©":9431,"Ġstudovat":9432,"ĠlyÅ¾ÃŃch":9433,"ĠzmÃŃ":9434,"ÄįÅ¯m":9435,"Ġzkra":9436,"vajÃŃcÃŃch":9437,"ĠÄįesky":9438,"ĠbezpeÄįnostnÃŃch":9439,"Byly":9440,"ĠknihovnÄĽ":9441,"ĠLÃ©":9442,"ĠvlÃ¡dou":9443,"Ġparta":9444,"ĠSMS":9445,"ĠnaÅĻÃŃzenÃŃ":9446,"ÅĪskÃ©":9447,"ĠpoÅĻÃ¡dajÃŃ":9448,"chÃ¡zela":9449,"Ġliber":9450,"ĠslovenskÃ½":9451,"ĠtÃ½dnem":9452,"Karlovy":9453,"ĠPetrem":9454,"ĠsetkÃ¡":9455,"AvÅ¡ak":9456,"Ġreg":9457,"Ġcountry":9458,"ĠVele":9459,"ĠÄįlenskÃ½ch":9460,"ĠpÅĻedse":9461,"ĠDvoÅĻÃ¡":9462,"Ġorient":9463,"ĠblÃŃÅ¾e":9464,"uer":9465,"ĠVod":9466,"mÃ¡n":9467,"mech":9468,"ObÄįas":9469,"klou":9470,"mb":9471,"Ġjednomu":9472,"ĠdÅ¯sledky":9473,"ĠmuÅ¾stvu":9474,"ĠznÃ¡mky":9475,"ĠzimnÃŃm":9476,"Ġvyzval":9477,"ĠÅ¾ijÃŃcÃŃ":9478,"Ġope":9479,"prava":9480,"ĠtÃ©matem":9481,"Ġpodni":9482,"ĠÅłkody":9483,"ĠRed":9484,"ĠpÅĻipsal":9485,"vanou":9486,"mp":9487,"ĠAmeriÄįanÃ©":9488,"dejte":9489,"bÄĽh":9490,"ĠvÃŃtÄĽzem":9491,"ĠpoliciÃŃ":9492,"tickÃ½m":9493,"ĠotevÅĻela":9494,"Å¡enou":9495,"ĠvysokÃ½m":9496,"ZÃģ":9497,"ĠvnÄĽjÅ¡ÃŃ":9498,"ĠpÅĻipravenÃ©":9499,"Ġzachovat":9500,"ĠcÃŃtÃŃm":9501,"Ġodjel":9502,"ĠocenÄĽ":9503,"ĠokolnÃŃ":9504,"ĠluxusnÃŃ":9505,"Ġbro":9506,"Ġdohodli":9507,"Ġjimi":9508,"ĠpÅĻijÃŃma":9509,"covÃ½":9510,"Ġvlaky":9511,"NICE":9512,"Ġrozvoji":9513,"Ġzajistil":9514,"ĠÃºÅĻednÃŃ":9515,"ĠKali":9516,"ĠkrÃ¡snÃ¡":9517,"sport":9518,"ĠjakÃ©koli":9519,"Ġbene":9520,"ĠzaslouÅ¾enÄĽ":9521,"ĠzvyklÃŃ":9522,"Ġnespo":9523,"Ġ62":9524,"Ġpokusy":9525,"Ġjeli":9526,"DÅ¯leÅ¾itÃ©":9527,"dnÃŃk":9528,"Ġzm":9529,"ĠprobÄĽhla":9530,"Ġterori":9531,"cou":9532,"ĠVeselÃ½":9533,"Ġjezdec":9534,"Ġobory":9535,"Ġsprav":9536,"Ġzahra":9537,"Ġzkusit":9538,"Ġmotoru":9539,"Ġkva":9540,"Sil":9541,"ĠpÅĻekonat":9542,"ĠnechÃ¡me":9543,"cenÃŃm":9544,"Ġred":9545,"Å¡tÄĽn":9546,"ĠdemokratÅ¯":9547,"ĠnehrozÃŃ":9548,"ĠoslavÃŃ":9549,"ĠÅ½Ã¡":9550,"Ġdoty":9551,"ĠdevÃ¡tÃ©":9552,"Ġdivu":9553,"Ġnevin":9554,"ĠuvolnÄĽ":9555,"ĠpitÃŃ":9556,"Ã¡ni":9557,"ĠdoporuÄįuje":9558,"Ġad":9559,"Ġpravou":9560,"ZÃŃtra":9561,"ĠHi":9562,"ĠpÅĻÃŃmÃ½":9563,"Klub":9564,"Ġaliance":9565,"ĠpÃ¡dem":9566,"ĠstÃ¡ÅĻÃŃ":9567,"Ġprivatizaci":9568,"95":9569,"UR":9570,"ĠVeronika":9571,"dÃŃl":9572,"ĠpravÃ½":9573,"Ġcent":9574,"ĠdÃŃvek":9575,"ĠÅłÃŃ":9576,"ĠelektronickÃ©":9577,"RY":9578,"ĠnechybÃŃ":9579,"ĠtÃ¡bora":9580,"Pozor":9581,"Ġnere":9582,"ĠlÃ¡sku":9583,"Ġtmav":9584,"Ġokraj":9585,"ĠfrancouzskÃ©ho":9586,"Ġradu":9587,"Ġinteg":9588,"rÃ¡Å¾":9589,"kar":9590,"MluvÄįÃŃ":9591,"bie":9592,"Ġkucha":9593,"ĠnÃ¡zvu":9594,"ĠleteckÃ©":9595,"ĠpodmÃŃnkou":9596,"Ġexport":9597,"Ġpubli":9598,"ĠhistorickÃ©ho":9599,"ong":9600,"Ha":9601,"Ġdatum":9602,"ĠMiloÅ¡e":9603,"leh":9604,"Ġplatnost":9605,"skal":9606,"vol":9607,"ĠevropskÃ½":9608,"ĠodmÄĽnu":9609,"ĠzdravotnÄĽ":9610,"ĠtÄĽÅ¾kÃ¡":9611,"Ġtrval":9612,"ĠbÃ½valÃ¡":9613,"ĠzvÃŃtÄĽzila":9614,"ĠIva":9615,"ĠcelkovÃ½":9616,"padl":9617,"Åłe":9618,"Ġpodoby":9619,"ĠKovÃ¡":9620,"ĠveÄįeÅĻi":9621,"Ġbance":9622,"ĠTato":9623,"Ġju":9624,"ujÃŃcÃŃho":9625,"ĠnepÅĻÃ¡":9626,"ĠLit":9627,"ĠzÃ¡jmÅ¯":9628,"Ġkapli":9629,"ĠznÄĽnÃŃ":9630,"ĠbudovÃ¡nÃŃ":9631,"ĠMich":9632,"ĠodhadÅ¯":9633,"cek":9634,"ĠdÅĻÃŃvÄĽjÅ¡ÃŃ":9635,"ĠenergiÃŃ":9636,"Ġnastal":9637,"klu":9638,"ĠtrÃ¡vÃŃ":9639,"ĠosmdesÃ¡tÃ½ch":9640,"ĠmalÃŃÅĻ":9641,"ĠzÃ¡chranÃ¡ÅĻi":9642,"smem":9643,"ĠchrÃ¡nit":9644,"enek":9645,"ĠpodpoÅĻe":9646,"Ġarchi":9647,"ĠtradiÄįnÃŃch":9648,"ĠMÄĽstÄĽ":9649,"Ġ78":9650,"ĠOba":9651,"MuÅ¾i":9652,"Ġambice":9653,"ĠLetos":9654,"ĠnÃ¡hradu":9655,"Ġsjezdu":9656,"ĠzÃ¡sluhou":9657,"ĠzÃ¡bavu":9658,"ĠDuÅ¡an":9659,"VÃģ":9660,"ĠdÃ¡me":9661,"Ġas":9662,"Ġzmizel":9663,"lce":9664,"ĠUniverzity":9665,"ĠVsetÃŃn":9666,"ĠFre":9667,"ĠscÃ©na":9668,"ell":9669,"ĠzÃ¡hy":9670,"hnÄĽ":9671,"ĠzmÄĽnilo":9672,"Ġbilance":9673,"Ġkilo":9674,"huje":9675,"Slu":9676,"Ġcukrov":9677,"Ġklu":9678,"ĠchybÄĽl":9679,"ĠnedÄĽlÃ¡":9680,"ĠuznÃ¡nÃŃ":9681,"ĠsprÃ¡vu":9682,"ĠhudebnÃŃho":9683,"ĠseÅ¡lo":9684,"ĠkÃ½m":9685,"hon":9686,"Sedm":9687,"ÄįenÃ©ho":9688,"RodiÄįe":9689,"Ġtele":9690,"Ġstartuje":9691,"ÄĮeÅ¡i":9692,"Å¡Ã¡k":9693,"ĠÃļÅĻadu":9694,"bÅ¯":9695,"cenÃ©ho":9696,"Ġkurzu":9697,"Ġvyma":9698,"ĠSvobody":9699,"ĠpoÅ¾ad":9700,"ĠodbornÃŃky":9701,"ĠhrÃ¡ch":9702,"ĠuÄįitelÅ¯":9703,"ĠradÃŃ":9704,"ĠVysokÃ©":9705,"ĠvÃ½chovy":9706,"Ġzlep":9707,"danÃ½":9708,"ĠodmÄĽ":9709,"ĠmezinÃ¡rodnÃŃm":9710,"ĠpÅ¯du":9711,"ĠpolskÃ©":9712,"Ġradosti":9713,"ĠHDP":9714,"ĠchovÃ¡":9715,"ĠslÃ¡":9716,"Ġrezervy":9717,"Ġpadl":9718,"ĠostravskÃ©":9719,"ĠpÅĻinejmenÅ¡ÃŃm":9720,"Ġporod":9721,"SouÄįasnÄĽ":9722,"ĠjakÃ½ch":9723,"ĠpÅĻidali":9724,"ĠzvÄĽt":9725,"ĠNedvÄĽd":9726,"ĠLitvÃŃnov":9727,"nÃ¡ÅĻ":9728,"ĠpÅĻiznat":9729,"Ġosa":9730,"Ġaj":9731,"Å¾nost":9732,"ĠSem":9733,"nÃŃÄįek":9734,"Ġpaliva":9735,"ĠÅĻÃŃkali":9736,"VÅ¾dycky":9737,"lÃŃna":9738,"ĠstÃ¡tem":9739,"denÃŃ":9740,"Ġmotivy":9741,"ĠMinisterstva":9742,"ĠromÃ¡nu":9743,"ĠstaÄįil":9744,"pole":9745,"ĠuspÄĽt":9746,"ĠJanem":9747,"Ġsoubory":9748,"ĠsouÄįasnou":9749,"ĠmeziroÄįnÄĽ":9750,"Svou":9751,"Ġprohra":9752,"ĠplÃ¡novanÃ©":9753,"ĠklÃŃÄį":9754,"Ġchu":9755,"ĠsluneÄįnÃŃ":9756,"ĠKrÃ¡lov":9757,"Ġpozem":9758,"lant":9759,"ĠkrajÅ¯":9760,"Ġkontakty":9761,"ĠmimoÅĻÃ¡dnÃ©":9762,"ĠnaplÃ¡n":9763,"Ġkomi":9764,"stilo":9765,"ĠpozdÄĽjÅ¡ÃŃ":9766,"ĠpÅĻedstavila":9767,"niny":9768,"ĠVltavou":9769,"Ġstop":9770,"Ġdni":9771,"Ġvypad":9772,"Ġautomati":9773,"ĠzÃ¡visÃŃ":9774,"ĠnezamÄĽstnanost":9775,"ĠumÄĽle":9776,"ĠSvobod":9777,"Poli":9778,"ĠostrovÄĽ":9779,"Fotbal":9780,"Ġspolku":9781,"Ġvarianty":9782,"Ġpotvrdili":9783,"ĠuvÄĽdomit":9784,"Ġdce":9785,"ĠdoprovÃ¡":9786,"ĠdevatenÃ¡ct":9787,"Ġvloupal":9788,"Ġvracet":9789,"Ġserver":9790,"ĠZu":9791,"Ġnav":9792,"ĠSlez":9793,"ĠnejnovÄĽjÅ¡ÃŃ":9794,"ÅĻeli":9795,"ĠstÃŃÅ¾nost":9796,"Ġtahle":9797,"ĠekologickÃ©":9798,"Mu":9799,"ĠpÃŃseÅĪ":9800,"ĠvyrazÃŃ":9801,"ĠsvÄĽÅĻil":9802,"Ġjedou":9803,"ĠdobrovolnÃ½ch":9804,"ond":9805,"ĠintenzivnÃŃ":9806,"ÄĮNÃį":9807,"Ġagresi":9808,"enka":9809,"ĠsudÃŃ":9810,"tur":9811,"ĠlÃŃto":9812,"ĠViktorie":9813,"ĠdesÃ¡tÃ©":9814,"Ġkat":9815,"Ã¡Å¡":9816,"ĠzemÅĻela":9817,"Ġnehoda":9818,"Ġsetu":9819,"Naposledy":9820,"ĠmoderÃ¡tor":9821,"vej":9822,"Ġkamer":9823,"Ġvin":9824,"ĠuzavÅĻena":9825,"Ġdorazil":9826,"ĠFrancouz":9827,"ĠpÅĻÃ¡l":9828,"ston":9829,"Ġzbytky":9830,"Ġsval":9831,"OdbornÃŃci":9832,"ĠusmÃŃvÃ¡":9833,"ĠvÃ½znamnÄĽ":9834,"ĠÅ¡patnÃ¡":9835,"ĠVin":9836,"ĠvloÅ¾":9837,"inem":9838,"Nevy":9839,"ĠVarÅ¯":9840,"Ġvyrazit":9841,"ĠschvÃ¡":9842,"ĠschvÃ¡lenÃŃ":9843,"rnÃŃm":9844,"Ġomezit":9845,"ĠprohÅĻe":9846,"mes":9847,"Ġhospody":9848,"Ã¡ly":9849,"Ġatle":9850,"ĠNov":9851,"ĠsnaÅ¾ila":9852,"Ġkilometru":9853,"ĠnedÃ¡vnÃ©":9854,"ĠzÃ¡Å¾itky":9855,"ĠdozvÄĽdÄĽl":9856,"ĠAntonÃŃna":9857,"ĠdokÃ¡Å¾ou":9858,"ĠsamotnÃ½":9859,"ĠvÃ½hled":9860,"ĠnÃ¡le":9861,"Ġautomobily":9862,"BY":9863,"ĠvhodnÃ½":9864,"Â´":9865,"blo":9866,"tosti":9867,"Ġupozor":9868,"Ġvlny":9869,"ĠnÃ¡roda":9870,"Å¾ÃŃvÃ¡":9871,"ĠBon":9872,"ĠpÅĻesvÄĽd":9873,"ĠpÃ¡teÄįnÃŃ":9874,"ĠinvestorÅ¯":9875,"ĠvyrovnanÃ©":9876,"ĠjestliÅ¾e":9877,"ĠHoÅĻe":9878,"ĠBohuslav":9879,"Ġserveru":9880,"ĠvÃ½stup":9881,"ĠkinÄĽ":9882,"Ġukon":9883,"ĠpamÃ¡tku":9884,"ĠKal":9885,"ĠprospÄĽ":9886,"ĠHradiÅ¡ti":9887,"ĠpÅ¯jdou":9888,"vel":9889,"Ġmaminky":9890,"ĠvyrovnanÃ½":9891,"entÅ¯":9892,"Ġstanov":9893,"NedÃ¡vno":9894,"zkou":9895,"ĠpÅĻipomÃŃn":9896,"Ġpropu":9897,"Ġklesl":9898,"ĠnechtÄĽli":9899,"Ġuplat":9900,"ÅĪovÃ©":9901,"Ġinstru":9902,"pÃ¡nÃŃ":9903,"ĠznÃ¡me":9904,"VO":9905,"Ġzmen":9906,"Dra":9907,"ĠpÅĻedchozÃŃm":9908,"ĠZÃ¡pad":9909,"David":9910,"ĠvzpomÃŃn":9911,"Ġnemusel":9912,"ZÃŃ":9913,"ĠposÃŃlenÃŃ":9914,"ÅĻovÃ¡":9915,"Ġkonfliktu":9916,"Ġdopadlo":9917,"ĠInternational":9918,"Ġab":9919,"Ġchlapec":9920,"ĠKladna":9921,"ĠÅ¾enskÃ©":9922,"Chce":9923,"Ġpopu":9924,"Ġroh":9925,"ĠPala":9926,"ĠpoÅ¾adavek":9927,"ĠÃºÄįelem":9928,"Ġodle":9929,"ĠnÃ¡ladu":9930,"Ġpoznamenala":9931,"ĠSR":9932,"Ġexpozici":9933,"Ġstole":9934,"Ä¾":9935,"Ġkamery":9936,"hnal":9937,"ĠJakuba":9938,"poÄįet":9939,"ĠvytÃ¡hl":9940,"ĠpÅĻiz":9941,"ĠzÃºÄįastnil":9942,"ĠtÃ©matu":9943,"ĠumÄĽlci":9944,"ÄĮas":9945,"ĠvzpomÃŃnky":9946,"100":9947,"ĠkancelÃ¡ÅĻi":9948,"ĠvzhÅ¯ru":9949,"lovÃ¡nÃŃ":9950,"pku":9951,"ĠzeÄı":9952,"stice":9953,"ĠHum":9954,"Ġzdrojem":9955,"ĠnÃ¡sledovat":9956,"ĠvÄĽznice":9957,"Ġoslov":9958,"div":9959,"Ġkolena":9960,"nÄĽnÃ½m":9961,"ĠlibereckÃ©":9962,"enskÃ©":9963,"ĠpoÄįÃŃtaÄįi":9964,"Ġ88":9965,"ĠProstÄĽjovÄĽ":9966,"ĠBrodu":9967,"Ġdlu":9968,"Ġvinu":9969,"Ġbratra":9970,"Pre":9971,"rÅ¯v":9972,"ĠpamÄĽÅ¥":9973,"Ġkompli":9974,"Ġlokality":9975,"Ġpostupovat":9976,"Ġstatisti":9977,"Ġsledoval":9978,"Festival":9979,"Ġnastoupili":9980,"adi":9981,"ĠpÃ³":9982,"NÃ¡vrh":9983,"Ġgrafi":9984,"ĠpapÃŃry":9985,"ĠÄįervenou":9986,"ĠhracÃŃ":9987,"ĠjejÃŃmu":9988,"ĠÃºÄįel":9989,"ĠnÄĽÄįem":9990,"ĠKolÃ¡ÅĻ":9991,"PokraÄįovÃ¡nÃŃ":9992,"ĠdohrÃ¡":9993,"ĠvytvoÅĻila":9994,"Ġholky":9995,"Ġkapel":9996,"ĠvysÃŃla":9997,"ĠChelsea":9998,"nickÃ½m":9999,"Ġfaul":10000,"letÃ©mu":10001,"ĠzdravÃ©":10002,"ĠnÃŃzko":10003,"q":10004,"ĠzjistÃŃ":10005,"Ġspojuje":10006,"Ġga":10007,"pust":10008,"ĠsnÄĽmovnÄĽ":10009,"ĠprohlÃ¡sila":10010,"lÃŃkovÃ¡":10011,"ĠpÅĻijela":10012,"ĠakcÃŃch":10013,"chou":10014,"ĠzakÃ¡z":10015,"ĠpravdÄĽpodobnÃ©":10016,"ĠjuniorÅ¯":10017,"Sparta":10018,"ĠzÃ¡dech":10019,"taly":10020,"ĠdÅ¯leÅ¾itou":10021,"ĠAngeles":10022,"form":10023,"ÃģL":10024,"liny":10025,"JakÃ¡":10026,"ĠmyslÃŃte":10027,"ens":10028,"livÃ½":10029,"ĠzranÄĽnÃŃm":10030,"Ġsenior":10031,"ĠprojednÃ¡":10032,"sÃŃch":10033,"ÅĻenÄĽ":10034,"Ġvytvo":10035,"ĠrozmezÃŃ":10036,"Ġtrasu":10037,"ĠpÃ¡t":10038,"Ġpit":10039,"zenÃ½m":10040,"Ġhrajeme":10041,"ĠzamÄĽÅĻ":10042,"ĠÃºsmÄĽv":10043,"ĠHavÃŃÅĻov":10044,"ĠspÃ¡t":10045,"ĠpapeÅ¾":10046,"tÄĽÅ¾":10047,"ĠdrÃ¡ze":10048,"ĠcÃŃsaÅĻ":10049,"Ġps":10050,"MladÃŃ":10051,"ĠÅ¡ampion":10052,"Ġaku":10053,"ĠaÄįkoliv":10054,"ĠzaÅĻa":10055,"Situace":10056,"vÃ¡n":10057,"ĠvznikajÃŃ":10058,"Ġobyvatelstva":10059,"Ġletadel":10060,"ĠSmo":10061,"ĠMarkÃ©ta":10062,"onem":10063,"Ġdoru":10064,"ĠuzavÅĻela":10065,"Ġbr":10066,"Oproti":10067,"ĠpoÄįÃŃtaÄįÅ¯":10068,"ĠletoÅ¡nÃŃch":10069,"ĠsnaÅ¾ÃŃm":10070,"Sla":10071,"ĠÅłpi":10072,"ĠPrÃ¡vo":10073,"Ġprezentace":10074,"vice":10075,"ĠEvropu":10076,"ĠchrÃ¡nÃŃ":10077,"ĠKaro":10078,"ĠdrÃ¡Å¾":10079,"zejÃŃ":10080,"ĠpÅĻipraveno":10081,"ĠtÃ©mata":10082,"ĠtouÅ¾ÃŃ":10083,"Ġorchestr":10084,"ĠprÃ¡vem":10085,"gera":10086,"ĠobrÃ¡zky":10087,"ĠkopÃŃ":10088,"movÃ©":10089,"ĠvyjÃŃt":10090,"ĠBush":10091,"Ġrozhlasu":10092,"ĠÄįekalo":10093,"ĠlaviÄįce":10094,"ĠVav":10095,"ĠmlÃ©ko":10096,"ĠStÃ¡":10097,"VY":10098,"ĠztrÃ¡tou":10099,"ĠIzrael":10100,"ĠpodveÄįer":10101,"ĠÃºro":10102,"ĠzmÄĽnÃ¡m":10103,"ĠsÃ¡lu":10104,"Ġpodobnou":10105,"RovnÄĽÅ¾":10106,"Ġtechnologi":10107,"Ġrekonstru":10108,"ĠLes":10109,"ĠpomÄĽry":10110,"ĠpÄĽst":10111,"Ġtechnikou":10112,"ĠadministrativnÃŃ":10113,"Tou":10114,"ĠzahÃ¡jila":10115,"Ġjakmile":10116,"BC":10117,"Ġdotazy":10118,"Ġinformovat":10119,"Ġgeneraci":10120,"stit":10121,"ĠkÅĻesÅ¥an":10122,"Ġnervy":10123,"ĠÄįlena":10124,"Ġvyt":10125,"jili":10126,"Ġca":10127,"Ġvlakem":10128,"enty":10129,"Ġpil":10130,"ĠotÃ¡zce":10131,"NÄĽco":10132,"ĠdÄĽlÃ¡m":10133,"ĠsplÃ¡":10134,"ĠjmenovÃ¡n":10135,"ĠlÃ©Äįbu":10136,"ĠzkouÅ¡ka":10137,"ĠÃºvÄĽry":10138,"ĠzÃ¡bava":10139,"ĠzÃ¡bav":10140,"Äįu":10141,"ĠpÅĻezdÃŃ":10142,"ĠKre":10143,"mnÃŃ":10144,"ĠuzavÅĻÃŃt":10145,"Osm":10146,"ĠbohatÃ½":10147,"Ġchlapci":10148,"Ġzpochyb":10149,"ĠLabe":10150,"nerovÃ¡":10151,"ÃįN":10152,"haly":10153,"ĠsbÃŃrku":10154,"Ġkaple":10155,"ĠnepochybnÄĽ":10156,"Ġvolejbal":10157,"ĠoheÅĪ":10158,"Ġkrvi":10159,"spÃŃ":10160,"ĠstÃ¡tÄĽ":10161,"ĠuskuteÄįnil":10162,"ĠkonajÃŃ":10163,"Fin":10164,"DÃŃ":10165,"ĠspoleÄįnou":10166,"ÄĮE":10167,"ĠpÅĻesvÄĽdÄįenÃŃ":10168,"ĠruskÃ½ch":10169,"ĠOFS":10170,"ĠdolnÃŃ":10171,"Ġledu":10172,"ĠStrÃ¡Å¾":10173,"Ġy":10174,"Ġzu":10175,"Ġum":10176,"ĠhÅĻbitov":10177,"ĠpÅĻÃŃjezdu":10178,"ĠPor":10179,"Ġzpravodaj":10180,"ĠvesmÃŃru":10181,"ĠnamÃŃ":10182,"Ġznal":10183,"Ġkluky":10184,"ĠopatrnÄĽ":10185,"ĠÃºstavnÃŃ":10186,"ĠRÅ¯Å¾iÄįka":10187,"ĠpodÃŃlÃŃ":10188,"ĠpÅĻÃŃchod":10189,"ĠobrovskÃ¡":10190,"ÄįtyÅĻicetiletÃ½":10191,"vami":10192,"ĠprodejnÃŃ":10193,"Ġkonstatuje":10194,"ĠvaÅ¡ich":10195,"ĠmÃ¡la":10196,"By":10197,"ĠSun":10198,"Ġprodal":10199,"cht":10200,"Ġvlivu":10201,"Ġbranka":10202,"ĠkomerÄįnÃŃ":10203,"ĠNad":10204,"jskÃ©":10205,"Ġchodce":10206,"ĠOE":10207,"Ci":10208,"ĠsluÅ¡":10209,"ĠtyÄįi":10210,"Ġoh":10211,"ĠpÅĻispÄĽl":10212,"SpoleÄįnÄĽ":10213,"ĠrybnÃŃka":10214,"ĠÄįekala":10215,"05":10216,"Sed":10217,"ĠdrÃ¡hu":10218,"ĠobsazenÃŃ":10219,"ĠsmÄĽÅĻ":10220,"Ġexperti":10221,"ĠnedokÃ¡Å¾e":10222,"ĠÄįernÃ½":10223,"ĠpÅĻesu":10224,"ĠnovinÃ¡ÅĻÅ¯m":10225,"Ġkurzy":10226,"ĠdokÃ¡zat":10227,"ĠobvinÄĽn":10228,"Ġhistoricky":10229,"ĠslavnÃ½":10230,"ĠPÅĻerovÄĽ":10231,"ĠPC":10232,"Ġzdob":10233,"ĠÄĮNB":10234,"Ġpustil":10235,"ĠGre":10236,"Ġkoncent":10237,"ĠsloÅ¾itÄĽjÅ¡ÃŃ":10238,"Ġpracovala":10239,"ĠvzdÃ¡le":10240,"ĠvÃ½mÄĽnu":10241,"ĠFar":10242,"ĠHod":10243,"DneÅ¡nÃŃ":10244,"ĠprovÃ¡dÄĽt":10245,"ĠnetradiÄįnÃŃ":10246,"ĠÅ¾ivnost":10247,"ĠdÃ©Å¡Å¥":10248,"ĠplavÃ¡nÃŃ":10249,"ĠzmÄĽnou":10250,"Ġprudce":10251,"ĠzÅĻe":10252,"ĠCan":10253,"Ġnehodu":10254,"Nebylo":10255,"Ġsynem":10256,"Ġpodporou":10257,"ĠtÃ©hle":10258,"ĠzlodÄĽje":10259,"ĠvÃ½her":10260,"ĠvzdÄĽla":10261,"ĠsprÃ¡vÄĽ":10262,"ĠolomouckÃ©":10263,"Ġupozornila":10264,"ĠzÃ¡kaznÃŃk":10265,"ĠpÃ³diu":10266,"ĠhostÅ¯m":10267,"Ġcivili":10268,"ĠTre":10269,"ĠumÄĽl":10270,"ph":10271,"ĠpÅĻÃŃtomnosti":10272,"Ġspadl":10273,"ĠvesmÄĽs":10274,"Ġfak":10275,"ĠÃºprava":10276,"ĠromÃ¡n":10277,"Ġprevence":10278,"ĠpÅĻÃŃkladem":10279,"tury":10280,"AP":10281,"letÃ½ch":10282,"rova":10283,"Ġstrav":10284,"Ġvlna":10285,"Ġprojevuje":10286,"ĠvÃ½znamnÃ½":10287,"Ġbenzin":10288,"ĠbezpeÄįÃŃ":10289,"ĠuÅ¡etÅĻit":10290,"Ġjednotka":10291,"ĠpÅĻÃŃzemÃŃ":10292,"Å¡nou":10293,"Ã¡lovÃ©":10294,"ĠobliÄįej":10295,"ĠkrÃ¡lovstvÃŃ":10296,"ĠpÅĻivÃŃtÃ¡":10297,"Å¡enÃ©ho":10298,"Ġbiskup":10299,"blÃŃ":10300,"ĠPoz":10301,"Kar":10302,"ÅĪte":10303,"ĠkomunistickÃ©":10304,"ĠslyÅ¡el":10305,"VÃ½sledek":10306,"VstupnÃ©":10307,"Ã³znÃŃ":10308,"Ġargument":10309,"ĠoÄįekÃ¡":10310,"ĠnachÃ¡zejÃŃ":10311,"Ġpochopit":10312,"fÃŃ":10313,"ĠsvÄĽtle":10314,"Ġom":10315,"ĠdÄĽdi":10316,"ĠMÃŃstku":10317,"Ġkopce":10318,"ĠrolÃŃ":10319,"ĠnevÃ¡":10320,"ĠteplÃ©":10321,"Ġchodil":10322,"ĠdefinitivnÃŃ":10323,"Ġinflace":10324,"ĠutkÃ¡nÃŃm":10325,"cenÄĽ":10326,"ĠpolicistÅ¯m":10327,"ĠradÅ¡i":10328,"ĠnavÃ¡":10329,"knou":10330,"ovanÄĽjÅ¡ÃŃ":10331,"ĠMoravskÃ©":10332,"ĠelektrÃ¡ren":10333,"ĠuÅ¾ivatel":10334,"ĠMorava":10335,"ĠbÅĻe":10336,"ĠdÅ¯leÅ¾itÄĽjÅ¡ÃŃ":10337,"ĠÅ½ÄıÃ¡r":10338,"ĠdÄĽj":10339,"ĠsamotnÃ©ho":10340,"ĠHus":10341,"vnÃ©":10342,"Ġjednatel":10343,"alÃŃk":10344,"ĠzÃ¡dy":10345,"ĠpÄĽtadvacet":10346,"ĠcestovnÃŃho":10347,"ĠUherskÃ©m":10348,"mnÄĽ":10349,"ĠvyvolÃ¡":10350,"Ġpozornosti":10351,"dci":10352,"lom":10353,"stein":10354,"Ġmrav":10355,"Ġprodu":10356,"OM":10357,"kvi":10358,"ĠosobÄĽ":10359,"atÃ½":10360,"Ġbarvu":10361,"Ġzapoj":10362,"Ġzahrada":10363,"ĠvÃ½povÄĽdi":10364,"ĠjimÅ¾":10365,"Ġnohu":10366,"65":10367,"leno":10368,"dÃŃk":10369,"Ġokno":10370,"ĠlidskÃ©ho":10371,"Ġsilnou":10372,"ĠulicÃŃ":10373,"Ġpoklad":10374,"Zhruba":10375,"zil":10376,"ÅĻenou":10377,"ĠnÃ¡strojÅ¯":10378,"ĠzÃ³nÄĽ":10379,"ĠbezprostÅĻednÄĽ":10380,"Ġsan":10381,"Ġtrav":10382,"ĠOnd":10383,"Ġnedostatku":10384,"Ġhudbou":10385,"aci":10386,"ĠPoslaneckÃ©":10387,"ĠMinisterstvo":10388,"Ġzvolit":10389,"ĠVz":10390,"Ġpravomoci":10391,"PÅĻedstav":10392,"Ġmalo":10393,"Ġkul":10394,"Ġzapojit":10395,"Ġsouboje":10396,"lickÃ©":10397,"ĠvÃ½znamnou":10398,"Åłlo":10399,"Ġvina":10400,"ZD":10401,"Ġkruh":10402,"Druhou":10403,"lÃ½mi":10404,"ĠurÄįitÃ½ch":10405,"ĠsousednÃŃ":10406,"ĠvraÅ¾du":10407,"lovÃ½m":10408,"ĠshodujÃŃ":10409,"ĠzakÃ¡zek":10410,"vaÅ¾":10411,"Miroslav":10412,"Ġgaran":10413,"ĠpadÃ¡":10414,"ĠpÅĻipravovat":10415,"tec":10416,"Ġklasi":10417,"zovÃ©":10418,"ĠspeciÃ¡lnÄĽ":10419,"raly":10420,"ĠpardubickÃ©":10421,"Å¡an":10422,"lob":10423,"gin":10424,"Ġpokuta":10425,"Ġvyslov":10426,"Ġspad":10427,"Å¾ÃŃvajÃŃ":10428,"Ġzapar":10429,"ĠsvÄĽdkÅ¯":10430,"Vla":10431,"Ġprincip":10432,"ĠtratÄĽ":10433,"Ġbojovali":10434,"letÃ½m":10435,"ĠPOD":10436,"Ġhere":10437,"ĠlÃŃÄįenÃŃ":10438,"ĠpÄĽtadvaceti":10439,"ĠvÃ½dajÅ¯":10440,"Ġinkas":10441,"ĠvÃ½jimky":10442,"Ġnajdeme":10443,"dro":10444,"ĠrozehrÃ¡":10445,"Ġjednot":10446,"Ġcyklo":10447,"ĠzahÃ¡jili":10448,"ĠsbÄĽra":10449,"sm":10450,"ĠmÃŃra":10451,"Ġvypl":10452,"Ġtur":10453,"brala":10454,"Ġrestitu":10455,"ĠFoto":10456,"Ġkomplikace":10457,"Ġvolantem":10458,"ĠpÅĻÃŃÅ¡tÄĽ":10459,"ĠekonomickÃ½ch":10460,"ĠÃºpravu":10461,"sah":10462,"ĠÃºnor":10463,"ĠtlaÄįÃŃ":10464,"ĠÄįelÃŃ":10465,"ĠItal":10466,"ĠuÅ¾ivatelÅ¯":10467,"ĠSlovÃ¡":10468,"ĠvÃ¡Å¾ÃŃ":10469,"ĠmÃŃstnost":10470,"ĠzadrÅ¾eli":10471,"ticÃŃch":10472,"kty":10473,"Hod":10474,"ĠNÃ¡chod":10475,"Äįiny":10476,"ĠvÄĽtru":10477,"Hor":10478,"ĠvoliÄįi":10479,"ĠbezpeÄįnÄĽ":10480,"Ġreklama":10481,"ĠnezbÃ½vÃ¡":10482,"Ġmetry":10483,"ĠkÅĻiÅ¾ovatce":10484,"kovskÃ©ho":10485,"ĠÃºÄįinky":10486,"ĠvÃ½nos":10487,"Ġvozem":10488,"ĠnÃ¡drÅ¾e":10489,"ĠJane":10490,"ĠzdÄĽ":10491,"ovna":10492,"ĠmanÅ¾elky":10493,"enky":10494,"Å¾ku":10495,"ĠÄįistÃ½":10496,"ĠcizincÅ¯":10497,"ĠobdrÅ¾el":10498,"ĠLib":10499,"jedou":10500,"ĠpÅĻÃŃznivcÅ¯":10501,"ĠjÃŃdel":10502,"uz":10503,"Ġarchitektury":10504,"ĠDaniela":10505,"ĠKromÄĽ":10506,"ĠvyÅĻÃŃ":10507,"Ġtelefony":10508,"ura":10509,"Ġpsychicky":10510,"Ġdokumentace":10511,"ĠpÅĻesnÃ©":10512,"Moje":10513,"ĠnevÃŃme":10514,"ĠzamÄĽstnavatel":10515,"Ġinterpre":10516,"ĠnÄĽmeckÃ¡":10517,"Du":10518,"ĠoptimÃ¡lnÃŃ":10519,"Ġkauze":10520,"Ġvytr":10521,"ĠbÄĽÅ¾nÃ½ch":10522,"Ġdobrovol":10523,"Ġcentr":10524,"ĠpouÅ¾ÃŃ":10525,"ĠnechtÄĽla":10526,"vkami":10527,"Ġkrav":10528,"ĠvysvÄĽtloval":10529,"ĠpÅĻenosu":10530,"Ġpomohli":10531,"ans":10532,"Ġzlata":10533,"NÃ¡sled":10534,"ĠZem":10535,"ĠjÃŃmÅ¾":10536,"zÃ¡n":10537,"ĠcelkovÃ©m":10538,"Ġbru":10539,"ĠvydÄĽ":10540,"kÃ¡ÅĻe":10541,"rid":10542,"kÃ¡t":10543,"ĠMUDr":10544,"Ġjem":10545,"ĠBÅ¯h":10546,"ĠobrÃ¡zek":10547,"Ġmilost":10548,"ĠÃºklid":10549,"kÃ¡me":10550,"kovic":10551,"ĠvÃ½znamu":10552,"ĠVÃĿ":10553,"ĠvidÃŃte":10554,"Ġzru":10555,"pÅĻed":10556,"ĠsÃŃni":10557,"&":10558,"ĠcelkÅ¯":10559,"ĠstaÄįit":10560,"enost":10561,"ÅĪovala":10562,"Ġodehraje":10563,"Ġztratili":10564,"ĠRod":10565,"ĠsnÃŃÅ¾ÃŃ":10566,"DU":10567,"Ġpravi":10568,"ĠabsolutnÄĽ":10569,"ĠsmÅ¯lu":10570,"ĠzadrÅ¾":10571,"ĠdneÅ¡ka":10572,"ĠMÃŃstek":10573,"Ġtestu":10574,"ĠlÅ¾i":10575,"ĠpodÄĽkovat":10576,"bka":10577,"ĠaÄį":10578,"ĠnemÄĽnÃŃ":10579,"ĠtÅĻÃŃdu":10580,"ĠpoÅ¾aduje":10581,"Ġeko":10582,"IP":10583,"ĠuÅ¾it":10584,"ĠnabÃŃzet":10585,"TakovÃ¡":10586,"Ġzpo":10587,"hot":10588,"ĠvÃ½chodÄĽ":10589,"Ġobsahem":10590,"Ġupozornit":10591,"tÃ½ch":10592,"bÅĻe":10593,"ĠodmÃŃtli":10594,"menÃŃ":10595,"Ġnakou":10596,"Ġjezdci":10597,"ĠpotÅĻeboval":10598,"ChtÄĽli":10599,"ĠpÅĻÃŃrodnÃŃch":10600,"ĠRam":10601,"ĠÅĻÃŃÅ¡e":10602,"ĠPen":10603,"Ġtera":10604,"ĠsezÃ³nu":10605,"ĠÃºÅĻadÄĽ":10606,"ĠPolsko":10607,"Ġplnit":10608,"ĠautobusÅ¯":10609,"ĠnaruÅ¡":10610,"kÃ¡zal":10611,"Ġcelkovou":10612,"ĠÅ¾al":10613,"ĠnevÃ½":10614,"alÃ½":10615,"ĠobliÄįeje":10616,"ĠÅĻece":10617,"ĠvyuÅ¾ÃŃ":10618,"ĠbaroknÃŃ":10619,"Ġsympati":10620,"Ġnekone":10621,"ĠpropojenÃŃ":10622,"ĠvylÃ©":10623,"chÃ¡zelo":10624,"avÃ©":10625,"ĠuvedenÃ½ch":10626,"ĠznaÄįka":10627,"Ġziskem":10628,"ĠnalÃ©zt":10629,"ĠMak":10630,"los":10631,"Ode":10632,"rovÃ½m":10633,"dnou":10634,"ĠnazÃ½":10635,"ĠBeroun":10636,"ĠRE":10637,"Ġodhadnout":10638,"ODS":10639,"FC":10640,"ĠtrenÃ©rÅ¯":10641,"Å¡kou":10642,"Ġhygieni":10643,"covÃ½ch":10644,"ĠÄįeskÃ½mi":10645,"sona":10646,"ĠvÃ½stavnÃŃ":10647,"ĠRO":10648,"Ġnadace":10649,"ĠzpÅ¯sobit":10650,"ĠMatÄĽj":10651,"ĠmoÅ¾nÃ½":10652,"ĠturistickÃ©":10653,"Ġpomohlo":10654,"dor":10655,"ĠjednoduchÃ½":10656,"Ġbloku":10657,"Ġcharakteru":10658,"Ġzam":10659,"ĠLang":10660,"ĠneÅĻÃŃ":10661,"ĠsedÄĽt":10662,"jka":10663,"Ġztratila":10664,"ĠGott":10665,"Ġpenaltu":10666,"Ġkapsy":10667,"ĠrozhodnutÃŃm":10668,"ĠvyhledÃ¡":10669,"ceno":10670,"ĠDivadle":10671,"ĠAmeriÄįan":10672,"ĠuskuteÄįnit":10673,"ĠkomunÃ¡lnÃŃ":10674,"ĠneÄįek":10675,"ĠveÅĻejnou":10676,"ĠMÄĽli":10677,"ĠNet":10678,"ĠdozorÄįÃŃ":10679,"Ġschopna":10680,"ĠpodÃŃ":10681,"ĠzahrÃ¡":10682,"ĠbrnÄĽnskÃ½":10683,"nuje":10684,"obu":10685,"Ġprob":10686,"Ġexperiment":10687,"ĠnÃ¡slednÃ©":10688,"PotÅĻe":10689,"ĠkÅĻÃŃdla":10690,"Ġvzrostl":10691,"ProstÄĽjov":10692,"Ġporodu":10693,"Ġmoji":10694,"Ġakt":10695,"Ġlikvi":10696,"Ġhistori":10697,"ovanÄĽ":10698,"ĠvyprÃ¡vÄĽnÃŃ":10699,"ĠWin":10700,"ĠvnÃŃm":10701,"Ġmajet":10702,"ĠHrade":10703,"Stra":10704,"vanÃ½m":10705,"ĠniÄįemu":10706,"ĠbÅĻevno":10707,"Ġdomech":10708,"Ġvyprac":10709,"Ġobjed":10710,"ĠNÄĽme":10711,"rÃ¡tÅ¯":10712,"Ġochot":10713,"naly":10714,"ĠsoustÅĻedit":10715,"ach":10716,"Ġpodiv":10717,"ĠrozdÃŃlem":10718,"Vstup":10719,"ĠmÃ©diÃŃch":10720,"Ġtaj":10721,"Ġpochvaloval":10722,"Ġvstoupit":10723,"Ġnedostali":10724,"ĠzprÃ¡vÄĽ":10725,"ĠvymÄĽnit":10726,"Ġcenter":10727,"Ġhmoty":10728,"Ġkontrol":10729,"kam":10730,"ĠsluÅ¾bÃ¡ch":10731,"dan":10732,"ZdenÄĽk":10733,"ĠbritskÃ©ho":10734,"ĠnabÃŃdkou":10735,"ĠoÄįekÃ¡vajÃŃ":10736,"Ġinfrastruktury":10737,"Ġnejrychleji":10738,"MÃŃstnÃŃ":10739,"ĠklÃ¡Å¡tera":10740,"ĠdÃ¡lnic":10741,"Ġtomhle":10742,"ĠpÅĻedstava":10743,"Ġopi":10744,"nostnÃŃ":10745,"ĠVÃ¡s":10746,"ĠpevnÃ©":10747,"ĠpersonÃ¡lnÃŃ":10748,"Ġpodlehli":10749,"Ġvzdu":10750,"Ġvzdal":10751,"ÄĮÃŃ":10752,"ĠVÅ¡ichni":10753,"ĠnestaÄįil":10754,"ĠnovinÃ¡ÅĻÅ¯":10755,"ĠChod":10756,"ĠStan":10757,"Ġnemuseli":10758,"ĠzastupitelstvÃŃ":10759,"Ġrozto":10760,"ĠkontrolnÃŃ":10761,"LÃ©kaÅĻi":10762,"ĠpÅĻÃ¡teli":10763,"ĠpÅĻijÃŃmÃ¡":10764,"Par":10765,"ĠintenzivnÄĽ":10766,"ĠtrestnÃŃho":10767,"ĠSobotka":10768,"Ġrozsudku":10769,"Ġradi":10770,"ĠkomunistÅ¯":10771,"ĠÄĮSOB":10772,"ĠproblÃ©mÅ¯m":10773,"ĠzÃ¡padnÃŃch":10774,"Ġnedostatky":10775,"Ġopti":10776,"Ġzaplatil":10777,"Ġ187":10778,"ĠZÃŃ":10779,"ĠzkouÅ¡ku":10780,"Ġfotbale":10781,"ĠSV":10782,"ĠreÃ¡lnÃ©":10783,"ĠjednoduÅ¡Å¡ÃŃ":10784,"Ġmatemati":10785,"33":10786,"ney":10787,"hlas":10788,"ĠstÅĻÃŃbro":10789,"ĠzmiÅĪ":10790,"ĠIT":10791,"logÅ¯":10792,"ĠobrÃ¡tit":10793,"Ġvle":10794,"Å¾ejÃŃ":10795,"ĠVÃŃce":10796,"ĠstÃ¡je":10797,"ĠjevÃŃ":10798,"Vyu":10799,"Ġsezonou":10800,"Ġstu":10801,"ĠzpravodajstvÃŃ":10802,"hop":10803,"ĠprodÃ¡vajÃŃ":10804,"Ġvaruje":10805,"Den":10806,"ĠmÃ¡lokdo":10807,"Majitel":10808,"znam":10809,"ĠnÄĽkterÃ½":10810,"Ġzmrz":10811,"hodnÃ¡":10812,"ĠzahÃ¡jena":10813,"ĠolympiÃ¡dÄĽ":10814,"Ġozbroj":10815,"ĠnepÅĻÃŃjem":10816,"ĠvrÃ¡":10817,"lÃ¡ÅĻ":10818,"Ġotcem":10819,"ĠSen":10820,"ĠujÃŃt":10821,"ĠpÅĻidÃ¡me":10822,"bilo":10823,"ĠvstupnÃŃ":10824,"ĠpÅĻ":10825,"stavil":10826,"ĠnervÃ³znÃŃ":10827,"Ġdaly":10828,"kovo":10829,"ĠStanislava":10830,"ĠkalendÃ¡ÅĻ":10831,"Ġvystoupil":10832,"dÄĽlo":10833,"Jana":10834,"Å¡ovice":10835,"Ġpalubovce":10836,"RI":10837,"ĠdÅ¯vÄĽ":10838,"RadnÃŃ":10839,"ĠvÃ½sled":10840,"ĠmilÃ¡":10841,"ĠdÄĽjiny":10842,"ĠpotenciÃ¡l":10843,"ĠÅłpanÄĽlsku":10844,"ĠinteriÃ©ru":10845,"ĠnÄĽmeckÃ©m":10846,"ĠÃºprav":10847,"ĠmanÅ¾elÃ©":10848,"brali":10849,"nt":10850,"kus":10851,"ktem":10852,"Å¡ovÄĽ":10853,"low":10854,"ĠnevÄĽdÃŃ":10855,"ĠcÃŃrkev":10856,"ĠpraktickÃ©":10857,"Ġpokladny":10858,"Ġprask":10859,"ĠÅ¡Ã©fem":10860,"Ġzajistili":10861,"DobÅĻe":10862,"ĠpoptÃ¡vka":10863,"tÃŃk":10864,"lich":10865,"ĠspoÅĻenÃŃ":10866,"ĠpodstatnÃ©":10867,"rÃ¡lnÃŃho":10868,"ĠzbÃ½vajÃŃcÃŃ":10869,"ĠnÃ¡mÄĽstka":10870,"Ġvysa":10871,"Stav":10872,"tej":10873,"toval":10874,"ĠglobÃ¡lnÃŃ":10875,"ĠzamÃŃt":10876,"Ġodhod":10877,"ĠpodpoÅĻÃŃ":10878,"ĠpÅĻedal":10879,"logovÃ©":10880,"Ġpracovali":10881,"Ġsilou":10882,"ĠministrynÄĽ":10883,"Ġzastavila":10884,"ĠzÃ¡bavy":10885,"ĠMO":10886,"Ġzobraz":10887,"GA":10888,"Å¡eli":10889,"Ġobjas":10890,"Ġbyznys":10891,"ĠnÄĽmuÅ¾":10892,"NÄĽkdo":10893,"ZÃ¡leÅ¾ÃŃ":10894,"Ġroztr":10895,"ĠpÅĻeruÅ¡":10896,"ĠrozumÃŃ":10897,"ĠvazbÄĽ":10898,"ĠzabÃŃ":10899,"chajÃŃ":10900,"ĠzakÃ¡zku":10901,"ĠÅ¡Å¥astnÃ½":10902,"ĠkapitÃ¡na":10903,"ĠJaponsku":10904,"Ġ98":10905,"ĠjakÃ©si":10906,"ĠrozvÃ¡":10907,"ĠbuÅĪky":10908,"ĠparadoxnÄĽ":10909,"stiku":10910,"Ġlesy":10911,"ĠrozdÃ¡":10912,"ĠdrobnÃ½ch":10913,"ĠsportovnÃŃm":10914,"ĠzasvÄĽ":10915,"Informace":10916,"ĠparlamentnÃŃ":10917,"ĠpÅĻedvÃ¡":10918,"VladimÃŃr":10919,"Å½eny":10920,"ĠzmÃŃnil":10921,"Ġsestup":10922,"Ġminimum":10923,"ĠClinton":10924,"ĠzastÃ¡vky":10925,"Ġsve":10926,"ĠÅĻÃŃkala":10927,"ĠsamostatnÄĽ":10928,"ĠnÄĽjÅ¾":10929,"ĠrodÃ¡k":10930,"Ġkorupce":10931,"Ġvcelku":10932,"Ġkre":10933,"ÅĻez":10934,"ĠpÅĻihlÃ¡sit":10935,"Ġprincipu":10936,"lali":10937,"ĠDÃ¡":10938,"ĠdorazÃŃ":10939,"ĠTimes":10940,"entu":10941,"ĠdobrodruÅ¾stvÃŃ":10942,"ologickÃ©":10943,"fon":10944,"Ġpochy":10945,"Ġznak":10946,"ĠvzdÃ¡lenost":10947,"ĠnadchÃ¡zejÃŃcÃŃ":10948,"ĠBlaÅ¾ek":10949,"Ġpodali":10950,"ĠProti":10951,"ĠnÃ¡rodnÃŃch":10952,"Nem":10953,"ZÅ¯":10954,"ĠTrutnov":10955,"itnÃŃ":10956,"Chomutov":10957,"ĠKlatovy":10958,"ĠvojÃ¡ky":10959,"ĠmlÃ¡":10960,"penÃŃm":10961,"ĠpohlavÃŃ":10962,"ĠkriminalistÃ©":10963,"ĠEli":10964,"ĠpÅĻibliÅ¾uje":10965,"hodnÄĽ":10966,"ĠnejradÄĽji":10967,"Ġvybrala":10968,"ĠMr":10969,"Ġrozsah":10970,"Ġkonflikt":10971,"Ġvezme":10972,"Ġtrans":10973,"ĠsedmdesÃ¡tÃ½ch":10974,"ĠRom":10975,"ĠsbÃŃrek":10976,"Å¡skÃ©":10977,"ĠdoplÅĪ":10978,"Ġskok":10979,"ĠblÃ¡":10980,"NabÃŃ":10981,"Ġplanety":10982,"ĠÄįlÃ¡nky":10983,"Ġekonomiku":10984,"chÃ¡m":10985,"Ġnahradil":10986,"ĠklÃŃÄįovÃ©":10987,"ĠzamÄĽstnanec":10988,"Ġ1988":10989,"zav":10990,"Ġtebe":10991,"Ġkdybychom":10992,"ĠmyÅ¡lenka":10993,"Stavba":10994,"Ġrameny":10995,"Ġrozhodnou":10996,"ota":10997,"ĠMusÃŃme":10998,"Ġodvo":10999,"Ġtah":11000,"ĠpÅĻÃŃsluÅ¡nÃ©":11001,"ĠhÅ¯ÅĻ":11002,"asy":11003,"ĠvytvÃ¡ÅĻet":11004,"Ġlevi":11005,"ĠÅĻ":11006,"ĠnavÃ¡zat":11007,"ĠÅ¾lutÃ©":11008,"ĠdeÅ¡ti":11009,"AlespoÅĪ":11010,"ĠztrÃ¡t":11011,"ĠSim":11012,"Ġodci":11013,"ĠnovÃ©mu":11014,"ĠmladÃ½m":11015,"TÄĽÅ¾ko":11016,"ĠzajÃŃmat":11017,"ĠvÃ½konnost":11018,"ĠstabilnÃŃ":11019,"ĠHanÃ¡":11020,"inku":11021,"Ġbl":11022,"lana":11023,"tre":11024,"Å¡ejÃŃ":11025,"Ġmor":11026,"Ġbral":11027,"silo":11028,"ĠjÃŃÅ¾":11029,"inÃ¡m":11030,"gre":11031,"Ġskladatel":11032,"Ġpedagogi":11033,"ĠpÅĻij":11034,"ĠMÄĽsta":11035,"Ġpublikace":11036,"ĠutkÃ¡nÃŃch":11037,"LOV":11038,"dol":11039,"ĠobÄĽÅ¥":11040,"ĠTru":11041,"Ġmak":11042,"MU":11043,"ĠmÃ¡Å¡":11044,"ĠGru":11045,"Taky":11046,"vÃ©m":11047,"ĠhezkÃ©":11048,"nos":11049,"ĠfirmÃ¡m":11050,"ĠnazÃ½vÃ¡":11051,"Ġkontrolovat":11052,"Ġhad":11053,"ml":11054,"alistÃ©":11055,"Ġtance":11056,"OpÄĽt":11057,"ĠpÅĻeno":11058,"Ġzimy":11059,"rce":11060,"Ġuvol":11061,"jednÃ¡":11062,"ĠodnÄĽtÃŃ":11063,"Ġnormy":11064,"ĠOpavy":11065,"ĠnÃ¡bytek":11066,"ĠvÃŃn":11067,"Ġcigaret":11068,"Ġprovozovatel":11069,"ĠvodnÃŃch":11070,"rev":11071,"ĠkoÅĻeny":11072,"Ġzapl":11073,"ĠWashingtonu":11074,"'s":11075,"nia":11076,"lÃŃÄįek":11077,"tickÃ©m":11078,"ĠsvÄĽtem":11079,"ĠodehrÃ¡vÃ¡":11080,"ĠmÄĽk":11081,"ĠpotvrzenÃŃ":11082,"Ġdel":11083,"II":11084,"ĠVE":11085,"VÃĿ":11086,"ĠnemocÃŃ":11087,"Ġjih":11088,"boru":11089,"ĠvybÃŃrÃ¡":11090,"Ġstandard":11091,"kovicÃŃch":11092,"NÃįK":11093,"ĠÃºkor":11094,"Ġdoprav":11095,"Ġzmat":11096,"ĠzÃºÄįastnili":11097,"ĠvyhlÃ¡":11098,"zce":11099,"psali":11100,"novÃ©ho":11101,"Ġkameny":11102,"Ġzaplav":11103,"Ġstatistiky":11104,"ĠstÅĻela":11105,"ĠSpartu":11106,"ĠÅĻadÃŃ":11107,"Ġletu":11108,"ĠnepÅĻÃŃliÅ¡":11109,"ĠEr":11110,"ĠzdÃ¡t":11111,"ĠkÅĻiÅ¾ovatky":11112,"ĠMetro":11113,"Ġzma":11114,"ĠÃºspory":11115,"hrÃ¡t":11116,"ĠslovenskÃ½ch":11117,"manovÃ¡":11118,"tisÃŃ":11119,"Ġpev":11120,"ssi":11121,"ĠumÄĽlce":11122,"Ġ125":11123,"ĠpoÄįÃŃ":11124,"NÃ¡klady":11125,"ĠlÃ©Äįby":11126,"ĠzdravotnickÃ©":11127,"ĠobvyklÃ©":11128,"ĠAR":11129,"novÃ©m":11130,"Ġzablo":11131,"ĠTopolÃ¡nek":11132,"ĠzjevnÄĽ":11133,"Sy":11134,"jek":11135,"ĠvÃ¡noÄįnÃŃch":11136,"ĠKlubu":11137,"ĠzÃ¡konÃŃku":11138,"ĠstavÄĽ":11139,"Å¡tejn":11140,"ĠpÅĻedsedkynÄĽ":11141,"ĠIl":11142,"Ġodvezli":11143,"Ġvyrobit":11144,"ĠdivÃ¡":11145,"ĠpotÃŃÅ¾ÃŃ":11146,"ĠpraÅ¾skÃ¡":11147,"ĠDukla":11148,"zeÅĪ":11149,"Ġpadla":11150,"ĠvisÃŃ":11151,"Ġuli":11152,"ĠnÃ¡rodnÃŃm":11153,"ÄĮR":11154,"Ġpustit":11155,"Ġsoudy":11156,"ĠJez":11157,"ĠCZ":11158,"BOR":11159,"ĠdosaÅ¾enÃŃ":11160,"ĠplzeÅĪskÃ©ho":11161,"ĠsprÃ¡v":11162,"ĠSc":11163,"ĠNÄĽmcÅ¯":11164,"ĠnavÅ¡tÃŃvÃŃ":11165,"ĠIr":11166,"Ã³zy":11167,"Ġuznal":11168,"ĠobtÃŃ":11169,"ĠpÅĻipomenout":11170,"mala":11171,"Ġosla":11172,"ĠhorskÃ½ch":11173,"Ġfol":11174,"Ġkriminali":11175,"ĠvÃ½hodnÃ©":11176,"Ġreprodu":11177,"ĠAfghÃ¡nistÃ¡nu":11178,"ĠvolebnÃŃho":11179,"ĠtyÄįe":11180,"Ġsrdci":11181,"ĠBohemia":11182,"kre":11183,"Ġzaslou":11184,"Takhle":11185,"Ġpracov":11186,"Ġkontrola":11187,"Ġminu":11188,"Ġfra":11189,"ĠnecelÃ©":11190,"BuÄı":11191,"Cesta":11192,"Kladno":11193,"ĠobchodÄĽ":11194,"Ġnaci":11195,"Ġparametry":11196,"ĠMou":11197,"ĠalternativnÃŃ":11198,"ĠpÅĻijali":11199,"ĠTeplic":11200,"ĠzvyÅ¡ovÃ¡nÃŃ":11201,"SvÅ¯j":11202,"ĠHub":11203,"Boj":11204,"ĠJablonce":11205,"Ġnesta":11206,"ĠKlub":11207,"ĠSpojenÃ©":11208,"Ġochotni":11209,"NejvyÅ¡Å¡ÃŃ":11210,"lenÃ½m":11211,"DÅ¯vod":11212,"ĠPanny":11213,"ĠodmÃŃt":11214,"ÅĻenÃ©ho":11215,"ĠâĢĺ":11216,"ĠDostÃ¡l":11217,"ĠstarÅ¡ÃŃho":11218,"ĠrozvÃŃ":11219,"Ġjinam":11220,"laÄįnÃŃ":11221,"ĠprobÃŃhajÃŃ":11222,"ĠSuch":11223,"ĠprohrÃ¡la":11224,"ĠÄįili":11225,"ĠzdravotnÃŃho":11226,"Ġkabinetu":11227,"jdu":11228,"ĠRomÅ¯":11229,"ĠposkytovÃ¡nÃŃ":11230,"Ġletadlo":11231,"Ġanglicky":11232,"ĠpÅĻÃŃtele":11233,"Ġbasketbal":11234,"ĠtechnickÃ©ho":11235,"ĠovlÃ¡dÃ¡nÃŃ":11236,"ĠvyjadÅĻovat":11237,"Ġ89":11238,"teÄįnÃ©":11239,"pustÃŃ":11240,"ĠpodobnÃ½m":11241,"ĠsvÄĽdectvÃŃ":11242,"ĠtvoÅĻit":11243,"ĠLudÄĽk":11244,"Ġstudii":11245,"Ġfanta":11246,"PoÅĻadatelÃ©":11247,"ĠshromÃ¡Å¾":11248,"ĠdÅ¯kladnÄĽ":11249,"ĠMoto":11250,"Ġcokoliv":11251,"ĠKarvinÃ¡":11252,"dost":11253,"ĠpÅĻehlÃŃdka":11254,"Ġ61":11255,"Ġobr":11256,"TER":11257,"Ġnechceme":11258,"ĠBed":11259,"Ġvariantu":11260,"Ġspla":11261,"ĠodehrÃ¡":11262,"ĠzruÅ¡il":11263,"Ġcosi":11264,"ĠRob":11265,"ĠzaÄįÃŃnal":11266,"ĠpÅĻÃŃjemnÄĽ":11267,"gl":11268,"Nech":11269,"Ġchleba":11270,"Å¾oval":11271,"jila":11272,"RÃ¡d":11273,"ĠÄĮi":11274,"Ġvystou":11275,"ĠzÃ¡leÅ¾et":11276,"Ġchov":11277,"Ġdopisy":11278,"Ġmoz":11279,"ĠspÃ¡nku":11280,"ĠpÅĻÃ¡telstvÃŃ":11281,"ĠotevÃŃrÃ¡":11282,"ĠzÃ¡vodnÃŃci":11283,"ĠzajÃŃmavou":11284,"ĠmÄĽsty":11285,"Sice":11286,"VI":11287,"ĠvÃ½bÄĽrovÃ©ho":11288,"BR":11289,"erie":11290,"ĠMusic":11291,"ĠFord":11292,"muje":11293,"Ġpoznal":11294,"ĠChrudimi":11295,"ĠnadÃ¡":11296,"ĠpÅĻipoj":11297,"enskÃ½":11298,"Ġpoprav":11299,"Ġstup":11300,"Milan":11301,"ÃģR":11302,"alizaci":11303,"ĠAutor":11304,"ĠdodrÅ¾ovÃ¡nÃŃ":11305,"ĠtypÅ¯":11306,"ĠvelkÃ½mi":11307,"Ġslep":11308,"Ġdefin":11309,"Ġ84":11310,"Ġprozradila":11311,"ĠnaÅ¡emu":11312,"Ġraket":11313,"Ġzrych":11314,"ĠdoplnÃŃ":11315,"Ġpostupy":11316,"ĠzajiÅ¡Å¥":11317,"ĠsniÅ¾ovÃ¡nÃŃ":11318,"oto":11319,"ĠporÃ¡Å¾ce":11320,"Ġautomobilky":11321,"ĠÄįernou":11322,"ĠdÅ¯leÅ¾itÃ½ch":11323,"ĠMalÃ¡":11324,"ĠZnojmo":11325,"pci":11326,"ĠposÃ¡dky":11327,"san":11328,"Ġskli":11329,"ĠvojenskÃ½ch":11330,"gel":11331,"Vzni":11332,"JelikoÅ¾":11333,"Ġzaveden":11334,"PodobnÃ©":11335,"ĠtragÃ©die":11336,"ÅĪan":11337,"Ce":11338,"ĠÅłim":11339,"TÅĻe":11340,"Ġnerozhod":11341,"bÃ½vÃ¡":11342,"ĠhromadnÃ©":11343,"ĠobhÃ¡jce":11344,"covou":11345,"ĠbÄĽÅ¾nÃ½":11346,"ĠkrÃ¡deÅ¾":11347,"ĠvÃ½Å¡ka":11348,"Ġprav":11349,"ĠuplynulÃ©m":11350,"ĠhasiÄį":11351,"ĠKomenskÃ©ho":11352,"ĠlÃ¡znÃŃ":11353,"ĠteplÃ¡":11354,"Ġzdra":11355,"Ġreality":11356,"ĠBÅĻeclavi":11357,"Ġ83":11358,"Ġsmo":11359,"PatÅĻÃŃ":11360,"ĠodmÃŃtajÃŃ":11361,"ĠskrÃ½vÃ¡":11362,"ĠpÅĻÃŃspÄĽvku":11363,"Ġklesla":11364,"Ġmajitelem":11365,"ĠvlÃ¡dne":11366,"ĠhokejovÃ½":11367,"ĠSoukup":11368,"ĠenergetickÃ©":11369,"Ġblaho":11370,"ĠVÅł":11371,"Teplice":11372,"PostupnÄĽ":11373,"ĠHrad":11374,"Ġprov":11375,"ĠSpartou":11376,"Zato":11377,"chova":11378,"ĠvhodnÃ¡":11379,"Ġzadlu":11380,"ĠzÃ¡soby":11381,"ĠpotÅĻebovali":11382,"lor":11383,"FrantiÅ¡ek":11384,"ĠpÅĻedvolebnÃŃ":11385,"ĠnestojÃŃ":11386,"ĠnavÃ½Å¡enÃŃ":11387,"ĠvybranÃ©":11388,"ĠdluÅ¾ÃŃ":11389,"ĠpÅĻijedou":11390,"ĠlÃ©Äįi":11391,"Ġdiagnosti":11392,"drÅ¾":11393,"Ġrozsudek":11394,"ĠsluÅ¡nÄĽ":11395,"ĠpÅĻihlÃ¡":11396,"tivnÃŃch":11397,"Ġtrvala":11398,"Ġoslab":11399,"ĠTele":11400,"ĠvylouÄįit":11401,"ĠohlÃ¡":11402,"Studenti":11403,"zila":11404,"ĠobjednÃ¡":11405,"Ġskon":11406,"pec":11407,"Ġ87":11408,"ĠspeciÃ¡lnÃŃch":11409,"rovanÃ½":11410,"rÃ¡tor":11411,"raÄįnÃŃ":11412,"gli":11413,"Ġzvolili":11414,"Ã³z":11415,"Ġsetkal":11416,"Ġkritiky":11417,"ĠÄįerv":11418,"ake":11419,"Au":11420,"ĠekonomickÃ½":11421,"ĠKer":11422,"Å¡ovÃ¡nÃŃ":11423,"kup":11424,"lÃŃkÅ¯":11425,"tru":11426,"ĠCu":11427,"ĠOkresnÃŃ":11428,"ĠzÃ¡kaznÃŃkÅ¯m":11429,"Ġpozdrav":11430,"ĠpÅĻineslo":11431,"ĠdobrovolnÄĽ":11432,"ĠnebezpeÄįnÃ½":11433,"Ġvyko":11434,"ĠamerickÃ©m":11435,"ĠinvestoÅĻi":11436,"ĠÄįÃ¡stkou":11437,"ĠkonkrÃ©tnÃŃch":11438,"hneme":11439,"ĠplatnÃ©":11440,"rujÃŃ":11441,"padne":11442,"ĠligovÃ©":11443,"Ġbox":11444,"ĠpoÅ¾adavkÅ¯":11445,"cii":11446,"hlÃ©dl":11447,"ĠdobÃ¡ch":11448,"Zak":11449,"ĠtvÅ¯rÄįÃŃ":11450,"ĠrekonstrukcÃŃ":11451,"LÃ©":11452,"Ġpostava":11453,"Ġklo":11454,"ĠpÅĻÃŃÄįiny":11455,"ĠpÅĻipravenÃ½":11456,"cia":11457,"ĠinformaÄįnÃŃch":11458,"Ġ97":11459,"Ġkytar":11460,"Ġhroz":11461,"Ġdivizi":11462,"ĠzdÃ¡nlivÄĽ":11463,"Ġfrancouz":11464,"Ġpoc":11465,"Ġekonomi":11466,"ĠUnited":11467,"Dne":11468,"Ġ86":11469,"ĠvÃ½zvu":11470,"nuto":11471,"VÃ½sledkem":11472,"kety":11473,"Ġnafty":11474,"bech":11475,"ĠrÅ¯Å¾":11476,"ĠprostranstvÃŃ":11477,"Å¾eni":11478,"ĠnahlÃ¡":11479,"jÃŃÅ¾dÄĽl":11480,"ĠGal":11481,"ĠruÄįnÃŃ":11482,"cova":11483,"Ġhlasem":11484,"anc":11485,"ĠAfriky":11486,"Ġstres":11487,"Ġreklamu":11488,"Ġsmet":11489,"ĠutkajÃŃ":11490,"nÄĽk":11491,"ĠzÃ¡kladnÃŃm":11492,"Ġstrachu":11493,"ĠMuÅ¾":11494,"Start":11495,"Ġvyvinu":11496,"ĠRock":11497,"ĠpÃŃse":11498,"Ġpor":11499,"ĠzÃ¡loÅ¾":11500,"Ġmld":11501,"ovickÃ©":11502,"Ġ900":11503,"Ġstrategii":11504,"enÃŃm":11505,"ĠAsociace":11506,"adÃŃ":11507,"ĠmladÃŃka":11508,"ĠÅ¾enÃ¡m":11509,"Ġkomedii":11510,"ĠodborÅ¯":11511,"ĠumÄĽleckÃ½ch":11512,"Ġharmo":11513,"ĠtvrdÃ½":11514,"ĠzimnÃŃho":11515,"ktiv":11516,"ĠpÅĻepadenÃŃ":11517,"rovy":11518,"Ġporazila":11519,"Ġobe":11520,"ĠnekonÄįÃŃ":11521,"Ã¡tko":11522,"ĠdozvÃŃ":11523,"ĠpÅĻehrady":11524,"ktory":11525,"DÅĻÃŃve":11526,"Ġzeptat":11527,"ÅĻeny":11528,"Ġdodavatele":11529,"ilÃŃ":11530,"Ġzahrad":11531,"ĠbrÃ½le":11532,"ĠMoskva":11533,"ĠhÃ½":11534,"bice":11535,"Ġturi":11536,"ĠPaul":11537,"Ġzabav":11538,"vent":11539,"prÃ¡vnÃŃ":11540,"Ġsnahy":11541,"ĠBarto":11542,"ĠJednÃ¡":11543,"Ġcu":11544,"ĠspoluhrÃ¡Äįi":11545,"Ġbiologi":11546,"KÃī":11547,"ĠzimnÃŃch":11548,"ĠpÅĻedpoklÃ¡dat":11549,"ys":11550,"Ġpostavu":11551,"ĠFol":11552,"ĠsÃŃle":11553,"ĠmobilnÃŃch":11554,"ĠvyhlÃ¡Å¡ky":11555,"ĠnÃ¡boÅ¾en":11556,"dnÃ½":11557,"ĠÅ¡piÄį":11558,"VlastnÃŃ":11559,"ĠKraus":11560,"ĠpÅĻirozenÄĽ":11561,"Ġtresty":11562,"ÅĻina":11563,"Ġkomentovat":11564,"ktorÅ¯":11565,"ĠzranÄĽn":11566,"balistÃ©":11567,"Ġhlasovat":11568,"mentu":11569,"ĠDej":11570,"ĠMed":11571,"ĠnevÄĽÅĻÃŃ":11572,"ĠvÃ½uky":11573,"ĠzmÄĽ":11574,"ĠzÃ¡tÄĽÅ¾":11575,"zdÃŃ":11576,"Ã¡ÅĻ":11577,"Ġveli":11578,"ĠpÅĻedloÅ¾":11579,"ĠhistorickÃ½":11580,"LÃŃ":11581,"Å¡kovi":11582,"ĠsdÄĽlenÃŃ":11583,"Otev":11584,"gram":11585,"ĠstoprocentnÃŃ":11586,"ĠpÅĻÃŃkaz":11587,"ĠpÅ¯vodnÃŃm":11588,"ĠvÄĽdy":11589,"ĠdaÅĪovÃ½ch":11590,"Ġrealizovat":11591,"Ġdojel":11592,"ĠDÃŃky":11593,"Ġnen":11594,"ĠlistÅ¯":11595,"ĠNes":11596,"Ġsdru":11597,"ĠobÄĽd":11598,"ĠvÃ½jimeÄįnÄĽ":11599,"ĠSer":11600,"ĠjiÅ¾nÃŃch":11601,"Ġprof":11602,"ĠvdÄĽ":11603,"ĠsvÄĽtovÃ¡":11604,"bÃŃk":11605,"Ġkouzel":11606,"ĠprimÃ¡":11607,"ĠnemÃ¡te":11608,"Ġpsychologi":11609,"Ġzbytku":11610,"ĠnaplnÄĽ":11611,"Ġuse":11612,"Å¾by":11613,"Ġsymboli":11614,"TÃ¡bor":11615,"brat":11616,"ĠBÅĻeclav":11617,"ĠsportovcÅ¯":11618,"34":11619,"teÄįnÃ½":11620,"Ġfavorit":11621,"ĠDoleÅ¾al":11622,"Ġsportovci":11623,"ĠvÅ¡emu":11624,"ĠstÅĻedy":11625,"ĠdÃŃlu":11626,"ĠFrÃ½dek":11627,"Ġtune":11628,"ÅĻuje":11629,"ĠvÅĻe":11630,"ĠÄįiny":11631,"ĠlahvÃŃ":11632,"ĠstanovÃŃ":11633,"ĠSvazu":11634,"ĠchutÃŃ":11635,"Ġstud":11636,"Ġproduktu":11637,"ĠhudbÄĽ":11638,"mÄĽrnÃ©":11639,"ĠfilmovÃ½ch":11640,"ĠchodnÃŃku":11641,"ĠuÅ¾ÃŃvat":11642,"ĠvÃ½hrou":11643,"Ġopo":11644,"Ġdohodnout":11645,"ĠpÅĻedposlednÃŃ":11646,"ĠklientÅ¯m":11647,"ĠnÃ¡vrhÅ¯":11648,"Ġnedostane":11649,"ĠumoÅ¾ÅĪujÃŃ":11650,"vaj":11651,"ĠMit":11652,"ĠnÃ¡roÄįnÃ½":11653,"ĠslovenskÃ©ho":11654,"FK":11655,"Stalo":11656,"Ġpodotkla":11657,"ĠotÅĻe":11658,"ĠjednoduchÃ¡":11659,"ĠpochÃ¡zejÃŃ":11660,"ĠpodezÅĻelÃ½":11661,"ĠpÅĻipouÅ¡tÃŃ":11662,"Ġvyhovuje":11663,"PremiÃ©r":11664,"ĠdÃ½":11665,"ĠStav":11666,"ĠrychlostnÃŃ":11667,"Å¾nÄĽjÅ¡ÃŃ":11668,"Ġodchy":11669,"ĠvodÃ¡":11670,"ĠtÃ©hoÅ¾":11671,"CÃį":11672,"Ġ79":11673,"ĠuvedenÃŃ":11674,"Ġcokoli":11675,"ĠsbÄĽr":11676,"ĠvrchnÃŃ":11677,"Ġmise":11678,"ĠnemoÅ¾nÃ©":11679,"ĠovlÃ¡dÃ¡":11680,"Ġ96":11681,"MinulÃ½":11682,"ĠdÄĽvÄįata":11683,"ĠvÃ½hodou":11684,"hlÃ½":11685,"ĠZemi":11686,"Ġfronty":11687,"lovy":11688,"Ġplatby":11689,"Ġneome":11690,"Ġuveden":11691,"ĠspotÅĻeba":11692,"Ġinvestory":11693,"Nechci":11694,"ĠdÄĽjinÃ¡ch":11695,"Ġnazna":11696,"ĠnovinÃ¡":11697,"ĠHlu":11698,"ĠprojevÃŃ":11699,"Ġspolupracuje":11700,"Ġobhaj":11701,"Ġklou":11702,"ĠvÃ½tvarnÃ½ch":11703,"nÄĽme":11704,"ĠPalackÃ©ho":11705,"zie":11706,"ameri":11707,"noucÃŃ":11708,"DobrÃ½":11709,"PÄĽ":11710,"ĠRen":11711,"ĠnadÄĽjÃŃ":11712,"ĠdÄĽlo":11713,"CelkovÄĽ":11714,"ÄĮeÅ¡tÃŃ":11715,"Ġochrana":11716,"Ġoble":11717,"Nak":11718,"ĠanglickÃ©":11719,"Ġprodejem":11720,"Ġzahr":11721,"Å¡ce":11722,"ĠpÅĻemÃ½Å¡let":11723,"lÃ¡me":11724,"ĠzÃŃskÃ¡vÃ¡":11725,"ĠanalÃ½zy":11726,"ĠodpadÅ¯":11727,"ĠosvÄĽ":11728,"Ġkoupila":11729,"ĠOlympi":11730,"DobrÃ¡":11731,"ĠrakouskÃ©":11732,"ĠProstÄĽjova":11733,"cl":11734,"Jez":11735,"ĠvÄĽnujÃŃ":11736,"ovec":11737,"Ġmni":11738,"Vol":11739,"Ġspojen":11740,"Ġhalu":11741,"ĠnÃ¡ÅĻadÃŃ":11742,"ĠdneÅ¡nÃŃch":11743,"rii":11744,"ĠkonkurenÄįnÃŃ":11745,"ĠzahradnÃŃ":11746,"ZastupitelÃ©":11747,"Ġfajn":11748,"SO":11749,"ĠnepoÄįÃŃtÃ¡":11750,"ĠobchodovÃ¡nÃŃ":11751,"Ġprovede":11752,"ĠoÅ¾ivenÃŃ":11753,"Ġburze":11754,"Ġkilometry":11755,"ĠobÄįanstvÃŃ":11756,"obo":11757,"Ġtvr":11758,"ĠzpÅ¯sobila":11759,"ĠrekreaÄįnÃŃ":11760,"ĠvstÅĻe":11761,"ĠÄįÃŃslem":11762,"ÄįkÃ¡":11763,"Ġhledal":11764,"PÅ¯vodnÃŃ":11765,"ĠfungujÃŃ":11766,"38":11767,"anÃ½mi":11768,"Ġavi":11769,"ĠdÃŃlÅ¯":11770,"ĠlÃ¡sce":11771,"ĠÅłvÃ½carsku":11772,"ĠpÅĻihlÃŃ":11773,"stickÃ©m":11774,"ĠcennÃ½ch":11775,"ĠniÄįÃŃm":11776,"leni":11777,"ĠprobÄĽhlo":11778,"Ġkapacity":11779,"31":11780,"ĠprokÃ¡zat":11781,"nÅ¡tÃŃ":11782,"Ġdivit":11783,"ĠtÄĽhotenstvÃŃ":11784,"ĠzastavÃŃ":11785,"ĠÅ¡ÃŃÅĻenÃŃ":11786,"ĠministrÅ¯":11787,"roj":11788,"ĠregionÃ¡lnÃŃch":11789,"ĠzelenÄĽ":11790,"ĠCO":11791,"Ġdcerou":11792,"ĠÅ¡ok":11793,"ĠMonika":11794,"Ġnespl":11795,"Ġnavrhuje":11796,"ĠÄĮE":11797,"Ġkladen":11798,"47":11799,"Ġodha":11800,"ĠMareÅ¡":11801,"ĠKutnÃ©":11802,"ĠLetnÃ©":11803,"ĠlÃŃp":11804,"ĠseniorÅ¯":11805,"ĠotevÅĻenÃ½":11806,"niÄįtÃŃ":11807,"ĠCelsia":11808,"Ġrallye":11809,"ĠuzavÅĻenÃ©":11810,"Ġnohama":11811,"KRÃģTCE":11812,"ovatelÅ¯":11813,"bÃŃrÃ¡":11814,"Ġspekulace":11815,"ĠzakonÄįil":11816,"ĠMalÃ½":11817,"zovanÃ¡":11818,"enosti":11819,"ĠpoÅĻÃ¡dÃ¡nÃŃ":11820,"Ġjezera":11821,"DenÃŃk":11822,"Ã¡lem":11823,"ĠnÃ¡hra":11824,"ĠobecnÃŃho":11825,"logy":11826,"tejte":11827,"ĠPrima":11828,"Ky":11829,"chÃ¡zeli":11830,"ĠfilmovÃ½":11831,"PÅĻÃŃbram":11832,"ĠpovaÅ¾ovÃ¡n":11833,"ĠnÃ¡boÅ¾enstvÃŃ":11834,"Ġbilanci":11835,"ĠnÄĽkterÃ½mi":11836,"ĠÅ¾ili":11837,"Ġmatku":11838,"ĠstÃ¡vajÃŃ":11839,"pÃ¡n":11840,"Ġprv":11841,"ĠvyuÅ¾ÃŃvÃ¡nÃŃ":11842,"ĠÃºÄįe":11843,"Ġzrekonstru":11844,"ĠvzdÄĽlÃ¡vacÃŃ":11845,"ĠpromÃŃt":11846,"Ġmistrem":11847,"ĠpÅĻedÄįasnÄĽ":11848,"Ġkontro":11849,"ĠsprÃ¡vnou":11850,"Ġbalon":11851,"ĠOkresnÃŃho":11852,"ĠkvÄĽtin":11853,"tskÃ©":11854,"ĠStanley":11855,"ĠkoupÃ¡nÃŃ":11856,"rÃ¡Å¾e":11857,"ĠlyÅ¾a":11858,"Ġpravil":11859,"ĠbliÅ¾Å¡ÃŃ":11860,"nor":11861,"ĠcizÃŃch":11862,"ĠNejvÄĽtÅ¡ÃŃ":11863,"Ġsociali":11864,"Ġekonomicky":11865,"Ġinkasovali":11866,"ĠvolebnÃŃm":11867,"grafii":11868,"ĠproÅ¡la":11869,"Ġkomunismu":11870,"ĠCy":11871,"Ġchodili":11872,"ĠÅ¾ivoty":11873,"Ġrizi":11874,"ĠAfrice":11875,"ĠrodinnÃ½":11876,"ĠkonzervativnÃŃ":11877,"mlou":11878,"knutÃŃ":11879,"avskÃ©":11880,"Ġverdikt":11881,"Ġukry":11882,"ĠvytÃ¡pÄĽnÃŃ":11883,"ĠpokraÄįujÃŃ":11884,"=":11885,"ObyvatelÃ©":11886,"Ġkabinet":11887,"ĠÄįÃŃnskÃ©":11888,"vence":11889,"ĠpÅĻÃŃznivce":11890,"ĠPrav":11891,"ĠnovÃ¡Äįek":11892,"jÃŃÅ¾dÄĽt":11893,"ĠpalÃ¡ce":11894,"ĠNejvyÅ¡Å¡ÃŃ":11895,"ĠBak":11896,"ĠvÃ½voz":11897,"ĠOD":11898,"ĠtechnickÃ½":11899,"Ġpauze":11900,"ÅĻte":11901,"ĠDÄĽti":11902,"ĠamatÃ©r":11903,"Ġpublika":11904,"Ġsvat":11905,"Rozhod":11906,"lÃ¡rnÃŃ":11907,"ĠtradiÄįnÃŃm":11908,"Ġprince":11909,"ĠKSÄĮ":11910,"ĠnimÅ¾":11911,"ĠPraÅ¾skÃ©":11912,"ÅĻovÃ¡nÃŃ":11913,"ĠzvÃ½Å¡enÃ©":11914,"mÃŃra":11915,"Ġocitl":11916,"ĠMoÅ¾nÃ¡":11917,"ĠodeÅ¡li":11918,"ĠzemÅĻe":11919,"ĠKni":11920,"ĠÄįernÃ©ho":11921,"Ġuch":11922,"sala":11923,"ĠProto":11924,"Ġnapl":11925,"ĠJas":11926,"ĠÄįtvrtka":11927,"ĠÅłtef":11928,"ĠpochopenÃŃ":11929,"ĠWilliam":11930,"Ġnapsala":11931,"ĠbarevnÃ©":11932,"dni":11933,"TÅĻebÃŃÄį":11934,"Ġoptimi":11935,"ĠpoÅĻÃŃ":11936,"ĠkomunÃ¡lnÃŃch":11937,"ĠhvÄĽzdou":11938,"zala":11939,"ĠdÃ¡val":11940,"ĠzhlÃ©dnout":11941,"Ġ3000":11942,"ĠzÃ¡zra":11943,"ĠBohumil":11944,"ĠBBC":11945,"NejdÅĻÃŃve":11946,"ĠFilm":11947,"36":11948,"Ã³ny":11949,"Ġpanuje":11950,"ĠdÃŃvku":11951,"Roman":11952,"ĠlÃŃbilo":11953,"Ġnud":11954,"tina":11955,"Tvr":11956,"Ġodv":11957,"kor":11958,"ĠnÃ¡roÄįnÃ¡":11959,"Å¾u":11960,"ĠzaloÅ¾ena":11961,"Ġdetaily":11962,"ĠjezdcÅ¯":11963,"ĠvenkovnÃŃ":11964,"ĠpozitivnÄĽ":11965,"Ġrealizace":11966,"anovÃ¡":11967,"Ġminulost":11968,"ĠdÄĽlÃ¡me":11969,"Ġhodnotit":11970,"Ġprofes":11971,"ĠsnÃŃÅ¾ila":11972,"ĠTakÃ©":11973,"ĠÄĮernÃ¡":11974,"Ġprocenty":11975,"Ġproslu":11976,"ĠÃºspÄĽÅ¡nÃ¡":11977,"ĠnabÃŃdla":11978,"Ġindex":11979,"Ġskladu":11980,"ĠHÃ¡jek":11981,"ĠfarmÃ¡":11982,"Ar":11983,"ĠpÅĻepoÄįtu":11984,"ĠpÅĻichy":11985,"ĠuÄįeb":11986,"ĠjÃŃst":11987,"ĠzamÄĽstnavatele":11988,"ĠurÄį":11989,"zÃŃm":11990,"con":11991,"ĠÅłÃ¡rka":11992,"ĠfakultÄĽ":11993,"ÅĺidiÄįi":11994,"Ġplave":11995,"zujeme":11996,"ĠObec":11997,"ĠPatrik":11998,"PanÃŃ":11999,"ĠPas":12000,"ĠlÃ¡ka":12001,"stoupili":12002,"ĠzadÃ¡":12003,"Ġsymbol":12004,"bÄĽhl":12005,"ĠobsahujÃŃ":12006,"ĠbouÅĻ":12007,"ĠvysokÃ©ho":12008,"Å¾itel":12009,"Ġvoli":12010,"kru":12011,"ĠSever":12012,"Hol":12013,"ĠdoÄįkali":12014,"lÃŃÄį":12015,"ĠMHD":12016,"Ġradoval":12017,"Ġpyt":12018,"Ġpenzi":12019,"ĠvÃŃtÄĽznÃ©":12020,"Ġjemu":12021,"ĠMasarykovÄĽ":12022,"DÄĽÄįÃŃn":12023,"ĠpÃ¡ry":12024,"ĠUkraj":12025,"Ġodevz":12026,"brÃ¡":12027,"Ġexeku":12028,"enÄĽjÅ¡ÃŃ":12029,"Ġjistou":12030,"ĠmladÃŃci":12031,"ĠkÃ³":12032,"ĠBerlÃŃnÄĽ":12033,"ĠpotÄĽÅ¡ÃŃ":12034,"Ġvyhov":12035,"Ġvozovky":12036,"ĠodeÅ¡la":12037,"ĠzÃ¡kazu":12038,"tivnÃŃm":12039,"ĠposÃŃlit":12040,"ĠpokrÃ½":12041,"Ġnepat":12042,"Äįinu":12043,"Ġkapacita":12044,"Ã":12045,"ĠzdravÃ½":12046,"jÃŃÅ¾dÄĽjÃŃ":12047,"ĠBoÅ¾ÃŃ":12048,"Ġamerickou":12049,"ĠzpÄĽv":12050,"haj":12051,"Ã½ma":12052,"ĠvyÃº":12053,"Ġble":12054,"ĠnÄĽjakÃ½ch":12055,"Ġpohledem":12056,"ĠklÃŃÄįovÃ½ch":12057,"ĠpÅĻiblÃŃÅ¾it":12058,"ĠTere":12059,"Ġvodovod":12060,"Ġdorostenci":12061,"Ġshodli":12062,"SystÃ©m":12063,"zovÃ¡n":12064,"Ġnovely":12065,"ĠchybÄĽ":12066,"svÄĽt":12067,"CelkovÃ¡":12068,"ĠÃºÄįastÃŃ":12069,"Ġprezent":12070,"Ġstat":12071,"SL":12072,"ĠmanÅ¾elku":12073,"Ġkusy":12074,"ĠpÅĻÃŃtelkynÄĽ":12075,"Ġklubem":12076,"ĠservÃŃ":12077,"ĠvÄįerejÅ¡ÃŃho":12078,"ĠjeviÅ¡ti":12079,"ĠexpertÅ¯":12080,"ĠmodernÃŃch":12081,"ĠobÅ¾aloby":12082,"ĠbÃŃlÃ©ho":12083,"ĠÅ¡panÄĽl":12084,"ĠTO":12085,"Ġhouby":12086,"ĠzmizÃŃ":12087,"Chcete":12088,"Ġhezky":12089,"stalo":12090,"ĠmodernÃŃho":12091,"Ġneje":12092,"ĠFlo":12093,"Ġtor":12094,"Ġtep":12095,"inskÃ©":12096,"ĠRakousko":12097,"Å¡ujÃŃ":12098,"chody":12099,"ĠsdÄĽlit":12100,"ĠpodotÃ½kÃ¡":12101,"ĠstÅĻedo":12102,"ĠÄįiÅ¡tÄĽnÃŃ":12103,"ĠPel":12104,"lovanÃ©":12105,"dami":12106,"tis":12107,"Hu":12108,"hodou":12109,"desÃ¡t":12110,"Ġval":12111,"NovÄĽ":12112,"dlem":12113,"Ġmotory":12114,"ĠAngli":12115,"Ġnerv":12116,"ĠÄįtvrtou":12117,"ĠchrÃ¡mu":12118,"odÃ¡":12119,"ĠDvoÅĻÃ¡ka":12120,"ĠnÃ¡vÅ¡tÄĽv":12121,"ĠnÃ¡jemnÃ©":12122,"Ġukra":12123,"ĠumÄĽt":12124,"Ġren":12125,"ĠzÃ¡va":12126,"Ji":12127,"ĠbojujÃŃ":12128,"ĠkrÃ¡sy":12129,"ZÃ¡stupci":12130,"Ġtribu":12131,"ĠLondÃ½na":12132,"Ġchytil":12133,"Ġmili":12134,"Ġobla":12135,"hav":12136,"ĠpÅĻÃŃÄįky":12137,"ĠNic":12138,"ĠzÃ¡kladny":12139,"Å¡enÄĽ":12140,"ĠzdÅ¯razÅĪuje":12141,"HrÃ¡":12142,"ĠsvÄĽtu":12143,"Ġvese":12144,"Ġvlo":12145,"wan":12146,"ĠÃºlohu":12147,"acÃŃ":12148,"Ġmorav":12149,"ĠpoÄįÃŃtaÄįovÃ©":12150,"Ġjazy":12151,"Äįeni":12152,"ĠMatu":12153,"ĠuÅ¾ivatele":12154,"ĠVrb":12155,"ĠDie":12156,"Ġvynu":12157,"ĠnamÃŃsto":12158,"ĠSlunce":12159,"Ġklade":12160,"Ġetapa":12161,"ĠbÃ½valÃ½m":12162,"Å¾ÃŃt":12163,"ĠKin":12164,"Ġpotla":12165,"Ġkrou":12166,"Ġbole":12167,"ĠzÃ¡jmem":12168,"Ġlos":12169,"Ġpodpis":12170,"mÃŃt":12171,"Ġkresby":12172,"Ġtransport":12173,"ras":12174,"Ġizo":12175,"ĠvÃŃcemÃ©nÄĽ":12176,"Ġtechnicky":12177,"ĠLadislava":12178,"ĠjimiÅ¾":12179,"Dom":12180,"Ġbrz":12181,"ĠporuÅ¡ovÃ¡nÃŃ":12182,"Ġmezd":12183,"Ġuvedli":12184,"ĠzakonÄįenÃŃ":12185,"oria":12186,"stavy":12187,"hÅĻe":12188,"ĠZbynÄĽk":12189,"rÃ¡til":12190,"ĠÅłtÄĽpÃ¡nek":12191,"cujÃŃ":12192,"Ġinvestici":12193,"TR":12194,"jÃŃt":12195,"ĠpsÃŃ":12196,"ĠkomplexnÃŃ":12197,"ĠRum":12198,"Ġsimu":12199,"Ġsti":12200,"Ġzeleniny":12201,"ĠBarbora":12202,"ĠkupnÃŃ":12203,"Ġdostanete":12204,"ĠskvÄĽlou":12205,"Ġply":12206,"Ġsurovin":12207,"ĠdÅ¯stoj":12208,"Ġvole":12209,"Mohou":12210,"Ġsun":12211,"arda":12212,"ĠnÃ¡vrhem":12213,"Poku":12214,"zt":12215,"ĠproÅ¾il":12216,"Ġkonstatovala":12217,"ĠvlastnÃŃk":12218,"ĠdevatenÃ¡cti":12219,"Ġpostele":12220,"ĠsenÃ¡tu":12221,"Ġopa":12222,"ĠrÅ¯znÃ¡":12223,"ĠJohan":12224,"ovod":12225,"gii":12226,"Ġredakci":12227,"ĠEu":12228,"ĠnatoÄįil":12229,"StarÅ¡ÃŃ":12230,"ĠzÃ¡krok":12231,"ĠztrÃ¡":12232,"Ġporota":12233,"Ġjezdil":12234,"tex":12235,"ĠDenÃŃk":12236,"ĠpÅĻekvapenÃŃm":12237,"32":12238,"ĠsÃ¡d":12239,"ĠAndrea":12240,"Ġdvaa":12241,"emo":12242,"Ġkatastru":12243,"Å¾ujÃŃcÃŃ":12244,"ĠvÄįerejÅ¡ka":12245,"ĠpÅĻedstavili":12246,"ĠHlavnÃŃ":12247,"ĠjednotlivcÅ¯":12248,"ĠdosavadnÃŃch":12249,"anskÃ©":12250,"ĠÅ¡pi":12251,"ĠzaplacenÃŃ":12252,"ĠnÃ¡sleduje":12253,"ĠWashington":12254,"ĠnedÄĽlnÃŃm":12255,"ĠobÃ½":12256,"Ġhledali":12257,"ĠsvÄĽtovÃ©m":12258,"ĠKlo":12259,"liÃŃ":12260,"ĠzaÄį":12261,"stoupila":12262,"ĠsolidnÃŃ":12263,"Ġrezi":12264,"tkou":12265,"ĠAsie":12266,"Ġsejdou":12267,"ĠvÃ¡hu":12268,"ĠspotÅĻeby":12269,"ĠknÃŃÅ¾ky":12270,"ĠmalÃŃÅĻe":12271,"ÄįkÃ¡m":12272,"UN":12273,"DÅ¯m":12274,"âĢ¢":12275,"dÄĽnÃ½":12276,"ĠpatrnÃ©":12277,"ĠzÃ¡klady":12278,"Ġzahradu":12279,"Ġdozor":12280,"ĠplÃ¡nÅ¯":12281,"ĠvystÅĻÃŃ":12282,"Ġkapacitu":12283,"mÃ¡ch":12284,"vnÄĽjÅ¡ÃŃ":12285,"VÃŃte":12286,"TÃ½":12287,"oty":12288,"ĠAsii":12289,"ĠroÄįnÃŃkÅ¯":12290,"ĠsvobodÄĽ":12291,"Ġpodrob":12292,"ĠrozhodÄįÃŃho":12293,"ĠdokonÄįit":12294,"ĠdÄĽlala":12295,"Ġdonu":12296,"ĠRan":12297,"ĠPau":12298,"ĠnÅ¯Å¾":12299,"pÄĽt":12300,"Ġchuti":12301,"Slavia":12302,"ĠzkouÅ¡ek":12303,"ĠzvlÃ¡dl":12304,"ĠVyÅ¡kov":12305,"ĠzÃ¡vaÅ¾":12306,"ĠpÅĻedmÄĽt":12307,"lÃ©t":12308,"ĠstÃ¡ly":12309,"ĠstÅĻelce":12310,"doval":12311,"ĠTÅĻebÃŃÄįi":12312,"ĠlÃ©ÄįenÃŃ":12313,"ĠukonÄįit":12314,"bora":12315,"Ġprost":12316,"Ġticho":12317,"ĠÄįinil":12318,"Ġbodem":12319,"lÃ©mu":12320,"Ġzne":12321,"ĠchÃ¡":12322,"ĠtrÃ¡vÄĽ":12323,"ĠdvÅ¯r":12324,"Ġprofil":12325,"ĠprotÃ¡":12326,"ĠnÃ¡rodÅ¯":12327,"Ry":12328,"ĠÄįekÃ¡nÃŃ":12329,"ĠÅ¡etÅĻit":12330,"ĠpÅĻedÄįasnÃ©":12331,"ĠHolub":12332,"Ġstudentka":12333,"Jablonec":12334,"Ġrezerv":12335,"ĠtrÅ¾":12336,"ĠvÃ½ro":12337,"Ġdvora":12338,"Ġjdu":12339,"ĠpozvÃ¡nÃŃ":12340,"ĠpojiÅ¡Å¥oven":12341,"ĠKav":12342,"Ġemoce":12343,"Strana":12344,"venÃ©":12345,"fÃ¡":12346,"ave":12347,"ĠMezinÃ¡rodnÃŃho":12348,"ĠpraÅ¾skou":12349,"Kdybych":12350,"covÄĽ":12351,"ĠuvaÅ¾ovat":12352,"Ġpozval":12353,"ĠkapitÃ¡lu":12354,"ĠpÅĻÃŃvÄĽ":12355,"stily":12356,"Ġzlatou":12357,"Ġmenu":12358,"rno":12359,"Takto":12360,"Ġpoplat":12361,"ĠnezÅ¯":12362,"ĠdÃ¡v":12363,"ĠhrÃ¡ly":12364,"Ġklienta":12365,"Ġimprovi":12366,"jely":12367,"Ġwith":12368,"ĠÄĮMFS":12369,"ĠobyvatelÅ¯m":12370,"Ġbrambory":12371,"ĠvyjednÃ¡vÃ¡nÃŃ":12372,"Ġpochlubit":12373,"ĠpronÃ¡sled":12374,"Ġetapy":12375,"ĠpÅĻÃŃmÃ©m":12376,"Hokej":12377,"pravu":12378,"ĠjednotlivÃ½mi":12379,"Ġneve":12380,"ĠupÅĻesnila":12381,"37":12382,"ĠbitvÄĽ":12383,"Ġobra":12384,"ĠTÅĻinec":12385,"ĠplÃ¡novÃ¡nÃŃ":12386,"danÃ¡":12387,"Ġrobo":12388,"ÅĪany":12389,"ĠstrÃ¡nku":12390,"ĠzemÄĽdÄĽlci":12391,"ĠSkal":12392,"ĠsituacÃŃch":12393,"zeli":12394,"Ġsetkat":12395,"VedoucÃŃ":12396,"199":12397,"KÄį":12398,"ĠÂ":12399,"StrÃ¡Å¾nÃŃci":12400,"Ġ82":12401,"ĠotevÅĻenÄĽ":12402,"Ġobsadila":12403,"ĠDÃŃ":12404,"ĠlÃ¡znÄĽ":12405,"Jenom":12406,"ĠzaklÃ¡":12407,"ĠFrance":12408,"Ã¡tory":12409,"MÅ¯Å¾eme":12410,"ĠoÄįkovÃ¡nÃŃ":12411,"NIC":12412,"Å¡ovskÃ½":12413,"Ġargumenty":12414,"ĠjakÃ½mi":12415,"Ġgymna":12416,"ĠpotÄĽ":12417,"ĠplacenÃŃ":12418,"bas":12419,"Ġpsi":12420,"ĠkouÅĻenÃŃ":12421,"ĠzaÅĻÃŃ":12422,"red":12423,"kyni":12424,"Å¾nosti":12425,"ĠzÃ¡jemcÅ¯m":12426,"ĠcelkovÃ¡":12427,"Ġcigarety":12428,"ĠÅłvej":12429,"Ġpoji":12430,"Ġost":12431,"pie":12432,"ĠkamarÃ¡di":12433,"Ġhluboko":12434,"Ġskep":12435,"Ġvykon":12436,"ĠvzdÃ¡t":12437,"Ġer":12438,"Ġblesk":12439,"ĠÅ¾alob":12440,"ĠstoprocentnÄĽ":12441,"ĠÅ¡kolenÃŃ":12442,"ĠnepÅĻed":12443,"ĠMikulÃ¡Å¡":12444,"PÅĻerov":12445,"ĠdoÄįasnÄĽ":12446,"ĠzÃ¡chrannÃ©ho":12447,"ĠBratislavÄĽ":12448,"ĠWest":12449,"ĠhercÅ¯":12450,"ĠovlivÅĪuje":12451,"ĠreakcÃŃ":12452,"vilo":12453,"ĠvysokoÅ¡kol":12454,"ĠoprÃ¡v":12455,"ĠsluÅ¾bÄĽ":12456,"ĠWorld":12457,"ĠodbornÃŃk":12458,"Ġzabil":12459,"jas":12460,"ĠuveÅĻej":12461,"ĠsluÅ¾bou":12462,"ĠpÅĻiznala":12463,"ĠdosÃ¡hli":12464,"tÄĽla":12465,"Ġdou":12466,"Prodej":12467,"Ġstyku":12468,"ĠuÅ¡et":12469,"rium":12470,"ĠVÃŃdeÅĪ":12471,"ĠtuzemskÃ½ch":12472,"ĠuvaÅ¾":12473,"ĠÅ¾Ã¡dajÃŃ":12474,"ĠpustÃŃ":12475,"ĠpÅĻijat":12476,"ĠslavnostnÃŃm":12477,"NejvÃŃc":12478,"Ġsoused":12479,"tkÃ¡ch":12480,"ĠSle":12481,"Ġvyrazili":12482,"Ġform":12483,"ĠkrokÅ¯":12484,"ĠjakÃ½si":12485,"din":12486,"Ġrozlo":12487,"ratu":12488,"ĠnovÃŃ":12489,"Ġmeta":12490,"ĠMarcela":12491,"ĠprÅ¯mÄĽrnÃ©":12492,"ĠÅ¡patnou":12493,"ĠzahrajÃŃ":12494,"ĠvyÅĻa":12495,"had":12496,"ĠnejrychlejÅ¡ÃŃ":12497,"ĠneposlednÃŃ":12498,"Ġpodrobnosti":12499,"ĠÅ¾alobu":12500,"ĠdozvÄĽdÄĽli":12501,"Ġproducent":12502,"ĠtovÃ¡rny":12503,"ĠurÄįeny":12504,"Å½Ã¡dnÃ©":12505,"Ġnerov":12506,"Ġzhodnotil":12507,"Ġexpre":12508,"KaÅ¾dÃ©":12509,"ĠbratÅĻi":12510,"Ġupravit":12511,"Ġsrb":12512,"ĠlepÅ¡ÃŃmu":12513,"Ġlitr":12514,"ĠstÅĻedisku":12515,"ĠpohlÃŃ":12516,"ĠpanstvÃŃ":12517,"Ġinscenaci":12518,"ĠsluÅ¾ebnÃŃ":12519,"ĠvyÄįer":12520,"jetÃŃ":12521,"ĠzÃ¡stav":12522,"ĠefektivnÃŃ":12523,"Ġ1969":12524,"ĠoddÄĽle":12525,"dii":12526,"Ġvstoupili":12527,"ĠsloÅ¾ky":12528,"ĠÅ¡at":12529,"Ġkomor":12530,"ĠBol":12531,"Ġstatistik":12532,"OSTRAVA":12533,"ĠÃºtokÅ¯":12534,"ĠrÅ¯znÄĽ":12535,"ĠtrhÅ¯":12536,"ĠpÃ¡s":12537,"ĠDNE":12538,"ĠodbornÃ¡":12539,"Ġuvedeno":12540,"DruhÃ©":12541,"FA":12542,"ĠzÃ¡vÄĽreÄįnÃ©m":12543,"ĠfinanÄįnÃŃm":12544,"ĠuvÄĽdo":12545,"ĠvÅ¡iml":12546,"ĠKdy":12547,"ĠadvokÃ¡t":12548,"ĠkandidÃ¡ta":12549,"Å¾nÃ½ch":12550,"ĠzdraÅ¾enÃŃ":12551,"Ġtyhle":12552,"ĠuskuteÄįnila":12553,"ĠanketÄĽ":12554,"Ġdluhu":12555,"ĠpÅĻestÃ¡vky":12556,"vola":12557,"ĠzÃ¡ÅĻi":12558,"ĠpotrubÃŃ":12559,"Ġpetici":12560,"Ġpanem":12561,"ĠodpadnÃŃch":12562,"Ġpadlo":12563,"ĠprÅ¯vodce":12564,"ĠÄįlovÄĽkem":12565,"ĠjmÄĽnÃŃ":12566,"ÅĻÃŃzenÃŃ":12567,"ĠzÃ¡vazky":12568,"ĠnaÅ¡imi":12569,"STA":12570,"ĠHorÃ¡k":12571,"ĠStrakonice":12572,"Velkou":12573,"TY":12574,"Ġpanu":12575,"Ġujal":12576,"ĠNevÃŃm":12577,"Ġkoncovce":12578,"ĠnejkrÃ¡snÄĽjÅ¡ÃŃ":12579,"ĠzahraniÄįnÃŃho":12580,"Ġ71":12581,"ĠdruhÃ©mu":12582,"Ġposlali":12583,"ĠschÅ¯":12584,"Å¡eny":12585,"zlo":12586,"ĠprobÃŃ":12587,"Ġmagne":12588,"anti":12589,"Zby":12590,"ĠprÅ¯bÄĽÅ¾nÄĽ":12591,"ĠFra":12592,"ĠatmosfÃ©ÅĻe":12593,"Ġpodla":12594,"ĠAndre":12595,"ĠVÃŃtÄĽz":12596,"ĠnezÃ¡":12597,"pÃ©":12598,"ĠNu":12599,"ĠvalnÃ©":12600,"Ġsrovnat":12601,"ĠpronÃ¡jem":12602,"Ġlinka":12603,"Ġsci":12604,"ĠsklÃ¡dÃ¡":12605,"Å¡ic":12606,"Ġformace":12607,"ĠsÃŃdla":12608,"ĠvytvÃ¡ÅĻenÃŃ":12609,"Ġsankce":12610,"ĠnejtÄĽÅ¾Å¡ÃŃ":12611,"Ġpul":12612,"ĠcivilnÃŃ":12613,"Ġodstartuje":12614,"ĠpÄĽknÃ½":12615,"Ġporo":12616,"Ġobnovit":12617,"Ġusil":12618,"Ġkrabi":12619,"ĠSvÄĽ":12620,"Ġposkytl":12621,"Ġzla":12622,"ĠmÄĽsÃŃcem":12623,"ĠagresivnÃŃ":12624,"ĠfanouÅ¡kÅ¯m":12625,"ĠnovinÃ¡ÅĻ":12626,"ĠtÃ¡ta":12627,"ĠsbÃŃrka":12628,"Å¡tinÄĽ":12629,"ĠFry":12630,"ĠdÅ¯":12631,"Ġprezentaci":12632,"bru":12633,"Ġposkytovat":12634,"can":12635,"sme":12636,"Ġuhra":12637,"nesl":12638,"ĠDÅ¯m":12639,"ĠzÃ¡kladnÃŃho":12640,"TÄĽch":12641,"RozhodnutÃŃ":12642,"atÅĻicet":12643,"zz":12644,"ĠterÃ©n":12645,"ĠCena":12646,"mÄĽrnÄĽ":12647,"ĠzranÄĽnÃ½ch":12648,"Ġzakoupit":12649,"Ġvstupenek":12650,"ceni":12651,"ĠvÃ½bÄĽ":12652,"ĠvysÃŃ":12653,"Ġzbroj":12654,"ĠvydÄĽlÃ¡":12655,"stor":12656,"ĠpadesÃ¡tÃ½ch":12657,"Ġspoluprac":12658,"rÃ¡nek":12659,"ĠIndie":12660,"CK":12661,"ĠQ":12662,"ĠvÄĽtÅ¡ÃŃho":12663,"HOD":12664,"ĠÅ¡o":12665,"Ġpustili":12666,"ĠDne":12667,"Ġlicence":12668,"pati":12669,"ĠakÄįnÃŃ":12670,"ĠpÅĻipomÃŃnajÃŃ":12671,"ĠznaÄįkou":12672,"ĠVyso":12673,"ĠpÅĻÃŃpadem":12674,"ĠpÃ¡tÃ©m":12675,"ĠrÃ¡ny":12676,"Ġobvinil":12677,"Ġkab":12678,"ĠnÃ¡pady":12679,"ĠpovÄĽdomÃŃ":12680,"ĠbarvÃ¡ch":12681,"BÃŃ":12682,"ĠRokycan":12683,"ĠekonomickÃ©ho":12684,"ĠnapÅĻÃŃÄį":12685,"ĠprÅ¯myslovÃ½ch":12686,"ĠpÅĻedchÅ¯dce":12687,"ÅĪujeme":12688,"ĠÄįelit":12689,"hajÃŃcÃŃ":12690,"ĠkritÃ©ria":12691,"Ġsoc":12692,"ĠvarovÃ¡nÃŃ":12693,"Äįas":12694,"Ġzane":12695,"ĠKadlec":12696,"ÃŃt":12697,"Ġprosper":12698,"ĠsplnÄĽnÃŃ":12699,"ĠpropuÅ¡tÄĽnÃŃ":12700,"ĠKrej":12701,"Ġeura":12702,"Ġjakousi":12703,"ĠlesÃŃch":12704,"ÄįÃŃna":12705,"Ġhlubo":12706,"ĠzachrÃ¡nil":12707,"ĠvÃ½bornou":12708,"ĠBub":12709,"ĠdokÃ¡Å¾ÃŃ":12710,"smÄĽ":12711,"Ġinfo":12712,"ĠsekretÃ¡ÅĻ":12713,"ĠÄįerstvÃ©":12714,"ĠVzhledem":12715,"Ġokolnosti":12716,"ĠzÃ¡vodnÃŃk":12717,"ĠvypadajÃŃ":12718,"Ġslune":12719,"ĠHomo":12720,"ĠprÃ¡vnÃŃho":12721,"Ġekonom":12722,"ĠÅ¡irokou":12723,"Ġput":12724,"Ġprud":12725,"ĠsousedÅ¯":12726,"jo":12727,"ND":12728,"Å¡tiny":12729,"nÃ¡Å¡ÃŃ":12730,"tÄĽl":12731,"ANA":12732,"ĠzÃ¡chy":12733,"ĠNÃ¡rodnÃŃm":12734,"ĠkvalitnÃŃch":12735,"ĠBohem":12736,"ĠbÃ½":12737,"ĠpÅĻivezli":12738,"ĠpÅĻedsedu":12739,"Ġstruktury":12740,"Å¥Ã¡k":12741,"tÃ¡k":12742,"ĠmanaÅ¾era":12743,"Ġski":12744,"ĠlÃŃstek":12745,"Ġrafin":12746,"Å½Ã¡dnÃ½":12747,"ĠmÅ¯":12748,"lÃŃnÄĽ":12749,"Ġperson":12750,"stavÄĽ":12751,"ĠobrÃ¡":12752,"logi":12753,"ĠochutnÃ¡":12754,"ĠsnÃŃm":12755,"Ġhmotnosti":12756,"ĠparkoviÅ¡ti":12757,"ĠbrÃ¡nu":12758,"ĠChtÄĽli":12759,"Ġvoj":12760,"illa":12761,"mÃŃm":12762,"39":12763,"sia":12764,"ĠdoÄįkal":12765,"Ġnot":12766,"ĠÅ¡pe":12767,"ĠkÅĻÃŃÅ¾e":12768,"ĠtÅĻem":12769,"ĠnezamÄĽstnanÃ½ch":12770,"ÅĺÃŃkÃ¡":12771,"ĠpracovnÃŃm":12772,"ĠpÅĻevzala":12773,"iner":12774,"bujÃŃ":12775,"ÃįR":12776,"Ġrela":12777,"Ġobsadili":12778,"Ġses":12779,"ĠÃºvÄĽ":12780,"poj":12781,"ĠPl":12782,"ĠnÃ¡raz":12783,"Ġcyklisty":12784,"ĠprohrÃ¡":12785,"ĠKarlov":12786,"ĠBoru":12787,"ĠodmÄĽny":12788,"ĠRak":12789,"ĠobÃ¡":12790,"ĠvÅ¡ÃŃ":12791,"ĠbabiÄįka":12792,"ĠporanÄĽnÃŃ":12793,"ĠvojenskÃ©ho":12794,"ĠdÄĽlnÃŃci":12795,"ralo":12796,"ĠzpoÅ¾dÄĽnÃŃ":12797,"Ġul":12798,"Voda":12799,"Ġplic":12800,"Ġdostaneme":12801,"ĠÃºniku":12802,"ĠvyvolÃ¡vÃ¡":12803,"ĠtvÅ¯rci":12804,"ĠÅ¾Ã¡d":12805,"ĠKamil":12806,"ĠpÅĻehrÃ¡":12807,"ĠReuters":12808,"Ġstupni":12809,"ÅĻskÃ©m":12810,"ile":12811,"kost":12812,"ĠpouÅ¾il":12813,"ĠpÅĻestal":12814,"Ġlogicky":12815,"ĠpoÅĻÃ¡dek":12816,"Å¡te":12817,"ĠpoklÃ¡dÃ¡":12818,"ĠPolicistÃ©":12819,"ĠnÃ¡jemnÃ©ho":12820,"Q":12821,"lejte":12822,"ĠpÅĻÃŃroda":12823,"Fi":12824,"ĠvÃŃtÃ¡":12825,"ĠhranÃŃ":12826,"Ġmaj":12827,"ĠnÄĽÄįeho":12828,"ProblÃ©my":12829,"ĠtvÃ¡ÅĻi":12830,"Ġmiliardu":12831,"ĠpÅĻijala":12832,"ĠoÄį":12833,"ĠPekingu":12834,"chovÃ©":12835,"ĠÄĮÃŃna":12836,"ĠhavÃ¡rii":12837,"ĠpÅĻispÃŃvÃ¡":12838,"ĠDomu":12839,"zovanÃ½ch":12840,"ĠÅ¡estÃ½":12841,"ĠvyÅ¡etÅĻovatel":12842,"Ġlit":12843,"ess":12844,"ĠzÃ¡kaznÃŃka":12845,"Ġ1980":12846,"ĠUSK":12847,"Ġare":12848,"ĠdovÃ¡":12849,"ĠvaÅ¡em":12850,"ĠpÅĻibylo":12851,"hodno":12852,"Ġdovez":12853,"ĠÃºÄįetnÃŃ":12854,"ĠhavÃ¡rie":12855,"ĠregionÅ¯":12856,"Ġkosti":12857,"PrvnÃŃm":12858,"ĠscÃ©nÃ¡ÅĻe":12859,"Ġnespokoj":12860,"ovci":12861,"PÅĻÃŃbÄĽh":12862,"ĠMaÄıarsku":12863,"Ġstudoval":12864,"ĠpÄĽÅ¡ky":12865,"jelo":12866,"Ġkombin":12867,"Ġprojektem":12868,"ĠAP":12869,"ĠstÃ¡nÃŃ":12870,"ĠpÅ¯jÄįky":12871,"ĠFede":12872,"ĠoprÃ¡vnÄĽnÃŃ":12873,"Ġuplatnit":12874,"slavi":12875,"rÃ¡Å¾ÃŃ":12876,"Ġfavoritem":12877,"ctvo":12878,"Ġosad":12879,"ĠSprÃ¡vy":12880,"ĠvolÃŃ":12881,"ĠpoÅ¡kodil":12882,"Ġzah":12883,"ĠÃºmysl":12884,"ktÅ¯":12885,"ĠPolÃ¡":12886,"Ġspat":12887,"Ġrostli":12888,"ĠpÅĻevzetÃŃ":12889,"Ġodvahu":12890,"Ġteore":12891,"ĠocenÃŃ":12892,"ĠGalerii":12893,"Existuje":12894,"ĠsmÄĽs":12895,"Ġvlh":12896,"ĠdrÅ¾enÃŃ":12897,"Ġvad":12898,"Ġostrova":12899,"plet":12900,"Ġdoplnit":12901,"VÃ½znam":12902,"Ġpruh":12903,"Ber":12904,"ĠpouÅ¾it":12905,"ĠHru":12906,"UL":12907,"ĠradikÃ¡lnÃŃ":12908,"Ġvyhraje":12909,"ĠnepÅĻÃ¡tel":12910,"ĠÄįtvrtÃ©ho":12911,"ĠtuzemskÃ©":12912,"Ġkur":12913,"Ġpomohou":12914,"ĠnaÅ¡t":12915,"ĠumÃŃstit":12916,"ĠnavÃ½":12917,"Ġnutnost":12918,"ĠotevÅĻeli":12919,"Ġskrom":12920,"SI":12921,"koru":12922,"avo":12923,"ĠÃºspÄĽchÅ¯":12924,"ĠzdÅ¯raz":12925,"ĠJanda":12926,"ĠzajiÅ¡tÄĽ":12927,"Ġcizinci":12928,"ÄįlennÃ©":12929,"ĠklÃŃ":12930,"mera":12931,"Ġcyklus":12932,"Ġpotvrdilo":12933,"dÄĽlat":12934,"JenomÅ¾e":12935,"ĠVelkÃ½":12936,"snou":12937,"Ġnovinkou":12938,"Ġhrdina":12939,"Ġzre":12940,"ĠdÃ©lka":12941,"ĠpodporujÃŃ":12942,"ĠodpovÄĽdÃŃ":12943,"ĠtratÃŃ":12944,"NaÅ¡i":12945,"ĠparlamentnÃŃch":12946,"Ġodraz":12947,"ĠpÅĻivedl":12948,"ĠChlu":12949,"ĠtÄĽÅ¾kou":12950,"ĠÅĻÃŃkÃ¡te":12951,"ĠdrÅ¾eli":12952,"ĠautobusovÃ©":12953,"ĠchybÄĽlo":12954,"ĠzemÄĽdÄĽlskÃ½ch":12955,"Ġnosi":12956,"ĠvolebnÃŃch":12957,"ĠtÄĽles":12958,"ĠpÅĻÃŃsnÄĽ":12959,"ĠsilniÄįnÃŃho":12960,"Ġintelektu":12961,"Rok":12962,"atÃ¡":12963,"alita":12964,"ĠÃºÅĻadem":12965,"Ġzelenou":12966,"dkou":12967,"ĠchtÄĽlo":12968,"hlÃ©dnout":12969,"PodÃŃ":12970,"Ġkontextu":12971,"ĠpÅĻeci":12972,"Ġ1938":12973,"ĠzpÃŃvÃ¡":12974,"ĠpÅĻirozenÃ©":12975,"ĠpronÃ¡jmu":12976,"ĠzÃº":12977,"ĠpartnerÅ¯":12978,"Ġ1986":12979,"tÃ¡n":12980,"ĠNymburk":12981,"ĠzranÄĽ":12982,"ĠnÃ¡dob":12983,"Äįo":12984,"ĠnÃ¡kupy":12985,"ĠnejÃºspÄĽÅ¡nÄĽjÅ¡ÃŃ":12986,"Ġvypadal":12987,"Ġevropskou":12988,"dujÃŃ":12989,"ĠÅ¡vÃ©d":12990,"Ġspojit":12991,"ĠzÃ¡sahy":12992,"ĠvzdÃ¡":12993,"lÅ¯v":12994,"LY":12995,"KolÃŃn":12996,"Ġnaj":12997,"Ġlesk":12998,"kacÃŃ":12999,"Ġpodepsat":13000,"ĠvÃ½rob":13001,"Ġpodala":13002,"ĠpotravinÃ¡":13003,"kovanÃ½":13004,"Divadlo":13005,"Ġindividu":13006,"ĠnÃ¡stupce":13007,"ĠbalenÃŃ":13008,"ĠstÃ¡li":13009,"Å¾ba":13010,"ĠTran":13011,"ĠDraho":13012,"ĠvychÃ¡zet":13013,"cion":13014,"ĠzatÃŃ":13015,"ĠvÃ½znamnÃ½m":13016,"ĠSpoleÄį":13017,"ĠneznÃ¡m":13018,"ĠÅ¡kolnÃŃch":13019,"ĠVlasta":13020,"ĠfilmovÃ©ho":13021,"ĠzvlÃ¡Å¡tnÃŃho":13022,"ĠmorÃ¡lnÃŃ":13023,"Ġsmut":13024,"ĠnÃ¡bytku":13025,"ĠzÃ¡ÅĻenÃŃ":13026,"tt":13027,"ĠKlatov":13028,"ĠvÄĽdÄĽla":13029,"uri":13030,"ĠzamÃŃÅĻil":13031,"ĠÅĻÃŃm":13032,"ĠmyÅ¡lenku":13033,"ĠpÅĻehledem":13034,"ĠuÅ¾ÃŃt":13035,"ĠChri":13036,"ĠnoÅ¾em":13037,"ĠpoÅ¾Ã¡":13038,"Ġkoncepci":13039,"slech":13040,"ĠudrÅ¾el":13041,"ĠZatÃŃmco":13042,"tko":13043,"oviny":13044,"ĠmandÃ¡t":13045,"ĠÅĻez":13046,"Ġbarva":13047,"xa":13048,"Ġsektor":13049,"ĠjinÃ©mu":13050,"Ġ02":13051,"ĠpÅĻivezl":13052,"Äįkovou":13053,"ĠvÃ½mÄĽna":13054,"ĠkopanÃ©":13055,"kul":13056,"ĠmenÅ¡":13057,"ĠHart":13058,"ĠnemusejÃŃ":13059,"ĠKrajskÃ©ho":13060,"nel":13061,"Ġkomunisty":13062,"ĠskuteÄįnÃ½":13063,"Ġkmen":13064,"nica":13065,"Ġurych":13066,"ĠvÃ¡Å¡ni":13067,"ĠmÄĽstskÃ©m":13068,"ĠvyÅ¾ad":13069,"fikaci":13070,"ĠschÃ¡zÃŃ":13071,"Ġodol":13072,"ejte":13073,"Ġtechnologii":13074,"ĠobejÃŃt":13075,"ĠjazykÅ¯":13076,"ĠzahÃ¡jenÃŃm":13077,"ĠLanger":13078,"ĠtvÃ¡":13079,"ĠPil":13080,"teru":13081,"Ġfavori":13082,"ĠpÅĻednÃ¡Å¡ky":13083,"ĠdiviznÃŃ":13084,"bory":13085,"PLZEÅĩ":13086,"ĠÅ¡tÃ¡bu":13087,"Ġchaty":13088,"ĠPolÃ¡k":13089,"Ġlidovci":13090,"ĠzÃ¡kladu":13091,"ĠsloÅ¾it":13092,"ĠKovÃ¡ÅĻ":13093,"ĠvracejÃŃ":13094,"ĠHoÅĻ":13095,"ĠtrvÃ¡nÃŃ":13096,"ĠnÃ¡lez":13097,"Ġkonalo":13098,"dovat":13099,"ĠprovÃ¡dÄĽ":13100,"ĠvydÄĽlat":13101,"Ġtvorba":13102,"itt":13103,"niÃŃ":13104,"gickÃ©":13105,"Nejsem":13106,"boval":13107,"ĠVeli":13108,"zovaly":13109,"Ġformule":13110,"Ġnakupovat":13111,"dent":13112,"rkou":13113,"Ġnepla":13114,"ĠpÅĻedloÅ¾it":13115,"Let":13116,"ĠhospodÃ¡ÅĻ":13117,"Ġvzadu":13118,"Ġprojevy":13119,"ĠuspÄĽ":13120,"Ġdodavatel":13121,"ĠRychnov":13122,"Ġobyvateli":13123,"Ġ81":13124,"ĠÅĻetÄĽz":13125,"Ġvystupuje":13126,"Sem":13127,"pouÅ¡tÄĽ":13128,"ĠpÅĻeÄįÃŃst":13129,"ĠLid":13130,"Ġpoznatky":13131,"Ġvstupem":13132,"ĠÄįtvrtiny":13133,"ĠobleÄį":13134,"Akci":13135,"ĠveterinÃ¡":13136,"PlÃ¡":13137,"66":13138,"jenÃŃm":13139,"ĠZi":13140,"ĠAustrÃ¡lie":13141,"ĠbrankÃ¡ÅĻi":13142,"Ġsazeb":13143,"ĠSÃ½kora":13144,"Ġhlasu":13145,"ovateli":13146,"ĠpÅĻipad":13147,"ĠobtÃŃÅ¾nÄĽ":13148,"mÄĽsÃŃÄįnÃŃ":13149,"ĠvolbÄĽ":13150,"ĠpÅĻihrÃ¡":13151,"kÃ¡lnÃŃ":13152,"ĠmateÅĻskÃ½ch":13153,"ĠvolÃ¡nÃŃ":13154,"ĠÃºtulku":13155,"ĠminulostÃŃ":13156,"ĠprvÃ©":13157,"Ġhmotnost":13158,"Ġpodpo":13159,"hlou":13160,"Ġmali":13161,"ĠperfektnÃŃ":13162,"ĠÅ¾Ã¡dnÃ©ho":13163,"Ġ1939":13164,"vÃ¡t":13165,"Ġotro":13166,"Ġpostoupit":13167,"ĠpÃŃsni":13168,"ĠBMW":13169,"KaÅ¾dopÃ¡dnÄĽ":13170,"ĠblÃŃÅ¾":13171,"ĠRich":13172,"Ġmotorem":13173,"ĠÃºÄįastnÃŃk":13174,"ĠVar":13175,"Ġkonver":13176,"ĠhotovÃ©":13177,"ĠvyhrÃ¡ly":13178,"Ġfot":13179,"sche":13180,"ĠJanÃ¡":13181,"Ġoboha":13182,"ĠANO":13183,"Ġchro":13184,"ovaÄį":13185,"ĠokresnÃŃch":13186,"ĠvylouÄįen":13187,"ved":13188,"Ġbrat":13189,"ĠkrÃ¡tkÃ½":13190,"Ġemo":13191,"chali":13192,"ĠpolicejnÃŃch":13193,"ĠCentrum":13194,"ĠmateÅĻ":13195,"Ġokol":13196,"ĠdostupnÃ©":13197,"ĠzpÃŃvat":13198,"ĠobrÃ¡til":13199,"ĠpostiÅ¾enÃŃ":13200,"ĠstÃŃha":13201,"Ġlete":13202,"ĠodpolednÃŃ":13203,"telskÃ©":13204,"ĠSnÄĽmovny":13205,"rovÃ¡nÃŃ":13206,"ĠvÃ½skyt":13207,"Ġducha":13208,"ĠspojenÃ½ch":13209,"ĠpÅĻedpoklady":13210,"stupu":13211,"Ġnikam":13212,"Ġdale":13213,"Rada":13214,"Ġvele":13215,"Ġmoderni":13216,"Ġpokusit":13217,"ĠMistrovstvÃŃ":13218,"ĠpÅĻÃŃjezd":13219,"Ġ450":13220,"ĠnepÅĻÃŃzni":13221,"Zku":13222,"ĠkrÃ¡snou":13223,"dskÃ©":13224,"ĠprÃ¡vnÃŃk":13225,"ĠvaÅĻenÃŃ":13226,"Ġzleva":13227,"Ġvrchu":13228,"ĠwebovÃ©":13229,"nad":13230,"Ġupev":13231,"SpÃŃÅ¡":13232,"ujte":13233,"Ġposoudit":13234,"ĠzavÃ©st":13235,"Ġsignali":13236,"ĠLudmila":13237,"49":13238,"ĠuÅ¾ÃŃvÃ¡":13239,"ĠorganizÃ¡torÅ¯":13240,"ÅĻÃŃte":13241,"ĠBystÅĻice":13242,"ĠnÃ¡poje":13243,"ĠuzavÅĻe":13244,"ĠklasickÃ½ch":13245,"ĠÄįasÅ¯":13246,"Å¾ce":13247,"ĠnaÅĻÃŃdil":13248,"Rych":13249,"AmerickÃ½":13250,"ĠtvÅ¯rce":13251,"kajÃŃcÃŃ":13252,"ĠnÃŃzkÃ¡":13253,"ĠstaletÃŃ":13254,"ĠsluÅ¡nÃ©":13255,"Ġhrade":13256,"Ġnosit":13257,"Ġkultura":13258,"mena":13259,"burgu":13260,"ĠdÃ¡vek":13261,"Ġstoper":13262,"UvidÃŃme":13263,"Ġslavit":13264,"Ġtanec":13265,"torÅ¯":13266,"chop":13267,"ĠKalousek":13268,"ĠpÅĻÃŃÄįce":13269,"ĠuvolnÄĽnÃŃ":13270,"Ġstol":13271,"Ġfran":13272,"ĠvelikÃ¡":13273,"ĠhÅ¯ÅĻe":13274,"ĠstÃŃÅ¾nosti":13275,"kaÅĻ":13276,"ĠpersonÃ¡l":13277,"Ġmap":13278,"KOVÃģ":13279,"Ġwe":13280,"ĠÅ¾enami":13281,"pily":13282,"ĠpÅĻedali":13283,"Ġkondici":13284,"ĠoblÃŃb":13285,"ĠPÅĻerova":13286,"ĠprvnÃŃmu":13287,"Ġnavazuje":13288,"Ġspolek":13289,"Ġing":13290,"ĠvytÃ¡":13291,"ovatelem":13292,"Ġnachy":13293,"stvu":13294,"ĠzranÄĽnÃ©ho":13295,"lenka":13296,"sci":13297,"ĠnovinÃ¡ÅĻe":13298,"OVÃĿ":13299,"ĠohnÄĽ":13300,"ĠpÅĻedstavitel":13301,"ĠchvÃ¡":13302,"TU":13303,"Oni":13304,"KoneÄįnÄĽ":13305,"wer":13306,"Ġstavbou":13307,"ĠzdobÃŃ":13308,"dÄĽj":13309,"ĠÅłpanÄĽlska":13310,"Ġpoliticky":13311,"ĠslouÅ¾il":13312,"ĠvÃŃtÄĽzi":13313,"ĠministÅĻi":13314,"ĠPetru":13315,"Ġodbory":13316,"chÃ¡zejÃŃcÃŃ":13317,"ĠvÃ½konnÃ½":13318,"ĠRakovnÃŃk":13319,"ĠnÃ¡vrhÃ¡":13320,"ĠpÅ¯vab":13321,"ĠosmdesÃ¡ti":13322,"ĠpÅĻÃŃÄįin":13323,"Ġzakladatel":13324,"ĠsvatÃ©":13325,"ĠpoÄįÃŃtajÃŃ":13326,"hodnou":13327,"Ġkolekce":13328,"ĠoznaÄįuje":13329,"ĠnutnÃ¡":13330,"Ġodbornou":13331,"Ġskladeb":13332,"Ġstarostou":13333,"ĠvraÅ¾":13334,"ĠLas":13335,"ĠRado":13336,"Ġvypla":13337,"Ġjest":13338,"ĠstrÃ¡vit":13339,"Ġsku":13340,"mÃ¡nek":13341,"ĠJes":13342,"ĠTÃ¡boÅĻe":13343,"ĠÅłpanÄĽl":13344,"ĠnaznaÄįuje":13345,"Ġkapelou":13346,"ĠupozorÅĪujÃŃ":13347,"ĠvÃ½raznÃ½":13348,"niÄįku":13349,"Ġzka":13350,"Ġstovku":13351,"Ġjmenoval":13352,"ĠÅ¾Ã¡dnÃ½m":13353,"Ġekonomickou":13354,"Ġprou":13355,"Ġneuro":13356,"ĠzdÅ¯vod":13357,"ĠnezmÄĽnÃŃ":13358,"ĠotevÅĻen":13359,"livÃ½ch":13360,"Ġvyskyt":13361,"ĠdoplnÄĽ":13362,"ĠproblÃ©mech":13363,"ĠStB":13364,"ĠÅ¡ik":13365,"ĠvÄĽzni":13366,"ĠmnoÅ¾stvÃŃm":13367,"ĠzpÅĻÃŃstup":13368,"ĠpÅĻipravilo":13369,"ĠnemocnÃ©":13370,"Ġvydalo":13371,"Ġkurs":13372,"Ġnaka":13373,"ĠUK":13374,"ĠpÅĻivÃ¡":13375,"ĠÅĻeÅ¡ili":13376,"ĠLud":13377,"TvrdÃŃ":13378,"ĠJelÃŃnek":13379,"lii":13380,"kladem":13381,"ĠoperacÃŃ":13382,"ĠformÃ¡tu":13383,"Ġefektiv":13384,"ĠvyjadÅĻ":13385,"ĠSlovanu":13386,"ĠÄĮÃ¡":13387,"Ġkres":13388,"ĠzÃ¡zrak":13389,"stajÃŃ":13390,"Ġusilovat":13391,"forma":13392,"ĠzÃ¡bradlÃŃ":13393,"ĠprohlÃŃdku":13394,"Ġposily":13395,"ĠÄĮtyÅĻi":13396,"ĠSlav":13397,"Ġkruhu":13398,"ĠvlasÅ¯":13399,"ĠLub":13400,"ĠploÅ¡":13401,"Uvedl":13402,"Ġbot":13403,"ĠzÃ¡vodnÃŃ":13404,"ĠzvÃŃtÄĽzit":13405,"ĠvÃ¡pna":13406,"Ġpochvaluje":13407,"Ġ1985":13408,"ĠtrÃ¡vnÃŃk":13409,"Ġdoch":13410,"ĠcÃŃlÅ¯":13411,"niÄįnÃŃ":13412,"Ġukli":13413,"Ġjiho":13414,"ĠvÃ½pravy":13415,"Ġzvedl":13416,"ĠpÅĻÃŃÄįinu":13417,"pera":13418,"ĠcelÃ½m":13419,"ĠorganizaÄįnÃŃ":13420,"ĠkrÃ¡tkou":13421,"TradiÄįnÃŃ":13422,"ĠpÅĻekon":13423,"ĠpatÅĻilo":13424,"Äįova":13425,"Ġposun":13426,"Ġspisovatele":13427,"ĠÅ½a":13428,"Doporu":13429,"ĠbÄĽÅ¾nÃ©ho":13430,"ĠzaslouÅ¾il":13431,"ĠaktuÃ¡lnÄĽ":13432,"gickÃ½":13433,"ĠorgÃ¡n":13434,"Ġkonstrukci":13435,"ĠJavor":13436,"ĠhovoÅĻil":13437,"ĠAby":13438,"ĠPaÅĻÃŃÅ¾":13439,"Ã©ri":13440,"Pri":13441,"vajÃŃcÃŃm":13442,"ĠpoÄįty":13443,"ĠKoz":13444,"Ġabsolvovat":13445,"ĠvÃ½roky":13446,"Ġpublici":13447,"ĠolympijskÃ½":13448,"zdu":13449,"Ġ01":13450,"dÃ¡k":13451,"Ġatrakce":13452,"ĠbÃŃlÃ½":13453,"ĠPavlem":13454,"Ġpramen":13455,"nanÃ©":13456,"dÄĽlÃŃ":13457,"ĠtypickÃ©":13458,"ĠpovÃ½":13459,"rig":13460,"ĠselhÃ¡nÃŃ":13461,"ĠMoskvy":13462,"ĠdÅ¯sled":13463,"Ġkritiku":13464,"ZP":13465,"UB":13466,"ĠKos":13467,"atra":13468,"Ġrou":13469,"ĠpÅĻidÃ¡vÃ¡":13470,"ĠpÄĽtkrÃ¡t":13471,"ĠsÃ³li":13472,"Ġsvi":13473,"ĠtisÃŃciletÃŃ":13474,"ĠÅ½ÄıÃ¡ru":13475,"EST":13476,"Ġkal":13477,"ĠzamÄĽstnancÅ¯m":13478,"ĠkrevnÃŃ":13479,"poz":13480,"Ġproveden":13481,"ĠvystÅĻÃŃdal":13482,"ĠznaÄįenÃŃ":13483,"ĠKno":13484,"ĠvÃ½uku":13485,"ĠpenÄĽ":13486,"ĠkÅĻeslo":13487,
[...]
